#version: 0.2
Ġ t
Ġ S
o r
Ġt o
e r
c or
Ġ o
cor e
h e
i n
ĠS core
a n
Ġ 1
Ġ s
a r
Ġt he
Ġ f
= =
a t
v er
l e
Ġ b
d e
in g
k e
Ġ w
Ġ r
Ġ M
Ġ R
o n
a s
l l
u n
Ġ K
Ġ P
Ġ A
e n
Ġ c
i t
Ġ T
Ġ a
== ==
Ġo ver
h a
e s
Ġo n
r i
Ġo f
e d
Ġ m
Ġ p
Ġf or
Ġ D
o m
Ġr un
Ġ C
Ġ B
Ġ 2
i s
an d
u t
Ġb a
r a
Ġ J
Ġ g
Ġ d
a y
o u
Ġ de
Ġ F
Ġs t
Ġw as
u m
g h
O U
i c
Ġ I
e l
Ġs ing
Ġsing le
Ġ it
i d
n d
Ġon e
Ġ and
o w
Ġ 4
a d
Ġ in
a m
Ġ le
h ar
Ġt h
i de
Ġ H
O ver
a l
E nd
c h
Ġ e
h an
Ġ 3
==== ====
Ġ G
OU R
Ġ n
ĠT he
Ġba ll
e p
Ġ N
Ġt a
o t
Ġ V
Ġ '
u s
Ġrun s
Ġ 5
Ġ 6
ĠF OUR
en t
u r
Ġ 7
ic ke
Ġ 8
l i
Ġ 9
ar d
Ġ or
Ġle g
i r
icke t
d er
ĠR a
Ġ W
Ġ Y
Ġ1 0
Ġta ke
c k
Ġo ut
Ġ 0
Ġst ri
Ġstri ke
m a
at ch
Ġf r
Ġn o
Ġ1 1
u l
Ġtake n
i el
ĠS har
ĠShar ma
Ġ1 2
ar y
Ġm id
Ġf iel
gh t
' .
Ġ l
t o
Ġof f
Ġ1 3
ĠP at
h i
ing h
ĠS ingh
Ġ L
Ġthe y
Ġs i
in e
Ġfr om
de d
t i
s h
Ġba ck
Ġth r
Ġ1 4
Ġg o
ou gh
at e
i ght
at s
Ġfiel der
ing s
s s
l y
======== ========
Ġp us
Ġthr ough
ou r
Ġsi x
d s
Ġs core
Ġf our
i l
w ay
Ġ1 5
c e
I X
Ġball s
p p
he d
Ġc om
a v
m an
Ġm atch
u ll
e ll
o d
Ġ at
ver y
Ġc o
ke d
Ġa way
c on
s t
m ed
Ġw icket
Ġsix es
Ġde li
Ġfour s
Ġr ate
Ġco ver
Ġdeli very
ri v
Ġover s
u d
Ġ ke
Ġb ow
Ġin to
ĠS IX
w o
Ġke ep
it h
Ġ1 6
ĠC ha
w ard
e t
Ġwicket s
Ġ U
r o
Ġb y
Ġ h
n n
Ġw or
i ll
1 0
Ġ2 0
1 1
Ġs h
um ar
1 3
1 2
on g
1 4
Ġt wo
y a
Ġd riv
Ġr e
1 5
q u
1 6
ha m
er s
o h
Ġ1 7
an de
Ġp l
f t
un d
w icket
1 7
ĠPat el
Ġl ong
ĠK umar
p er
Ġw ide
ur r
um p
Ġe con
Ġecon om
Ġeconom y
t h
ad av
ĠY adav
k s
ĠI D
ow n
0 0
1 8
m ent
ri p
e am
c hed
' ,
' s
Ġin n
Ġt eam
ĠJ a
Ġinn ings
ĠK han
le d
Ġe as
Ġ1 8
he s
Ġm an
Ġd own
i v
Ġb e
ra ight
Ġf ine
' t
e e
Ġbow l
g ed
or t
ic k
ir d
un ched
Ġs ide
Ġth ird
ti on
om e
pp ed
as h
ar n
Ġre cor
Ġrecor ded
Ġst raight
Ġ ar
Ġdriv en
is h
1 9
Ġb ats
c c
j a
Ġbats man
Ġe v
o v
Ġ1 9
Ġ qu
Ġde s
c ked
Ġg u
Ġ "
Ġo cc
Ġev ent
Ġqu ick
c ome
ĠP and
Ġcom ment
Ġdes c
ĠI nn
rip tion
Ġdesc ription
Ġcomment ary
I n
Ġout come
urr ed
Ġocc urred
ĠInn s
a i
Ġgu ide
ĠPand ya
r e
ro ss
en ds
ha w
ĠS t
ou l
Ġde f
b o
l a
ward s
OU T
s on
Ġ E
Ġb ut
Ġeas y
Ġc an
Ġar m
Ġpl ay
Ġto wards
n g
Ġm ov
o l
Ġon ly
Ġs c
Ġc ross
ĠD J
Ġgo od
o p
i m
ĠS h
Ġsc am
Ġscam per
Ġpus hes
at es
Ġp unched
Ġarm s
Ġpus h
Ġwor ks
================ ================
ĠR A
Ġmov ing
Ġta pped
ud ged
Ġg ent
Ġgent le
bo ard
Ġr ot
Ġscore board
Ġrot ates
Ġd ot
Ġn udged
Ġguide d
Ġdef en
ĠM or
a p
ĠK oh
an t
u b
ĠKoh li
ra v
s ide
o und
u p
ĠS P
ĠA sh
ĠH ar
ĠS K
us s
de ja
h er
k ar
ri s
a g
ĠS m
Ġ is
ĠP P
ĠK ar
ĠJa deja
ĠD haw
ĠDhaw an
Ġ an
ĠRa h
Ġ up
ĠS am
a b
h at
Ġw ell
Ġ OUT
Ġb ound
Ġ he
ra m
o ham
ĠD A
ng th
ĠP o
Ġle ngth
on e
Ġbound ary
ĠW arn
w in
ĠS R
a c
ĠPat han
um m
h ir
Ġkeep er
Ġa ll
ĠA r
ra j
ar ine
ha k
Ġw ith
e y
ĠM oham
Ġst ump
ĠAsh win
y er
ull y
f ully
f f
ill i
Ġout side
ĠN arine
Ġ O
Ġby e
an g
ĠM ar
ĠC H
j an
ĠA B
in ds
on i
de ep
ande ep
l o
ĠM S
Ġwor ked
Ġsh ot
in a
an a
o es
ha l
on t
ĠK a
Ġa l
ĠD h
ĠSm ith
Ġg ap
ur e
Ġs e
ĠRa ina
Ġh is
d ing
k at
Ġ hi
ĠR G
iv e
ats on
ĠMoham med
Ġbowl er
ĠC A
ĠW atson
ĠM c
ĠWarn er
u v
ĠM a
Ġa d
ĠS a
ĠA M
Ġd oes
han e
Ġl o
Ġth at
ĠM M
ĠI yer
Ġm is
i a
ĠM K
Ġc ut
s ive
w al
t hi
Ġbowl ing
Ġfor ward
ut t
ĠRah ul
ĠA D
Ġr o
Ġgo es
ĠDh oni
ĠPo ll
at t
Ġ ump
pp a
ĠK ul
Ġump ir
ĠRa hane
Ġt im
Ġs ends
le ss
Ġad ded
ĠB rav
ĠBrav o
ĠA R
ĠA h
ĠJ C
i k
w e
ti med
ĠS S
Ġf inds
es s
as t
ash id
ĠA b
a ce
F OUR
ĠS to
ay le
ĠG ayle
t ha
Ġp ad
tha ppa
ĠU thappa
Ġc ont
s han
Ġde ep
her e
ĠPoll ard
thi k
Ġfr ee
ĠKar thik
ĠS u
Ġp it
am b
Ġbow led
Ġro om
in d
Ġbe at
I N
Ġdoes n
e h
Ġle ft
A T
Ġp r
ĠCha w
ĠChaw la
ĠH H
Ġpit ch
or e
an s
Ġ ends
ĠP ande
ĠSam son
ĠPande y
p ed
Ġcan n
ĠJ P
oul t
Ġan y
b ha
Ġbeat en
ĠM al
bha jan
ow er
Ġr ac
ĠCha har
a k
r an
ra h
um rah
ish ra
Ġsh oul
ĠK L
ĠMc C
u es
uss ell
Ġcont in
ll is
en d
Ġpr ess
Ġrac es
ĠR ussell
ĠR D
Ġs umm
Ġsumm ary
Ġpress ure
Ġcontin ues
Ġplay s
ĠK A
Ġc ram
ĠCha hal
Ġb lo
es h
Ġcann ot
Ġcram ped
Ġoff er
Ġmis timed
Ġd u
Ġb u
Ġt ight
w here
Ġw atch
Ġt u
Ġdefen sive
Ġshoul der
Ġany where
Ġbu il
Ġfor ce
al s
Ġbuil ding
Ġshoulder s
ĠR ay
Ġblo cked
Ġtu cked
ke l
ĠMor kel
Ġwatch fully
ĠR ana
ĠM ishra
g e
ud u
ĠC h
ĠRay udu
ĠR ashid
ĠB utt
G H
ĠV illi
ĠVilli ers
Ġs ol
ĠR V
Ġal one
l er
Ġsol id
Ġdefen ded
Ġsolid ly
GH T
ĠJ J
o y
n a
ĠK H
ĠP less
ĠPless is
o s
ĠHar bhajan
ĠButt ler
Ġumpir e
U GHT
ĠCA UGHT
Ġtim ing
ĠKa llis
ĠB umrah
ĠP ant
ĠY S
ĠMar sh
Ġe x
ĠR R
Ġs p
h is
amb hir
ĠG ambhir
ing a
t a
o ck
i b
ĠJ H
ĠK K
con d
ĠM A
v i
ĠK D
c t
ĠJ D
ft s
Ġse cond
ĠS V
ĠAh med
Ġ ha
ĠG ill
g ar
ĠV i
n er
Ġb et
e w
t ra
l it
ĠT hak
ĠThak ur
w ell
ub man
Ġ2 2
ĠA gar
ke s
Ġcover s
f ul
ĠV ar
ĠMal inga
ham i
j ha
ĠO jha
ĠM u
n e
at h
a ir
C H
ĠS A
we en
Ġbet ween
a z
ĠSh ubman
Ġc han
ĠA T
Ġ2 3
x well
al led
uv raj
X I
Ġh it
ĠS andeep
Ġ2 5
Ġsh ort
f e
t al
ĠMa xwell
um b
i raj
ĠY K
ĠT i
ĠG J
ĠH uss
Ġto tal
j ay
en ce
ĠTi w
ĠS T
5 0
Ġex tra
Ġdriv e
ĠU T
Ġf ence
ĠSu per
ĠS hami
Ġchan ce
Ġ as
ĠY uvraj
ĠP r
ĠTiw ary
M AT
MAT CH
o od
n ad
l ay
ĠVi jay
ĠR oy
ĠK ock
is han
ĠK ishan
Ġ Z
nad kat
Ġ5 0
i on
Ġ10 0
t on
ĠS N
Ġbe ats
ad a
ĠHuss ey
ĠM ill
Ġ2 6
ĠT hat
Ġth is
ĠS iraj
ĠD P
ĠI shan
ĠB oult
in is
Ġ2 4
Ġ2 1
as hed
ĠP J
att ing
Ġ3 3
Ġfiel d
Ġw on
v e
ĠD L
ĠP ar
ĠSa ha
ur n
Ġg ro
Ġgro und
Ġpad s
ĠSto inis
ĠI K
ĠS L
at hi
Ġ2 9
i er
ĠM J
ĠB B
Ġ2 7
ar a
u e
ĠC urr
ĠCurr an
er e
Ġ2 8
P lay
ĠB r
le s
g i
Ġ v
Ġ Q
ĠA n
b ada
ĠRa bada
ab le
2 5
Ġg et
Ġr op
ĠS M
Ġ3 4
ĠMill er
ĠT A
n ing
ĠS ha
Ġ3 5
ĠW P
ĠU nadkat
op al
ĠA J
ĠD R
Ġp o
or m
a ut
in t
Ġ3 2
in s
Ġplay ed
ĠH V
ull um
ĠMcC ullum
ch er
Ġ3 0
ĠV R
a il
Ġ4 0
ĠMor ris
ĠM P
Ġ4 2
Ġp er
e m
ĠAgar wal
a u
Ġ3 6
ri c
ĠP A
f ort
Ġ3 1
ĠB ad
ĠSha h
ĠI nd
ft er
a j
ĠV in
ĠJ A
Ġ4 5
ĠH e
Ġcom fort
ĠKul deep
l ing
umm ins
he k
Ġby es
Ġ3 9
Ġto ss
Ġd is
Ġa fter
ĠD ub
ĠKar ti
Ġrun ning
ĠInd i
aut i
ĠP er
3 3
Ġc alled
ar e
ĠC ummins
ĠS im
a ul
Ġb at
Ġ3 7
o ff
ĠA l
IN G
ey n
ĠL ate
ING S
hak ib
s es
ĠS E
Ġlo fts
Ġc atch
ĠJ ay
Ġ4 7
Ġp ull
Ġt urn
ĠF l
ĠVin ay
Ġ6 6
ĠS ang
o o
Ġhi gh
ĠD S
g es
w ar
ĠMar k
ĠSt eyn
Ġ4 6
illi am
k arn
ĠKul karn
ĠKulkarn i
Ġ4 4
in y
ĠW illiam
ĠRa vi
ĠB hat
Ġm ore
a de
um iny
Ġeas e
auti fully
Ġ5 4
ĠA v
Ġ4 9
Ġ5 5
p s
n o
ĠD uminy
Ġ5 2
Ġ5 7
m ad
Ġ6 2
2 0
ĠWilliam son
Ġ4 3
Ġ4 8
Ġpo int
7 5
Ġ6 0
le t
Ġ3 8
ĠAr cher
6 7
Ġ4 1
S IX
Ġ5 9
e er
Ġ8 5
rip athi
ĠT ripathi
Ġr es
ĠT a
g n
Ġp ast
Ġd iv
Ġs o
ĠT M
Ġ6 1
Ġ j
ĠD W
Ġ7 4
Ġsi gn
ĠK ings
ower ful
m on
Ġ9 4
Ġ7 6
ai k
sh deep
Ġ5 6
Ġha d
Ġ7 2
Ġ6 3
ĠR P
Ġ8 3
B ow
ĠSh ort
ĠS o
ĠKarti k
Ġ6 9
Ġ5 3
Ġ7 5
ĠM us
Ġto o
ĠS ai
at ia
ĠT ew
ĠTew atia
ĠA C
ĠS hakib
ĠH as
end ul
Ġ6 7
ĠT endul
ĠTendul kar
Ġ7 3
Ġ8 8
in ch
w ad
Ġ8 0
au ght
ĠG aik
ĠGaik wad
ĠVar un
Ġ5 1
Ġcom e
Ġ9 0
B atting
I nn
N INGS
IN NINGS
Bow ling
Inn ings
Ġ6 8
ĠF inch
Ġ8 7
ĠRah man
ĠRa j
ash ing
Ġ7 0
Ġpl ace
================================ ================
================================ ================================================
und ar
ĠE d
ĠS undar
Ġ9 9
ĠH en
Ġf ar
Ġ XI
Ġhe ad
Ġ7 1
Ġp ace
Ġ7 7
Ġ9 8
ĠHas an
Ġ5 8
eh ra
ashing ton
Ġcut s
L T
Ġ9 2
ĠCh ris
! !
a in
ĠI t
Ġplace ment
Ġ8 9
ĠC V
Ġ8 2
Ġ7 8
p re
ĠAr shdeep
b s
id h
ull a
w ag
Ġ6 4
Ġ8 4
ĠS eh
ĠSeh wag
Ġsp lit
Ġ un
ĠJ M
as idh
ĠA li
ĠB A
Ġ6 5
Ġ9 3
Ġpus hed
Ġ har
ĠN ehra
Ġsplit s
Ġ8 6
ri sh
ĠP ad
ĠB ish
ĠAb d
no i
ĠBish noi
ĠEd ged
his hek
ĠC aught
ĠBhat ia
Ġhar d
il s
Ġ9 5
as on
Ġ8 1
Ġh as
Ġcomfort able
qu es
ri ques
ĠPo or
k al
ĠSP D
ed i
Ġ7 9
and s
Ġm a
ĠD rav
ĠDrav id
ik kal
ĠPad ikkal
ood a
Ġse ason
Ġcom p
Ġc l
Ġ9 7
ĠH ooda
ĠS B
ĠP un
ud har
ĠPar ag
ĠK rish
i z
s an
ĠPoor an
Ġ10 4
Ġ9 1
P L
ĠF er
oh n
ĠK S
ĠHen riques
ĠSto kes
umb ai
it y
gh an
Ġcomp let
y der
ohn son
us t
Ġ9 6
m ran
Ġ10 3
ĠJ R
le na
lena ghan
ĠAb hishek
Ġc le
ri st
ĠS haw
icke d
ĠW ashington
ĠDub e
Ġ10 8
ĠPr asidh
ke t
ĠKrish na
Ġ10 1
ĠC har
Ġ11 1
Ġ10 9
ĠM andeep
is wal
ĠJa iswal
k ner
ĠM R
aul kner
Ġ11 0
ĠK V
Ġ12 5
Ġ11 4
Ġteam s
orm at
ĠKa ul
ĠM C
ĠAv esh
Ġ10 2
Ġ11 6
Ġ11 2
B K
in n
Ġ10 5
ĠB e
ag ue
Ġ12 0
Play er
ĠS al
d y
Ġs l
ĠJ ohnson
Ġ11 3
m ier
Ġw h
Ġ k
ĠN air
y s
ĠS han
ĠR E
ed ge
Ġf ull
it e
Ġ11 5
Ġ10 7
Ġ10 6
ĠN at
M D
ĠF aulkner
ĠS udhar
ĠSudhar san
ara jan
ĠNat arajan
fe ct
Ġhi m
y nn
ĠY BK
ĠL ynn
ĠA S
Ġ12 6
he e
Ġ11 7
Ġl ine
ade em
Ġ12 1
Ġ11 9
ĠC J
Ġ12 2
ind a
r in
ĠA K
ĠG il
ch rist
Ġhi p
ĠGil christ
E K
ĠK C
ed dy
st ow
air stow
o ot
ĠR eddy
Ġ12 3
ĠShan kar
ĠN e
ĠB airstow
ĠC l
ul y
Ġ13 3
ĠD inda
Ġ11 8
Ġs a
Ġdiv ing
ĠG ang
ĠGang uly
har an
Ġ12 8
al aj
ĠM EK
Ġun der
et t
kar a
Ġt i
ĠY ash
el hi
ĠS C
ĠT riv
ĠH ol
ĠTriv edi
Ġ12 7
u k
de ne
ĠB alaj
ĠBalaj i
as s
ut hee
a war
ĠJay awar
ĠJayawar dene
ĠN adeem
ĠMu ra
rin ath
j e
lit haran
ĠMura litharan
ti an
os e
el y
Ġth ere
Ġti med
Ġrop e
wo od
ac ed
Ġget s
ĠG opal
inn y
ĠA nd
ĠM atch
hi pped
S K
K K
S R
Ġ13 0
ĠM an
b az
u g
ĠHol der
fect ly
ĠB J
ĠS y
ĠMark ram
z z
ĠL R
ĠMcC lenaghan
or d
as en
Ġfiel ding
Ġcle ar
Ġpl aced
ĠPun ja
kat a
ol kata
ĠM G
ĠSuper b
ĠB inny
f iz
ta fiz
tafiz ur
ĠDP MD
il ak
l le
id er
ĠTa hir
ĠSm ashed
o ss
m e
Ġst y
Ġsa fe
ak kara
ĠSang akkara
w s
l led
Ġk n
Ġ edge
ha v
Ġ13 5
Ġ12 4
ad i
ĠN o
Ġsty le
Ġc r
ĠPer fectly
ĠN V
hi v
ĠW hipped
ri lled
Ġguide s
Ġ13 1
L E
ĠChar ges
ass y
Ġ12 9
adi um
ĠJ O
he nn
Ġ15 0
henn ai
le g
ĠF inds
ĠU ses
ĠBe autifully
ĠChris tian
Ġ13 4
ĠCl assy
ra cked
ĠSt adium
at he
Ġcomplet es
t s
Ġ13 2
C B
ĠJ ad
ĠSo uthee
ĠWarn e
b u
Ġ [
in i
ĠIndi ans
] "
athe ws
od ge
ĠB ang
ĠH odge
ĠC racked
n ight
ĠM athews
ĠP unched
Ġs m
leg ant
la asen
g us
ĠK laasen
ĠD rilled
gus on
ĠJad hav
eer ed
ĠVar ma
y e
Ġ14 0
ĠFl icked
ke sh
Ġ13 7
ĠL e
ĠM umbai
ĠC ut
ric bu
ricbu zz
Ġs qu
re en
Ġr ider
g an
ĠSt eered
u j
ĠK M
ĠMor gan
M I
k umar
ĠE legant
ar c
pre et
ĠA k
Ġ14 2
Ġstump s
ĠSt arc
ou s
ĠR J
Ġ13 6
w w
f iel
Ġ13 8
KK R
Ġc ashed
ĠMus tafizur
c hes
Ġwh o
fiel d
m yer
ĠH et
ĠHet myer
ĠFer guson
ĠD il
ĠDil shan
ic ks
Ġd ri
ĠP owerful
ĠT ilak
ĠI n
ĠPunja b
w an
ĠG reen
ĠCha lle
ĠChalle ng
ĠChalleng ers
ĠMu kesh
ĠM is
Ġc h
Ġ13 9
ĠR id
ĠK night
ĠRid ers
D C
le y
mon ds
ĠSy monds
J G
ĠBad rinath
de n
Ġ14 6
Ġe ar
ĠJ ans
ĠJans en
XI P
O W
ĠB OW
LE D
ĠBOW LED
Ġp ower
ĠI mran
Ġj ust
li ght
ĠT G
ort je
Ġsqu are
lo g
ĠSim ran
ĠAbd ulla
ar on
ĠST R
ĠS ur
ĠD T
ĠF ull
ar t
ĠD esh
ĠM as
Ġst ands
Ġre f
ab ad
SR H
Ġs log
ĠA z
ĠH az
ĠRoy als
Ġrop es
Ġear ly
Ġ14 1
p ande
ĠDesh pande
o ll
ĠNe gi
i le
E N
le wood
Ġ14 5
M P
h om
ast han
ĠHaz lewood
Ġtake s
le n
ĠN ortje
Ġ14 4
Ġ14 7
ĠN av
ĠS hiv
o c
Ġdef le
Ġ14 3
al ore
oh it
ĠBang alore
ĠE JG
ep s
ric ket
ĠT ye
o g
ĠSa ini
ĠAh mad
ra ys
K XIP
ĠA aron
ĠD elhi
ĠHar preet
ĠH yder
ĠHyder abad
ĠBr ar
Ġcl ub
ĠT U
es an
Ġg iv
ĠV en
i es
ĠL a
ans hi
ĠShah baz
t ham
ow tham
ĠC on
ĠRa o
Ġdri fts
ĠS O
ic i
ĠJa kat
ĠJakat i
ĠK P
t one
ings tone
iv ingstone
Ġclear s
Ġ -
ĠL ivingstone
ff ort
ĠP V
Ġ y
ĠMoham mad
v a
er a
ĠNo or
or i
ck s
ĠHe ad
ĠIndi an
R CB
ug opal
ĠVen ugopal
i g
ĠL H
N ile
Ġg one
oh ra
oult er
ĠV ohra
Ġ15 2
Ġumpir es
ĠC R
Ġplay ers
ĠHar ris
Ġha ve
ĠP re
Ġcr ow
ĠC le
av i
ĠW hat
ĠR K
Ġfr ont
Ġ15 1
Ġ20 0
as hes
ĠB ot
Ġ14 8
Ġref er
a ll
ĠT V
ers on
Ġch ose
Ġcrow d
S U
ff ici
T his
Ġde ta
Ġdeta ils
AT E
ĠLe ague
ĠPre mier
F ormat
M EN
O ffici
T oss
Ġn ot
Ġh and
ĠST ATE
Play ing
ĠXI s
Ġma le
ĠRE SU
Ġrefer ee
MEN T
Offici als
ĠSTATE MENT
ĠRESU LT
i p
u ck
or a
ĠAr ora
Ġs w
er ve
ĠK olkata
Ġres erve
ĠBot ha
ĠG ur
0 4
R R
Ġkn ee
id ar
d har
ĠPer era
b al
ĠPat idar
ĠT ya
ĠTya gi
h as
l or
0 5
Ġf l
q bal
umb le
ĠR M
Ġres ul
LT C
ĠT ay
ĠTay lor
Ġ15 3
ĠCle an
ĠL ee
Ġ14 9
ĠM er
ĠK umble
Ġa c
Ġ15 7
on y
Ġtim e
ĠL S
Ġgiv en
ĠC hennai
ĠC oulter
t ed
y as
Ġ16 0
un ris
unris ers
Ġ15 4
ĠI PL
an k
ĠP ow
ĠAnd erson
Ġd ro
ĠG ony
ĠS re
am p
esan th
ĠSre esanth
ard ik
p at
ĠP D
ĠI qbal
ĠG owtham
Ġm i
Ġ15 5
ĠBad oni
ĠSim mon
ĠSimmon s
ĠSang wan
Ġac ross
ĠN ay
i et
att ed
o a
ĠN LTC
ĠAgar kar
Ġr ight
rav ind
at ion
Ġ15 8
Ġbe autifully
Ġt r
ers en
iet ersen
ĠP ietersen
C SK
Ġp owerful
od y
as e
ith ish
Ġw ay
ut al
os it
b atted
Ġ15 6
er oc
Ġf eroc
R ight
ĠS il
ĠSil va
ar en
ĠM avi
ab i
Ġdis pat
2 2
ĠS W
Ġs ail
ĠShiv am
ĠE n
s w
u ri
Ġlo ft
Ġferoc ity
ĠBr utal
p oot
re yas
Ġsign alled
Ġb ody
ĠD ay
ffort less
ĠDay al
Ġ16 1
e ks
han a
ĠThe eks
ĠTheeks hana
ĠW h
ĠN M
ĠV G
ĠFl at
d ain
r un
ĠHar sh
Ġdis dain
b le
ĠA s
Ġmi les
ĠSh uk
ĠMark ande
ĠAk ash
ĠShuk la
w a
ep t
ant ner
Ġsm ashes
Ġdispat ched
id th
ĠV ett
orm ous
ĠVett ori
Ġ15 9
ĠEn ormous
W H
ĠN ithish
Ġ16 6
c led
ĠRoy al
ĠA ravind
len t
as uri
asuri ya
Ġt ier
ĠJay asuriya
ĠMas sive
Ġw idth
ĠMal ik
oa kes
ĠG ib
ĠGib bs
ĠL MP
ĠE ffortless
ĠSu y
ĠP icks
ing er
ĠS um
ĠNay ar
Ġ16 2
ĠS antner
ord an
r uv
Ġdisdain ful
ĠJ ur
ĠJur el
Ġp osit
ĠSt eps
Ġsail ing
Ġv an
ĠIn to
ham p
ĠD own
ou dhar
ĠCh oudhar
ĠWh ite
ĠChoudhar y
ĠLR PL
ĠH ay
ĠLa unched
Ġposit ion
h m
ĠMa hm
ĠMahm ood
Ġresul t
ĠHay den
ĠT hamp
ĠThamp i
ĠR S
ĠP WH
k i
ic h
Ġb atting
s o
ĠMus cled
ĠP arn
ĠParn ell
ĠN abi
em p
d le
s e
sw ept
ĠRaj asthan
ĠR as
Ġdefle ct
ĠK am
Ġb el
ot her
ĠJ ordan
ĠSum an
ar ia
ĠDh ruv
ĠP ure
2 9
ĠR ohit
ĠH op
o k
ĠM L
A L
ĠD E
ĠD av
oul d
Ġw ere
ĠG C
Ġthr ee
2 4
ĠAz har
Ġa g
ew is
ĠL ewis
as il
ĠSam ad
ĠC L
8 9
H ar
l in
Ġal so
ĠNav deep
ĠB is
Ġbe en
ĠCon way
ĠA m
ulla h
ĠDav id
ĠW D
ĠBis la
ĠE x
ĠD e
ĠSal t
ag ar
Ġ16 4
c el
y an
E R
r and
cel lent
Ġ en
ĠT L
ĠPat hir
ĠPathir ana
c om
Ġsign als
7 4
ĠG rand
hom me
ĠGrand homme
Ġ16 3
ĠA w
ĠSuy ash
de v
ĠD are
ĠAw ana
dev ils
ĠDare devils
ĠT his
o un
id i
g idi
han k
ĠRa gh
run al
ĠSt ub
ĠStub bs
ov es
Ġh ol
i an
ta in
i f
Ġag ain
h t
ĠT H
Ġa v
Ġsl ower
Ġf ir
light s
Ġplay er
M atch
Ġv al
Ġav ail
Ġin f
Ġis n
utt ing
C ha
il ity
Ġg ot
ĠN gidi
Ġs har
ĠA A
Ġd id
ab ly
Ġin side
Ġback ward
t emp
ĠR yder
Ġd er
Ġ16 5
Ġv s
Ġval ue
Ġshar p
ab ility
Ġhigh lights
R L
ĠC ricbuzz
ĠU RL
ormat ion
Ġavail ability
Ġinf ormation
ĠAbd ul
Ġat temp
ĠRaj poot
4 4
ĠL B
c tion
is ted
w am
an n
ĠT amb
Ġloft ed
ĠTamb e
s in
Ġwide s
m ar
oh sin
ĠHarsh it
Ġbel ong
ĠB at
Ġbelong s
ĠJ os
e en
2 3
Ġ16 8
Ġl isted
ĠVijay kumar
Ġc ap
ĠCh and
t er
8 6
Ġ li
way ne
u ch
v s
s core
/ /
: //
c ricbuzz
c ricket
t ps
le ague
Ġ16 7
ind ian
pre mier
ww w
ht tps
score s
Ġc on
2 6
ee b
ĠM en
ĠN ann
Ġ17 0
ĠSh reyas
ĠNann es
uk h
ĠS unrisers
ĠN it
as hank
ĠSh ashank
) "
Ġw ent
ĠB op
ĠHop es
ĠBop ara
t ing
Ġ17 1
ĠMa har
ĠT op
att ers
Ġcap tain
ĠM ohsin
ĠT h
ĠLB W
el s
h un
he p
Ġstrike s
ĠC oo
ĠCoo per
ĠW oakes
Ġtr ou
Ġmid dle
Ġ17 5
6 9
R ashid
ĠH ardik
k it
r ukh
ĠShah rukh
ĠEx cellent
m atch
ĠSur ya
er at
yan sh
f ord
ĠSt raight
Ġle ts
uv anshi
ĠRagh uvanshi
7 3
oo ks
ĠN agar
ip ul
e ct
ou ches
ĠI ng
Ġ16 9
ad her
ĠW adher
Ġtrou ble
ĠWadher a
Ġdiv es
at y
h uv
ĠD B
c u
Ġs we
ik h
Ġc re
Ġn e
ĠSurya kumar
r or
Ġar e
hal f
x ar
ke erat
ĠB ill
ĠBill ings
k er
al it
Ġlo ses
Ġdro ps
ĠB oll
Ġg l
ĠBoll inger
le as
Ġ17 2
Ġ half
ĠM ay
Ġs ett
l ine
Ġb atters
ĠM ad
ĠAm la
am e
Ġcomfort ably
cu ed
al th
Ġn ow
ĠG ar
Ġdeflect s
N ot
Ġhol ds
ail able
ĠAv ailable
Ġattemp t
or el
ĠP orel
ĠJa cks
Ġst un
ĠV alth
ĠValth aty
R aj
ĠC utting
am an
ĠDub ey
leas ed
Ġp ouches
ĠMer we
amp a
2 7
o les
Ġt ram
Ġst rays
ud ges
ĠGur keerat
er t
ll y
ĠC ap
h ind
ĠB ai
ĠJ E
ĠMan has
ĠBai ley
ĠU r
Ġsign al
Ġt ri
m y
Ġtram line
S N
Ġb oun
Ġ end
me et
Ġover c
Ġcre ase
Ġp leased
esh war
n eshwar
huv neshwar
Ġsp rays
thi v
7 8
ĠB asil
is hek
ĠAn kit
ĠSu ch
ĠK ish
om ror
ĠMis cued
ĠA N
ep h
ĠL alit
ĠJos eph
ĠCap it
Ġoverc ooks
ĠKish ore
ĠCapit als
a ch
ĠP C
ĠPar thiv
M c
ĠMis timed
J C
ĠL omror
Ġen ough
hep her
ĠS hepher
ĠShepher d
m at
Ġh ands
Ġj udges
6 6
ot t
ĠB ipul
bo j
ĠKam boj
an c
ki ed
ĠW G
ĠSal am
Ġsett les
ĠSh o
N E
Ġto p
ĠV ys
Ġ17 3
Ġstun ner
ĠVys hak
Ġcl ings
0 9
ĠR athi
ĠK R
A B
re ak
ĠHar meet
ath wa
athwa ite
ut her
oo f
ĠTa it
Ġ18 0
uther ford
ĠMahar oof
ha d
5 3
ar ri
ĠH oles
ĠS kied
L aren
i ant
ĠMc Laren
l ton
ĠR icke
ĠAb ishek
als e
ĠRicke lton
ĠN aman
C J
ĠS ran
Ġ17 6
ĠG l
ĠR utherford
F alse
ĠGl oves
s had
ĠP ri
ĠD hir
Ġ us
Ġon to
Ġ17 7
ĠSuch ith
Ġb ig
4 3
z a
S andeep
ĠZ ampa
ow s
ĠRas ikh
j eeb
ĠMu jeeb
Ġs ome
ĠM F
Ġfir st
ĠR ic
ĠRic har
H a
Ġbe hind
Ha q
ure et
ĠPow ar
wam i
ds on
ĠRichar dson
s el
Ġar ound
ĠSam my
ĠAr ya
ĠM N
Ġl ow
ĠU mran
e ja
Ġ17 4
kar i
0 3
ĠSa kari
ĠSakari ya
Ġ Over
D J
v ir
ĠAr shad
ĠMen aria
Ġb r
Ġw ill
ar at
uj arat
ĠNit ish
Har bhajan
ĠAsh ish
ĠB re
ER S
O NE
M umbai
v is
Ġgo ing
he ll
ĠBr athwaite
hi p
Ġal ert
R A
B umrah
ĠPri yansh
y av
in ce
ĠSur yav
ĠPow ell
ĠSuryav anshi
og g
az al
2 1
en g
ĠH ogg
R P
Ġf oot
ĠA L
ĠS en
Ġ17 8
ĠDJ G
oy al
ĠF ran
p en
ĠI C
Ġan other
ĠMan o
k lin
ĠFran klin
. .
ĠG H
ĠBre vis
ĠCha m
ĠG D
ĠA P
ĠF azal
ĠAn ureet
eer a
ĠCham eera
3 9
ĠM D
ĠO mar
z ai
mat ullah
ĠOmar zai
eh r
3 6
ĠK runal
Ġa ir
all y
K ul
r ee
op s
C h
Ġ18 1
Ġthe n
Ġy ou
ĠG B
u ff
or ff
Ġh ere
Ġ18 4
end orff
hom as
ehr endorff
Ġw a
ac t
ĠPr ince
Ġswe ep
C hennai
R oyal
Ġ17 9
K olkata
Ġ18 3
Ġmis s
ĠJE C
g er
u els
or ker
ĠM end
ĠD oes
ĠSam s
ĠMend is
Ġd o
9 4
it s
ay s
ĠAz matullah
w at
ĠPV D
B huvneshwar
U nadkat
har i
ith vi
ĠPr ithvi
ĠRa wat
ĠSam uels
o f
ĠB ow
Ġst r
in der
ag e
Kul deep
D elhi
ĠP uj
ĠPuj ara
Ġlo ok
os wami
ĠS ath
Ġ18 5
ĠSath ish
ĠG oswami
i ft
ind ra
ĠAs n
ĠT homas
a h
it t
ĠC ricket
P P
S P
Ġ (
5 6
o sh
Ġhe l
A D
h u
ĠJ am
f ar
ĠB CJ
5 7
A N
Ġs k
Ġdid n
S to
ĠW ies
Ġ18 7
ĠE llis
ĠWies e
0 8
ra ck
sel f
ed ith
ĠVi hari
ĠMer edith
Ġ18 2
ĠK W
ĠH a
ĠPun e
ĠNav een
Ġgl anc
U N
ĠO A
ĠH M
Ġo pen
ĠB ri
ĠBhat t
har a
ĠDe ep
ĠB ur
ĠBur ger
S h
Ġhim self
ĠN ig
an ce
Raj asthan
ĠB ehrendorff
ĠNig am
ĠPoll ock
of ra
itt le
5 4
i e
ĠG up
ĠN T
ti ll
a ks
Ġc ould
Ġ18 6
on s
ĠAs if
f en
ĠMa he
ĠM V
ha us
ĠH il
fen haus
ĠHil fenhaus
c aren
ĠW arri
ĠMas caren
ies on
Ġboun ce
ĠJam ieson
ĠMahe sh
ĠMascaren has
ĠMad h
ĠB ut
ĠMadh wal
Ġb it
ut osh
Ġ18 8
ja p
Ġlo o
Ġdefle ction
n ow
N arine
G L
3 8
ĠT eja
Ġc lo
it c
Ġfl at
7 1
od kar
Ch ris
o ut
Ġw ant
ail s
9 8
Ġw hat
ĠB eng
ĠMan ish
Ġ very
et s
ĠAsn odkar
ĠGup till
ĠB W
A R
Cha hal
Ġli ke
ĠS J
ĠA xar
ĠO ram
Cha har
ĠB ou
RP S
ĠBou cher
7 7
r y
D wayne
S M
Ġt en
ĠV Y
ak a
uck now
ĠD as
B oult
C haw
Chaw la
Ġ19 0
ĠSt y
us hara
ĠTh ushara
a as
ĠV aas
ĠAsh utosh
U JC
o st
il ne
ĠSty ris
es t
3 5
b reak
Ġp icked
wal a
g ers
l is
am ich
ir ect
amich hane
B B
ĠT are
ĠRa v
cc an
Ġdis t
ĠChar gers
ĠP aul
ch ate
ĠDoes chate
in son
Ġm uch
ĠVR V
Ġa bo
Ġabo ut
ĠS riv
es ham
av a
et z
ast ava
ĠIng lis
ĠBow led
ĠSriv astava
ĠR oss
ĠM ith
itc hell
ĠMith un
it ans
ĠT itans
ĠC o
ou w
ĠG o
Mc C
ĠRoss ouw
ĠS ar
ĠG ujarat
McC lenaghan
L e
a ck
ĠM itchell
ĠJD P
M oham
k ing
H ardik
ĠT an
Ġma kes
ĠBeng al
B T
ĠT K
ur u
Ġl ate
ĠBad ree
ĠRav indra
Ġ im
ĠBengal uru
am andeep
Ġs li
ĠA G
ĠWP UJC
ĠGo el
ĠL A
j hun
ĠD wayne
ĠJ hun
jhun wala
ĠJhun jhunwala
r ath
ank aj
ĠMay ers
G rath
re w
ĠMc Grath
S hami
r as
il ley
ĠR iz
ĠK N
etz ee
ĠCo etzee
ĠRiz vi
ar i
ĠR amp
ĠSo hal
ĠNe esham
ĠGar g
Ġf ace
ĠR CB
Ġmov e
ĠRamp aul
0 6
S unrisers
no lly
ĠCon nolly
im um
ang e
J a
b w
Ġp ut
K D
N G
ift y
Ja deja
ĠM ur
Ġma x
ĠR N
ai b
ĠC K
Ġy orker
ĠM o
ĠU BT
aria ppa
ĠMano har
Ġmax imum
! "
edi um
M S
T a
Ġa w
Ġsw ing
ĠGur baz
Ta hir
ĠF H
ĠOver ton
A S
K ings
V S
Ġmis ses
Ġ X
Ġw ould
Ġ18 9
ĠMill s
st ump
ĠSam eer
ĠP ankaj
A I
ĠB art
ĠG iant
let t
ĠBart lett
ĠGiant s
ke ya
ĠM ilne
ĠV er
ĠKarti keya
og inder
Ġev en
Ġhit s
Ġst art
S iraj
ĠR amandeep
ĠO ff
ee z
ar k
ha il
att er
ĠTan vir
9 7
M M
i ket
ĠM un
Ġwor k
ĠK INGS
Ġst ill
au gh
Ġpull s
Ġcle an
2 8
D A
ĠW illey
ĠJa g
ĠRahman ullah
he n
ĠK ai
ĠW as
Ġ19 3
ĠJD S
Ġcomplet ely
ĠKai f
Ġp ro
ĠN ot
Ġcom ing
ĠLa x
Ġm om
ĠJ ust
Ġmom ent
j esh
ĠLax man
K runal
ra b
hi l
Ġsp ot
O Y
Ġ19 1
Ġan g
ĠAn uj
ĠAl len
Ġsl ic
ĠX C
ĠC hip
ĠChip li
R ab
ĠR OY
ĠIng ram
Rab ada
ĠROY AL
p h
ĠS D
ĠL ange
ĠJ oginder
8 0
u ge
Ġf ifty
ĠN ar
ĠSo hail
R ah
k ot
ke en
Ġ19 4
ĠSho keen
ĠMun ro
ĠA f
al d
Ġn ic
Ġget ting
ha p
ĠS od
on ald
ĠSod hi
Ġf ly
Ġw k
3 4
D onald
f ore
ut h
ĠF ar
ĠMc Donald
augh lin
k ward
m p
Ġs ent
je et
ĠBri jesh
Ġaw kward
H H
Ġ cor
ar jeet
Ġcom es
ta za
Ġlook ing
ĠMur taza
I shan
Sto kes
Moham med
ĠV VS
oo q
Ġwk ts
ĠFar ooq
ĠS w
ha q
Ġ19 2
Ġwh ich
ĠFarooq i
Ġd one
K A
ĠS rinath
R G
ĠP K
ĠB ar
Ġus e
D P
G ur
ĠHuss ain
ĠShiv ang
ĠSho aib
k ph
ĠP om
ter n
Rah ul
b ach
ĠS ham
Ġw al
ĠC ariappa
ers bach
ĠPom ersbach
M A
h ing
v an
ation al
d i
e es
i gh
ĠH R
S hakib
Ġm e
ĠG ets
ĠL ucknow
ĠCha van
Ġ20 13
Ġbe fore
ĠNagar kot
ĠNagarkot i
ĠMay ank
d ana
ĠP hi
ed ar
Ġp un
Ġd irect
J ofra
M K
Ġt rack
9 9
W ashington
t inson
ĠPat tinson
ĠAk hil
A xar
ĠK edar
Ġ20 12
Ġf e
ĠFazal haq
Le ft
m ost
urn ey
Ġ19 5
ol ut
Ġmiss ed
k ib
Ġc all
ĠSa kib
ĠSim arjeet
Ġsl ot
ĠA F
pp e
Ġ20 11
Ġv ia
ĠKam ran
at ed
ĠI S
Ġ200 9
Ġw hi
pp er
A M
n and
ĠM hat
ĠMhat re
us hi
Ġcann ons
M al
M ishra
Mal inga
Ġs ee
Ġsk id
M ohit
or ey
ing wood
ĠR un
ĠC oll
ee ded
ĠColl ingwood
A b
i ra
Ġthe m
l un
Ġ19 6
N av
c o
ĠT her
Ġde c
ĠKK R
Ġagain st
ĠTher on
Ġf oll
re ira
vi ew
ĠFer reira
tern ational
8 3
il a
ĠFer nand
Ġne ed
ĠFernand o
A sh
4 2
4 6
n il
ĠB har
ĠL amichhane
ap nil
ĠChand ila
ĠVer ma
Ġm ade
ĠG and
J P
j o
ĠS H
Ġw r
ket t
ĠIn ternational
lun kett
ĠBhar at
Ġg ame
ĠN and
ĠV S
ri di
il jo
ĠAf ridi
iljo en
Ġl ast
Ġre view
t ini
Ġa bs
ĠB os
and ar
Ġd ra
ĠN tini
ĠRa za
ĠL ittle
ik andar
ĠAn other
ĠAn iket
ĠBos ch
K H
ĠRa ut
ud h
ĠY V
4 5
an la
Ġad d
Ġabs olut
anla ke
z an
Ġover st
ha zan
ĠG hazan
ĠGhazan far
ĠA pp
ĠBA W
ĠCR D
ĠDe ccan
Ġs la
at ches
Ġth igh
Sh reyas
he er
ĠP R
Ġd ive
Ġdro pped
o ol
an na
b ed
Ġf in
ĠF ras
ĠApp anna
ĠFras er
v esh
Mc Gur
McGur k
B asil
Nav deep
m ing
Ġre ally
d c
ve er
ĠSy ed
A n
e c
G J
Ġw here
ll iant
av e
Ġre ac
Ġhe ight
ve z
ĠRas ool
Ġcor ner
Ġw hen
Ġwant ed
Ġwr ong
S hiv
ĠS ikandar
Ġe ffort
ĠU dana
ĠAn ir
Ġnic ely
S S
an veer
Ġs u
end on
Ġclo se
j ro
he jro
li ya
ĠShah id
Ġsli p
hejro liya
or s
ĠJ L
us hes
Ġ20 18
ĠAr un
ĠBr endon
0 7
r d
ot h
Ġfull er
W oakes
ĠT aka
wa le
ĠTaka wale
ĠM edium
Ġn eeded
Ġ20 19
Ġ19 9
ĠO n
R V
Ġp ick
Ġ20 17
ag n
ĠBang ar
oc i
at ap
ĠT S
ĠRa jap
aks a
ĠRajap aksa
9 3
Ġg re
pp ing
on d
Ġn on
ĠL aughlin
ĠPr atap
ion s
Ġfoll ow
R E
ĠA t
Ġcont act
Ġstr uck
ĠSw apnil
ĠS id
ĠA ss
Ġm ight
Ġp art
Ġ20 16
ov ely
Ġal most
Ġloo ks
oci ation
ĠAss ociation
5 1
ĠS l
Ġc ame
Ġ20 14
Ġ20 15
ump s
a ke
Ġto uch
an ay
ĠPar vez
ĠHa les
A nd
ĠM W
Ġc ar
Ġth ough
ĠKar anveer
ĠSen anay
And rew
ĠSenanay ake
L H
P r
ĠL umb
Ġtri es
Ġglanc es
Ġp ri
Ġth ose
ĠW ade
ĠW ank
Ġ20 4
Ġquick ly
ĠKa ushi
ĠKaushi k
he de
ha le
Ġscamper ed
ĠHen ry
Pr asidh
ĠWank hede
Y K
ĠS U
Ġf light
Ġc ow
ĠY A
Ġ20 5
Ġ20 20
Ġdist ance
s ari
Ġb l
Ġgo og
et ori
ĠPr etori
ĠQ u
ĠAn sari
Raj poot
ees han
hale el
ĠPretori us
Ġwa it
Ġabsolut ely
o ges
Ġf inger
at ich
ĠK atich
Ġp icks
ĠV oges
ĠW ood
Ġmove ment
ĠP BB
Ġboun c
Ash win
Ġdra g
5 8
i ps
Ġ19 8
Ġpo or
Ġdeflect ed
2 11
ĠCha udhar
Ġlo ops
wan i
Ġgoog ly
ĠChaudhar y
ĠK hejroliya
Ġc aught
Ġth ick
T H
ĠSR H
ĠAN D
Ġpri ce
3 74
Ġb oth
ĠC SK
Ġawkward ly
R D
har va
ĠTa ide
6 4
8 2
ĠSM SM
Ġbr ushes
Ġwa its
ĠWarri ors
Ġuse ful
ĠZ eeshan
ĠKM A
8 8
v es
v el
6 0
b er
r ell
Ġcon ce
Ġglanc ed
ĠG ul
Ġ20 1
Ġ19 7
ott rell
A vesh
J J
as wam
Ġ2 17
ĠW A
ĠY agn
inn aswam
dhar th
ĠSid dharth
ĠYagn ik
innaswam y
S am
Y uvraj
i ff
Ġs ki
ll s
ĠF Y
ĠAsh wani
Ġsp in
I AN
Ġs ur
ĠE den
b ott
ĠB ond
ĠAb bott
y ing
Ġthe ir
ĠF le
Ġma ke
Ġcon ne
Ġim p
s hal
Ġs light
ĠG urney
ĠL ad
ĠAt harva
A r
J D
Ġw rist
Ġr ing
Ġp re
k a
v ol
in k
ĠH ose
Ġh uge
ump ed
Ġcould n
ĠHose in
5 9
ĠR I
is san
ĠN issan
ĠNissan ka
ver se
ĠP lunkett
Ġhit ting
ĠWarri er
ĠO ut
ĠMo een
ĠFle ming
at en
ĠR and
Ġst and
k k
Ġwas n
ĠMcC oy
ĠNit in
Shiv am
ĠRand iv
le x
ĠMen on
p lay
ing e
ri ght
am es
ĠG aut
Ġsw ings
ĠGaut am
e ar
r r
ĠH inge
Ġe very
ĠV iljoen
ab y
far az
U T
o int
at ely
ĠM ot
ra ce
ĠLe ft
Ġfl ick
0 1
6 8
r ue
Ġon ce
Ġresul ts
ĠGar den
ĠSar faraz
Y S
d t
m i
ĠD H
ĠB ro
ĠB aby
ĠN ath
Ġtri ck
ĠLange vel
Ġski pper
ĠLangevel dt
T rue
is ing
Ġl bw
Ġsw iv
d in
ĠS oni
ĠGarden s
ĠBro ok
P un
P ER
Ġf ails
al a
ĠSU PER
f oot
Ġf li
Ġc li
Ġl ovely
ĠSal man
Ġclean ly
6 2
Ġm us
ĠO C
Ġchan ge
9 1
m al
Ġo h
Ġw e
ĠK O
Ġc atches
man ab
Ġ20 3
ĠSt anlake
ĠRaj e
manab han
N D
S A
ll ips
ĠT here
ĠAn ant
og ra
ĠJag ade
ĠPhi llips
M J
le b
ĠD har
ad manabhan
th er
hap admanabhan
Ġgre at
ĠAnant hapadmanabhan
ĠJagade esan
ĠW a
Ġre verse
Ġqu ite
Ġtri ed
M B
p t
ĠH end
ĠHend ri
ra pped
ĠMot a
P J
ar ke
Ġb ott
ĠM U
Ġc har
ĠC M
ce iv
Ġper fect
ĠCl arke
Ġloo ked
G owtham
c b
r cb
ĠI ND
ĠG ome
Ġco lle
udh vir
IAN S
MB AI
Ġbott om
ĠMU MBAI
ĠIND IANS
ĠGome z
S T
ĠD ogra
Ġth an
ĠH C
ĠRa jan
kk r
S V
d ay
m s
ĠU mar
Ġ20 2
ĠPar ames
war an
Ishan t
ĠParames waran
7 0
8 39
I K
J H
M uj
ch in
ag es
ne et
ĠBA NG
jap neet
Muj eeb
E D
O RE
ĠH F
ĠSa chin
D L
I T
I GHT
a heer
ar ies
ĠCH AL
LE NG
AL ORE
Ġcolle ct
ĠBANG ALORE
ĠCHAL LENG
ĠCHALLENG ERS
D ERS
K AT
L KAT
M ark
k x
r er
Ġf ast
ĠR oh
Ġ20 10
Ġshoul d
ĠKN IGHT
ĠRI DERS
ĠKO LKAT
ĠHendri cks
kx ip
ĠRoh rer
ĠKOLKAT A
5 5
G ujarat
S o
v ing
Ġke pt
Ġfly ing
lex es
3 16
d a
Ġ2 11
Ġst ays
Ġbound aries
Ġsweep er
ĠLad da
Ġr a
ĠF ast
ĠL ions
Ġthr ow
ĠMano j
P IT
f eez
un k
ud ha
ĠCA PIT
ĠAn and
AL S
ĠDE LH
ĠHa feez
ĠCAPIT ALS
ĠDELH I
3 0
ĠB race
ĠSal vi
ĠAnir udha
Ġslight ly
ĠBrace well
J AB
m is
Ġs ma
Ġthe se
ĠP UN
ĠD uff
Ġh ow
Ġ200 8
ĠGur japneet
ĠPUN JAB
ĠDuff y
4 0
N O
U MP
s k
ĠR UN
Ġre ach
ĠST UMP
ĠEd wards
ĠBe aten
ĠSTUMP ED
p le
ĠT im
ĠC ottrell
ĠY udhvir
Ġl ittle
Ġhel ps
9 2
K haleel
Ġp ays
ĠB E
Ġd am
Ġthr ows
Ġre m
K L
c sk
o le
Ġo pp
Ġd ou
Ġst age
Ġtoo k
J A
Ġ if
it ation
Ġ2 16
auti ful
Ġsm o
Ġref lexes
ĠGand hi
ceiv ed
D R
Ġb est
ĠM id
as kar
ĠT rapped
ra y
Ġ3 00
ĠV K
ĠL E
Ġ20 6
W P
Ġst op
Ġ20 8
Ġwrist s
g ing
l d
ĠL bw
ĠO h
Ġ52 3
Ġkn ock
M us
ĠM I
Ġp e
ĠC ar
ĠB a
Ġman ages
Ġfli es
H V
N AI
R avi
a un
n is
v ed
ĠB huvneshwar
ud din
Ġ20 9
ĠCH EN
Mark ande
ĠCHEN NAI
3 1
h and
er ri
ĠD agar
id y
ĠW right
Ġl ot
ĠVin od
Ġdis mis
Ġne ar
Ġp a
Ġco st
ĠSuper gi
Ġtoss ed
Ġreac hes
So uthee
Mus tafizur
ĠSupergi ant
Ġto day
ar am
Ġfor m
Ġde p
el ing
ĠV idy
sh uddin
ĠJa ff
Ġha pp
ĠHop e
Ġspot s
ĠNar wal
ĠSham shuddin
ĠVidy ut
2 00
D e
T A
W atson
ĠP ont
ĠP rab
Ġc he
Ġ20 7
ov e
Ġsl ow
Ġdist ur
Ar shdeep
ĠJaff er
ĠPont ing
Ġb reak
ĠP H
ĠA U
Ġc art
Ġsh uff
Ġopen s
Ġfe et
A J
W O
med i
Ġne ver
i ly
an i
Ġc rack
it nis
ide s
Ġinn er
ĠAsh ok
ĠCh itnis
Ġex p
Ġbet ter
ip ur
Ġim medi
ĠPrab hu
T WO
u ally
de ss
ch i
ja b
Ġimmedi ately
ĠPrabhu dess
ĠPrabhudess ai
y k
Ġto e
ĠW yk
ort un
Ġplay ing
ĠO F
ĠClean ed
Ġsu per
ĠSl ower
Ġ hes
Ġb ri
ic e
ro ke
ĠCh id
fe ction
Ġdam age
8 5
amb aram
Ġper fection
ĠRaj iv
ĠChid ambaram
ĠS hed
Ġs ure
Sto inis
Ġhes itation
ĠShed ge
Ġ u
ĠC om
Ġmov es
Har shal
Ġus es
Ġdou b
Ġdistur bed
it ched
ĠJ un
ĠL J
Ġres t
Ġopp ortun
b ack
Ġr ound
ĠM ohit
ĠB et
Ġde ceived
ĠH ak
Ġback s
ĠJun eja
Ġopportun ity
ĠHak im
J AS
arn ath
ĠRA JAS
utt er
Ġex cellent
ĠAm arnath
ĠTop ley
ĠROYAL S
Ġwal ks
TH AN
ĠRAJAS THAN
N e
S t
s i
w he
en ed
ep ped
Ġ20 23
Ġ20 26
ĠPand it
Ġlo st
ĠBet hell
P A
ĠR T
ĠK XIP
Ġa ppe
ul led
Ġ20 25
Ġ20 22
ant ray
ĠSam antray
Ab hishek
m ol
Ġba d
ap s
Ġtr ying
ĠMid dle
askar an
Ġcart whe
Ġdoub t
Ġs uch
ĠJ ofra
al k
ĠN K
86 4
ĠOff break
D S
ĠS an
ou ple
Ġcrack ing
mol preet
Ġcartwhe eling
i yan
ar s
ĠG ood
ĠSa w
ust r
S L
s ed
Ġ ham
Ġw ow
Ġ5 00
Ġkeep s
Ġ20 24
th r
ĠJa ipur
ĠShan aka
ĠJag gi
Ġslic es
Ġra is
8 77
a ja
s p
Ġf ew
is t
Ġin st
ide n
Ġre g
ak ing
ĠSur yansh
ĠSham si
Ġmus c
Ġpa id
Ġsuper b
I M
v il
ar g
Ġ2 10
ĠH IM
us e
ĠY orker
Ġfr ustr
Ġh o
ĠRJ W
Chris tian
atter ed
T M
k ash
in to
Ġs eam
re ad
ĠFl into
ug an
Ġconne ct
ĠTim ber
Ġcost ly
ĠFlinto ff
5 66
7 9
8 14
K arn
c ed
j un
o op
Ġf all
ĠA man
ĠB ack
Ġ2 14
Ġdriv es
Ġnot hing
Ġhol d
S B
d ul
Ġ ed
ĠJ G
ir e
ne aks
a ff
p oint
w n
ĠK arn
Ġc ouple
ĠSt r
Ġbr ings
vol ley
Ġp ulled
Ġbowl s
Ġgu ard
ĠSha un
Ġcon f
Ġoverst eps
Ġham m
V R
a ged
an ey
ĠJ askaran
Ġin ches
ĠG aff
Ġl uck
ĠDJ M
ĠSa hu
ĠJos hi
Ġskid dy
ĠGaff aney
N adeem
m asen
ĠS e
as sive
Ġm assive
st ri
ĠJa co
ĠMad an
ĠDhar masen
ĠWa gh
ĠDharmasen a
. "
4 7
P at
o x
Ġ el
Ġs its
Ġ2 12
Ġit s
ĠH DP
Ġn ight
Ġman aged
ĠAn molpreet
89 4
ĠRagh u
Ġput s
Ġrem oves
De ccan
Ġappe al
ĠHDP K
a f
b b
i ed
op ra
ĠKul ase
Sh ubman
ĠKulase kara
0 66
ĠC B
ĠThe y
ep er
' ve
9 5
D W
Ġto n
in ing
Ġ2 13
ou ght
Ġst icks
Ġta ll
ine y
riv e
Ġre ad
Ġhe av
ĠAr jun
ĠCh opra
lay s
MD N
ĠUr vil
ĠBri lliant
ĠNand an
ĠQu iney
Ġswiv els
ST R
ĠJaco bs
9 21
c y
c es
k y
Ġs it
Ġs hap
ĠA ll
Ġm ind
ay ed
Ġle ans
ina lly
ĠDub ai
Ġ56 4
Ġfl icks
29 3
73 0
Pun jab
K V
e leb
Ġo wn
Ġf et
Ġta king
Ġdeli ver
ĠBe autiful
Ġsm art
Ġbri lliant
stri ker
A C
K M
Ġ ..
Ġf lo
ĠR e
th ing
Ġha ving
let ic
ĠMo ha
co ver
Ġoverst ep
eleb r
8 24
Z aheer
u f
ĠU m
67 9
ĠIn side
Ġwhi le
Ġwhi ps
Ne gi
ĠMoha li
x en
Ġ er
ĠK haw
ĠF ir
way s
Ġsh attered
17 27
Ġli fts
eng th
Ġpun ch
ĠStr uck
ĠKhaw aja
J ohnson
Ġ z
ĠK ot
Ġc elebr
ay an
ĠJa ck
Ġwith out
74 9
ear les
4 1
5 15
7 6
A aron
I S
L amichhane
M C
Ġs et
ĠK MDN
Ġba ils
Ġg ate
Ġd ay
st epped
Ġsh ow
Ġall ows
ĠCh innaswamy
vi ous
ĠEx tra
ĠOver stepped
ĠNar ayan
Ġpe ach
ĠJack son
) '.
f ace
s we
or n
at her
Ġba il
ĠI R
Ġle ap
Ġh op
ai led
Ġfl ash
ĠSuy al
29 68
Ġconce de
ĠPH KD
Ġfrustr ated
ĠUm esh
J M
ĠP ra
ĠN alk
Ġout field
Ġar c
Ġro lls
Ġshort ish
ĠTh orn
ĠNalk ande
ĠThorn ely
ĠG ot
Ġ20 21
Ġcont ro
Ġturn ing
Ġsm ashed
Ġgiv es
ĠGar ton
Ġsla ps
C oulter
ĠS neaks
Ġto night
ĠK J
it ley
Ġm ark
ĠF A
Ġre ma
ĠJa itley
Ġstump ed
Ġ22 4
ĠAnd rew
Ġhel p
C utting
L R
y ar
ĠS p
ar ts
ĠB li
zz ard
ĠNay yar
ĠBli zzard
t en
Ġf ound
ĠD id
ad ing
ĠV eer
Ġh ur
Ġhe ave
Ġsp r
play able
S E
c hal
ĠD D
10 4
ans ingh
Ġun playable
Ġreg ion
6 1
B A
h it
r h
s rh
Ġo ther
ke eper
ĠM ansingh
ĠT oo
ur y
Ġbe ing
Ġmov ed
ast led
ĠSaw ai
4 8
T om
Ġs wo
ĠB ails
Ġre al
3 2
k ers
un g
Ġm aking
ĠC astled
ĠH ow
ĠH uge
Ġe arn
Ġcomplet ed
Ġy oun
Ġswe eps
B ar
N T
c utter
m en
u al
Ġfielder s
ĠU n
ill s
Ġ23 3
gi e
20 2
ug g
Ġflight ed
Bar inder
N abi
S ha
b ah
Ġm ess
Ġm edium
Ġp ie
ĠD G
ĠC orey
ĠV A
ĠShar p
Ġdro p
Har preet
ĠGH S
Sha h
4 22
v en
ĠB ha
Ġst roke
Ġal ways
C orey
D ER
R IS
Y DER
n u
r ed
ĠS UN
ĠD ole
ĠB ilak
Ġst e
Ġst o
ĠH YDER
hi a
Ġsi mp
ish nu
utt y
Ġ22 0
AB AD
ĠPhi li
Ġfin ish
Ġcontro l
RIS ERS
ĠSUN RISERS
ĠBilak hia
ĠHYDER ABAD
C V
M andeep
b ably
q ib
u qib
ĠK utty
ĠP et
ĠG oes
pp ish
15 0
Ġ25 0
Ġclear ed
Ġdismis s
Ġswo ops
Ġearn s
Ġpie ce
J R
N J
a use
Ġs end
Ġr an
ĠK o
ĠB R
Ġle ading
ĠL ength
ud ge
ith er
ĠU V
Ġpl umb
Ġen ded
ĠGand he
Ġspr int
L ucknow
i x
n y
p al
he ed
Ġb other
ĠR iyan
Ġc hee
Ġ7 13
ĠW ath
ck ing
ĠAhmed abad
Ġskid s
Ġpre vious
hand er
Ġa ct
Ġ2 18
han ded
14 6
ag opal
ĠTiw ari
au k
ĠAk mal
hep auk
ĠMadan agopal
ĠC hepauk
ut e
ur es
ĠY C
Ġbats men
ĠMor e
ĠO r
ne ath
ĠBar de
Ġwait ing
N ehra
b all
c ro
d ar
Ġt ick
Ġs n
ĠR ising
Ġst uff
ĠO xen
Ġunder neath
Ġang le
Ġpun ches
ĠFir st
ĠPhili ppe
ĠOxen ford
3 7
7 12
c ket
p ite
y cro
ĠM uth
ĠP ycro
Ġin field
ĠG F
us wami
ĠL ight
ĠO ne
Ġwh y
ĠMuth uswami
ĠPycro ft
ĠLight ning
n ers
Ġs ne
ĠC an
Ġ2 15
ĠV ishnu
Ġ- -
uck le
Ġevery one
Ġsmo kes
Ġu ppish
ĠPet erson
6 5
K ar
g break
er i
ĠA uqib
ĠB NJ
ĠF af
Ġle t
ir ed
Ġquick er
ĠYash pal
09 7
Ġbounc es
Ġconce ded
read y
Ġyoun g
m us
Ġr ep
Ġd iff
ĠG R
Ġback ing
Ġsp ills
Ġshort er
Ġdis a
Ġch ase
Ġshap e
8 7
B J
T ye
k ad
as y
Ġc ricket
ĠD K
ĠB ir
ĠI s
Ġ22 5
ĠMan kad
ĠMis bah
Ch innaswamy
Ġrais es
Ġrema ining
C A
M R
M ur
d ine
l ish
Ġa cc
ag andeep
ia lly
oy s
Ġso ft
sel dine
SP D
Ab dul
ĠCar seldine
erri ble
Ġdismiss al
Mur ugan
5 2
M G
S earles
e ad
o or
y es
Ġb ang
ri ck
icket keeper
ĠHar wood
Ġal ready
Ġang ling
K S
N V
i j
an ged
Ġw in
am s
Ġn ails
ĠN J
11 9
im mat
Ġdri lls
ĠDe v
Ġimp act
D T
M a
o z
Ġrac ed
ĠSal unk
ĠLe vi
Ġfin al
Ġed ged
Ma xwell
ĠSalunk he
F aulkner
j um
p ad
p itched
w ith
Ġt ad
as an
ha b
Ġd on
ash tra
ĠSt umped
Ġmis c
Ġpit ched
Ġdu g
Ġj o
A K
J O
R S
ĠK ling
Ġe yes
ĠG agandeep
Ġsi ght
Ġman y
Ġshot s
Ġro cks
Ġcr eam
uck er
Ġdo ing
Ġdrag ged
swe ep
ĠKling er
ĠK B
ĠP N
ĠD r
ĠD irect
Ġth umps
ĠG le
Ġeas ily
ĠE ras
Ġal ong
ĠMa jum
ĠRas heed
ĠSar wan
Ġang led
Ġpart ners
Shah baz
ĠEras mus
ĠMajum dar
H en
M o
R J
h ot
ĠM ap
ĠT wo
Ġp ac
us h
et urn
Ġh or
ant ly
hak a
Ġtim es
ĠZ oys
lent y
ĠDeep ak
Ġexp ect
Hen riques
ĠMap haka
ĠZoys a
4 78
L L
ĠK emp
om et
is ion
el ie
ĠH immat
Ġe le
ĠAr cy
Le gbreak
Mo een
b e
s ub
w or
Ġt arg
ĠS ud
un ny
ĠG ee
Ġleg s
Ġswe et
211 4
ĠBa wa
Ġ500 2114
thr ough
Ġchee ky
S O
le ij
ĠP uth
ĠA ler
Ġc ir
ĠB all
id ing
ĠN aik
ande kar
ge leij
Ġ22 2
ug geleij
Ġy et
Ġmi x
Ġmoment um
Ġsne ak
ĠPuth ur
ĠAler t
uggeleij n
A ravind
K C
d utt
en s
es on
ĠD os
ul t
ang er
Ġ22 1
umb led
Ġ49 478
Ġsw ip
if ied
ĠTh ird
ĠBar man
Ġreac tion
Ġwe ight
Ġhapp y
ĠCom es
ĠDev dutt
ĠGle eson
ĠDos hi
Ġ49478 83
Y ash
l s
r ant
t rick
Ġ es
or y
Ġth ings
ĠY ou
oo k
Ġsa w
ĠKot la
Ġsn aps
omet hing
Y BK
d rive
h y
Ġf ind
Ġf inally
Ġw hip
Ġc hi
is e
ide d
Ġ9 00
hi m
Ġsc oop
Ġkn uckle
oll y
An kit
Ġnon chal
Ġsur face
Ġpartners hip
6 3
6 69
W icketkeeper
ĠK T
ĠD NT
Ġth ought
ĠShar ja
Ġl aun
to ss
ĠU mp
hind ra
Ġswing ing
ec ified
ĠDid n
ĠSud hindra
ĠSharja h
B r
t ent
Ġ ,
ĠS c
ĠA th
Ġa pp
ĠB indra
Ġg en
ic y
Ġsp o
Ġturn ed
20 11
8 4
B ipul
S C
i gar
l ow
Ġto u
ĠR ight
ĠT ucker
Ġa b
Ġm ay
ard s
iv asan
Ġ25 44
Ġ72 669
rin ivasan
ĠChand igar
Ġdec ides
ĠAth letic
Ġ2544 566
Ġ72669 94
ĠChandigar h
9 53
G urney
N ortje
U LL
Z ampa
i kar
Ġt ra
ĠS rinivasan
er tain
er ala
Ġs ha
ĠM ix
ll ing
ĠK erala
ĠP aun
Ġp lenty
ĠG iv
Ġh at
Ġstump ing
ĠIshan t
Bow led
Ġk ne
Ġattemp ted
Ġbr ing
Ġpro bably
DP MD
ĠQu ick
Ġmusc les
Ġsimp le
ĠUmp ire
Br athwaite
ĠPaun ikar
P C
u icy
w i
z en
un gi
ĠN D
Ġdeli ght
th y
Ġdri ft
Ġy our
Ġwant s
35 8
Ġsli ps
ĠAnir udh
ĠAU K
Ġfet ch
0 2
4 11
5 98
A A
N ULL
c ause
m ore
t y
Ġ ant
an th
ĠT P
Ġd anger
Ġd olly
ic t
am a
Ġe ither
han ama
pp al
ĠU pad
ĠU ppal
Ġsh ows
00 6
iv rant
ĠMa hanama
Ġper fectly
20 12
ĠDoes n
Ġbl ow
Ġwait ed
Ġconf iden
ĠPra kash
Ġele v
hy ay
ĠUpad hyay
L S
r ess
Ġb ends
Ġb la
Ġb ase
ĠP U
ĠT us
Ġa m
ĠD C
ra ction
ĠH AS
ti k
ĠAb u
Ġ22 66
50 80
Ġ45 5080
Ġ76 211
Ġcl ass
ett y
Ġsqu eez
Ġli ft
Ġhel ped
Ġsla p
Ġshuff les
Ġz one
Kar tik
Ġcir c
Ġ2266 358
Ġ455080 2
Ġ76211 39
C C
E JG
G ERS
I O
L aughlin
M u
P V
k anth
Ġs omething
ĠK hal
ha ps
ed s
ĠD hab
Ġ2 19
ĠH is
al m
od ox
th odox
Ġdes pite
Ġall ow
ĠCH AR
ĠVi yas
Ġ57 894
20 13
Ġsw ung
ĠDE CC
24 7
Ġfir es
27 2
dc g
Ġconne ction
ink u
Ġfall s
Ġhamm er
ĠBir t
Ġtarg et
ĠPU NE
ĠTus kers
Mu kesh
ĠKhal id
ĠDhab i
ĠCHAR GERS
ĠViyas kanth
Ġ57894 23
ĠDECC AN
' ll
2 12
8 03
A z
ing ers
ĠA Y
ĠT errible
ĠD andekar
is hes
ic al
Ġin vol
ĠPat il
ort s
Ġ22 3
Ġ87 03
28 8
Ġinvol ved
5 006
8 16
9 0
T G
f el
Ġs ame
Ġf ingers
Ġm ost
Ġp umps
Ġg ave
ĠH ad
ĠV ivrant
ĠW ith
Ġun sp
Ġkn ow
Ġ150 5006
light ed
Ġus ed
Ġslic ed
Ġdep osit
St anlake
Ġ8703 679
Ġunsp ecified
9 33
R our
a w
h in
i y
y mal
Ġ ide
ĠS ri
Ġs ay
al le
ur ner
ĠW ell
19 288
ĠE asy
Ġex ec
ib le
Ġ26 19288
Ġ29 5
33 3
33 9
Ġ74 36
Ġbel ie
Ġfir ed
ĠMahar ashtra
Ġstr ugg
ĠVer y
An iket
ĠSupergiant s
Ġer r
Ġcelebr ation
Rour ke
Ġ7436 247
D h
S ang
Ġs ub
at i
Ġba cked
Ġg rab
ĠF umbled
ĠF lighted
Ġth in
Ġstri de
Ġ26 08
Ġres p
Ġj ump
Ġ94 78
Ġ99 877
56 33
Ġbounc er
Ġ224 5633
Sang wan
Ġ2608 816
Ġ9478 272
Ġ99877 00
ĠR oa
ĠR inku
and an
Ġg ive
Ġg ift
Ġth ink
ĠL in
Ġat ta
Ġ50 12
Ġ35 333
Ġ36 814
Ġ47 933
Ġturn s
Ġj uicy
Ġ98 864
69 0
Ġgl ove
Ġwal k
MA J
ĠOr thodox
hin andan
Ġbelie ve
ĠRoa ch
Ġ35333 13
Ġ36814 33
Ġ47933 75
Ġ98864 89
5 2968
B ad
B ehrendorff
C ad
S low
T ilak
V iljoen
g s
g at
i al
ĠS ind
ar thy
ĠK al
ĠT R
Ġ7 1727
11 89
16 0
ĠKoh ler
rav arthy
Ġ35 52968
33 8
Ġ62 74
Ġ146 89
24 9
73 24
Moham mad
Ġ204 7324
Pun e
St eyn
ĠLin de
Bad ree
Cad more
ĠSind hu
Ġ71727 27
Ġ6274 749
Ġ14689 99
4 75
6 03
R K
ĠS unny
Ġs ays
Ġb on
ĠM ul
Ġm atter
Ġin tent
ĠH ast
Ġ14 15
13 8
18 60
Ġ22 6
Ġ23 73
Ġ33 20
33 2
20 10
75 3
rish na
Ġslog s
74 24
78 1
anc es
Ġsee med
Ġ564 1860
Ġact ually
ĠGiv en
Ġ295 7424
ĠHast ings
Ġ1415 953
Ġ2373 690
Ġ3320 338
4 99
5 69
I mran
K P
N LTC
c ut
y ank
ĠS ut
he ld
Ġf at
at or
Ġm y
Ġst eps
Ġ4 25
ch ing
ĠW ent
Ġl ands
14 44
15 249
18 332
Ġbe cause
Ġpr etty
Ġ23 53
Ġ42 814
Ġ57 15249
Ġ94 18332
Ġ83 53
ĠShort ish
Ġ90 598
Ġ68 44
Ġ58 864
53 7
ĠNot hing
Ġcar ves
Ġ523 1444
ĠBha gat
Ġuppish ly
ĠKal yank
ĠSut har
Ġ42814 44
Ġ8353 877
Ġ90598 42
Ġ6844 921
Ġ58864 74
ĠKalyank rishna
3 24
8 18
9 78
9 54
N oor
g ly
j ee
Ġ End
Ġw ider
Ġm et
Ġ20 38
Ġlo op
ĠAb hinandan
Ġ85 569
Ġhas n
05 7
44 4
.. ."
Ġsk y
Ġconnect s
Ġ2353 730
Ġ2038 781
Ġ85569 56
2 19
9 57
K ay
P lunkett
p aw
Ġb is
ĠK hot
ĠD ive
Ġ4 16
ĠG oo
Ġ' '.
ti m
Ġthr ew
ant leb
ĠMc Kay
Ġmis ta
ĠKA J
Ġ66 499
Ġ63 475
ĠRaj u
Ġ98 43
Ġ120 69
ĠAk ht
ous ly
73 7
reak y
Ġdec ision
Ġinst in
Ġheav es
Ġleap ing
ĠSc antleb
Ġbis ect
ĠKhot e
Ġ66499 51
Ġ63475 42
Ġ9843 066
Ġ12069 99
ĠAkht ar
ĠScantleb ury
3 03
7 67
8 44
C R
c ent
m et
p ris
ar m
ĠT om
ĠB MAJ
Ġst ay
Ġe ff
Ġ3 13
ĠN S
19 3
Ġ35 29
Ġ39 818
Ġ76 803
Ġ83 515
Ġ98 844
Ġ78 98
Ġfull ish
04 39
Ġtr y
54 8
45 22
58 7
Ġ216 4522
Ġ300 0439
Ġsit ter
411 4
ĠSri ram
ĠGoo gly
Ġ3529 537
Ġ39818 25
Ġ76803 87
Ġ83515 92
Ġ98844 61
Ġ7898 444
5 94
6 54
7 60
L ungi
T U
j ust
ar ing
as ion
ĠT au
ĠJ W
Ġ4 00
der son
ĠL ooks
pp oint
17 839
Ġup held
ac es
ĠSa u
Ġ22 8
ĠMu k
Ġ23 316
ĠZ ayed
Ġ26 6
Ġ36 324
Ġ54 36
Ġ49 760
Ġ55 54
Ġ85 56
Ġ85 17839
Ġdiv ed
Ġso uth
Ġ88 978
ĠHen derson
Ġ98 73
Ġ93 77
Ġ104 40
Ġkn ows
Ġsm ash
ĠMis sed
89 6
if ert
23 25
86 3
ĠSJ A
ĠOn ce
Ġchar ge
ĠSe ifert
066 6
Ġ416 2325
Ġ313 0666
ĠTau fel
Ġ23316 82
Ġ36324 67
Ġ5436 138
Ġ49760 77
Ġ5554 057
Ġ8556 160
Ġ88978 09
Ġ9873 957
Ġ9377 212
Ġ10440 22
4 91
6 38
? "
d u
Ġt re
Ġf le
Ġb re
ĠK haleel
ĠK uggeleijn
ĠT urner
Ġover pitched
Ġst ep
Ġleg gie
14 896
17 9
Ġ18 94
Ġ25 53
ĠPr eez
Ġ29 69
Ġ34 293
Ġ76 3
Ġ76 14896
Ġ88 83
Ġk ind
ĠAsn ani
Ġsee ms
Ġchar ges
Ġdisa ppoint
Ġchi ps
Ġcirc le
Ġ425 4114
954 0
Ġmista ke
Ġ1894 737
Ġ2553 863
Ġ2969 824
Ġ34293 15
Ġ8883 211
3 15
4 9
4 29
4 26
5 73
5 53
9 75
9 74
F er
I qbal
N ithish
P att
c ess
k m
Ġw ha
ri es
Ġba l
Ġl and
13 5
ap u
ĠHar shal
Ġad v
Ġ23 0
Ġ34 34
33 4
Ġ62 70
Ġ59 374
Ġ88 315
Ġ99 587
Ġ122 9540
Ġgl oves
36 3
Ġnic e
Ġsma cks
Ġsto pping
Ġbla de
Ġinstin ct
Fer guson
Patt inson
Ġ3434 824
Ġ6270 193
Ġ59374 26
Ġ88315 25
Ġ99587 94
4 98
5 44
5 86
6 374
9 16
9 34
V i
ow ers
ĠV ir
Ġ5 179
ĠW ow
Ġwor se
14 9
Ġ19 27
ĠE ven
Ġse es
Ġlo se
tra ck
Ġ100 594
Ġ40 53
Ġ39 934
20 19
Ġ59 89
Ġ77 9
Ġ92 36
Ġkn ew
Ġch as
73 06
97 97
ĠSan to
Ġton ks
Ġsouth paw
Ġ763 7306
Vi jay
Ġ5179 104
Ġ1927 753
Ġ100594 0
Ġ4053 491
Ġ39934 13
Ġ5989 339
Ġ9236 293
6 09
R ising
Ġ han
Ġw hipped
ĠR on
ĠK apu
ĠP G
Ġp owers
ĠB ig
ĠB huv
Ġd ab
Ġ4 19
Ġ4 1189
Ġn ew
ĠN ow
ur ed
Ġ8 12
li er
ĠPat hak
Ġcom m
Ġh ome
ged era
Ġad just
Ġ23 26
Ġ25 839
25 921
25 586
Ġ35 548
Ġ42 86
Ġ36 573
Ġ44 916
20 14
20 15
20 16
20 17
20 18
75 51
Ġ72 25586
Ġ83 6374
Ġ75 88
Ġ67 28
Ġ87 25921
ĠFer oz
Ġear lier
Ġpower fully
Ġfl atter
69 86
ĠStraight ened
35 25
Ġme at
ĠNand a
Ġ217 3525
Ġevery thing
200 8
200 9
Ġ564 6986
ĠKo chi
Ġ713 9797
Ġcream s
Ġelev ation
Ġexec ut
ĠKapu gedera
ĠBhuv i
Ġ41189 46
Ġ812 7551
Ġ2326 553
Ġ25839 18
Ġ35548 29
Ġ4286 363
Ġ36573 22
Ġ44916 59
Ġ836374 9
Ġ7588 426
Ġ6728 730
M EK
s c
Ġs him
ar ed
ĠD o
ĠH ang
Ġl a
Ġl ack
Ġh int
12 85
16 638
Ġdes per
ĠJP R
Ġ25 25
Ġ50 544
Ġpo un
Ġ47 654
Ġ74 202
Ġ74 16638
Ġ72 429
Ġ63 603
Ġ73 08
Ġ80 26
Ġ90 975
ug alle
ĠAk shdeep
Ġ200 7
ĠAs ad
ĠSum it
ki e
Har sh
Ġen s
ĠMad ugalle
Ġhel d
Ġopen ing
Ġslic e
Ġslic ing
Ġdrag s
Ġsur pris
ĠSe cond
Ġ779 1285
ĠSanto kie
Ġ2525 767
Ġ50544 01
Ġ47654 80
Ġ74202 25
Ġ72429 07
Ġ63603 25
Ġ7308 498
Ġ8026 316
Ġ90975 34
6 00
6 89
8 74
T L
z arri
Ġ light
ĠS he
Ġto ll
in al
Ġf ier
Ġb anged
Ġc are
am ps
ĠN A
ĠN L
ur ther
ĠRa uf
il ar
st er
14 7
17 6
Ġ34 06
Ġper haps
Ġ55 94
Ġ89 80
Ġnow here
78 35
Ġstr et
Ġcollect s
Ġ523 7835
Ġho ick
Ġhamm ers
Ġdeliver ies
Ġtick le
ĠGee ves
ĠRon chi
Ġ3406 149
Ġ5594 334
Ġ8980 712
9 66
P WH
f ic
g ain
ĠS and
er ves
Ġf urther
on ed
ĠG one
Ġstri ker
ro ve
11 18
12 3
14 2
Ġcut ter
Ġfree b
ĠZ aheer
Ġ40 78
Ġ94 974
Ġ84 609
Ġ93 70
Ġopen ed
An ureet
Ġmight y
Ġcli ps
Ġbreak through
LR PL
Ġjo b
219 7
ĠVir at
Ġ94974 97
Ġ84609 06
Ġ9370 135
0 13
1 10
6 58
6 316
I sh
e ed
Ġw ood
Ġr is
ĠF or
Ġst reaky
Ġin ter
Ġball o
Ġ12 16
Ġse en
Ġ43 98
Ġ94 013
Ġ87 150
Ġ70 88
Ġ99 69
Ġ103 6316
ĠFull er
74 2
23 5
Ġwill ow
06 4
Ġdiff er
Ġlaun ches
Ġerr s
sc reen
ĠShe ikh
ĠSand hu
Ġ4078 176
Ġ94013 01
Ġ87150 23
Ġ7088 566
Ġ9969 874
6 13
7 75
7 1727
8 1
N M
P D
S W
n ce
r eam
x t
y p
Ġf av
Ġf raction
Ġb o
ĠA c
Ġc ertain
ĠT ot
Ġa ble
ĠD ar
is hed
Ġst ayed
Ġ6 119
12 742
15 142
ĠSh orey
Ġmis field
Ġpr ed
Ġ22 7
Ġ24 12742
ĠPar k
Ġv ain
Ġ60 71727
Ġ94 98
Ġ69 422
Ġ95 15142
Ġfl icked
ĠSuman th
78 7
36 2
Ġpro cess
Ġ217 2197
ĠSp orts
Ġpac y
Ġnonchal antly
Ġdanger ous
ĠDo ct
Ġ4398 515
Ġ6119 894
Ġ9498 235
Ġ69422 89
7 07
C ariappa
T ymal
V G
t he
Ġt e
an ded
Ġs at
ĠP M
Ġp umm
ĠD Y
Ġde ath
ĠV is
us hed
ir ing
13 3
14 123
18 17
ol led
ĠAb lish
Ġbeat ing
Ġex t
Ġ23 5
Ġ45 374
ĠWilliam s
ade my
Ġ54 4
Ġ49 67
Ġ55 689
67 1
Ġ94 613
Ġ94 14123
Ġ69 26
Ġ92 839
Ġ92 966
Ġgiv ing
Ġsail s
09 5
Ġbl udge
Ġswiv el
Ġmus cled
Ġsight screen
Ġhammer ed
tim es
ĠAc ademy
ĠDoct rove
Ġ45374 05
Ġ4967 787
Ġ55689 08
Ġ94613 43
Ġ92839 80
Ġ92966 66
7 16
A kash
C L
N it
R M
e ver
l ong
Ġf air
ĠT ar
Ġa im
ri ed
Ġm en
Ġp umped
ĠB hu
Ġde ad
13 362
Ġhe nce
Ġhi ps
Ġmis j
Ġany thing
Ġsp ell
Ġ22 9
Ġ50 13362
20 51
Ġ85 93
Ġ74 422
Ġ89 69
Ġ93 16
Ġsm ile
Ġare a
arri ed
Ġstart ed
Ġwal king
Ġneed s
93 7
Ġstand ing
Ġluck y
Ġ900 2051
Ġfle w
Ġ6926 671
Nit ish
ĠBhu i
Ġ8593 147
Ġ74422 79
Ġ8969 749
M ilne
c ap
Ġ ent
ĠS hak
Ġo b
an an
ar ge
Ġc ue
Ġc alm
ĠT urn
es sive
Ġ4 18
ĠH al
ĠG S
Ġkeep ing
13 937
17 775
ap ore
ans f
ock ie
Ġ23 13937
jay a
67 6
Ġ74 17775
Ġ99 56
Ġ95 707
Ġstr ong
38 25
Ġspot ted
Ġpick ings
Ġdep arts
ĠUn iy
Ġapp la
Ġconfiden ce
Dh ruv
track er
Ġ544 2968
ĠTar apore
Ġ9316 064
anan jaya
Ġ9956 095
Ġ95707 12
ĠUniy al
0 22
B inny
D B
J ordan
S has
n ess
Ġt ell
ĠA gain
Ġc ur
ĠD unk
Ġ6 19
Ġ7 15
ĠL long
pp y
ĠU l
10 6
12 7
00 146
Ġocc asion
ant s
Ġlo bs
end ra
Ġ23 1
50 3
Ġ28 374
Ġ42 110
Ġ47 022
Ġ62 98
Ġ72 00146
Ġ73 74
Ġsl iding
Ġ130 4
Ġclear ly
art ed
04 8
Ġfir e
Ġcon v
ĠTh r
.. "
ĠBar ath
Ġcli pped
Ġsma cked
Ġes cap
Ġtou gh
Ġab ove
Ġkne es
ĠHang arge
Ġpred ict
ĠShak ti
Shas hank
Ġ715 3825
Ġ28374 93
Ġ42110 71
Ġ47022 43
Ġ6298 097
Ġ7374 716
ĠHangarge kar
8 23
b ats
l ic
z ar
in an
Ġs ets
Ġs ink
ĠR B
om ely
ĠC ould
ĠB F
ĠB ol
Ġde ar
Ġst ick
am ent
Ġle ast
Ġth ing
ĠG ough
ĠN inan
Ġ11 202
Ġco un
ab ani
ĠMu zar
Ġ24 0
25 658
oo ked
Ġ49 69
Ġ48 25658
ĠTa kes
Ġ77 104
Ġ98 09
Ġun le
Ġ108 26
Ġpower play
24 2
73 57
ĠBow den
97 75
Ġcall s
46 1
Ġsu cc
Ġbounc ed
bb les
Ġbal ance
ĠHal f
Ġ619 7357
ĠUl tra
Ġ11202 75
ĠMuzar abani
Ġ77104 23
9 03
D E
b it
h ow
Ġf act
Ġb oy
Ġr olled
ĠR at
ĠR eturn
ĠA tal
Ġa in
id har
Ġe ver
ĠL ow
med it
10 9
16 679
ap an
Ġro ll
Ġsp ect
Ġ27 16679
Ġ42 05
Ġj umps
Ġ116 9775
Ġ147 34
Ġtr ansf
ĠAm it
Ġhands omely
39 5
38 42
Ġdec ided
Ġsla pped
Ġpart ner
erri fic
Ġche ck
Ġmusc le
Ġste ers
Ġmisc ue
303 54
Ġ418 3842
ĠBol and
Ġ4969 461
Ġ4205 133
C ottrell
U dana
a way
Ġt iring
Ġto urn
Ġf a
le em
ĠP itched
ĠA leem
it ches
ĠT apan
Ġst uck
ĠI f
Ġmid wicket
Ġl anded
Ġoff ers
Ġwor d
Ġevent ually
ff in
ĠSa idhar
Ġ26 048
Ġ39 30354
Ġ47 823
war ded
Ġy es
Ġsw ept
sw inger
mar k
Ġbig gie
Ġdec ent
1118 4
Ġtourn ament
ĠSaidhar shan
Ġ26048 89
Ġ47823 26
2 150
9 097
L ockie
W D
Ġ ye
Ġt w
ĠS es
Ġs ound
at ing
Ġw el
Ġc ushi
Ġd rilled
ĠI lling
Ġe ye
ĠN ew
ot s
Ġ9 676
ĠW at
Ġl in
Ġat h
ĠMa kes
Ġro cket
Ġpr es
Ġblo ck
Ġ40 77
Ġ48 11184
Ġcomplet e
ĠNe ver
ĠMahar aj
ert zen
Ġsome how
ĠOn ly
Ġfollow ed
Ġspin ner
Ġ211 2150
Ġ500 9097
Ġinst ead
Ġflo ated
Ġhur t
ĠKo ertzen
wor th
ĠSes han
ĠIlling worth
Ġ9676 395
Ġ4077 127
4 503
6 22
9 13
W G
b a
i ous
p wi
r om
s ing
ĠS ol
ar ag
Ġf ailed
ĠM ag
ĠA fter
Ġm ile
ĠC lo
Ġst ance
ad s
ĠN ap
Ġ9 13
ĠL ovely
Ġre warded
15 4
16 94
Ġbowl ers
Ġar rive
ak h
Ġdu ck
Ġsp an
Ġ42 97
Ġ47 242
Ġ104 4503
Ġcr ashes
Ġclub s
ĠCle ars
RR IO
ĠWA RRIO
Ġu pper
Ġgen er
ĠTot re
Ġpredict able
903 0
Ġath letic
ĠNap ier
Ġ913 1817
Ġ4297 600
Ġ47242 89
ĠWARRIO RS
0 109
9 39
D inda
Ġs he
Ġr id
Ġc amp
ĠT oss
Ġa p
Ġp ay
Ġp al
Ġg ra
ay ne
Ġde ck
ic ult
ĠG L
10 5
00 9
Ġex per
Ġex act
ĠMu ch
Ġ69 913
Ġ67 939
Ġun us
Ġ86 1694
ĠFull ish
Ġfl ow
Ġne at
.. .
Ġ184 9030
Ġspin ning
Ġ713 0109
Ġdrift ing
Az har
Ġstrugg ling
Ġ69913 08
Ġ67939 64
Ġ861694 2
A l
C hak
b ut
b elie
m in
m ies
w ant
Ġt rav
ĠK n
Ġp ar
Ġp ump
ul ous
ĠL ooked
av es
od i
th ough
ast ic
lay ed
ĠPar akh
Ġ54 83
Ġ59 622
Ġclear ing
Ġcr un
anc ing
arri er
Ġmiss ing
Ġpro per
rab h
Ġcame o
Ġbl ast
Ġfall ing
Ġhop e
Ġmisc ues
Ġresp on
Ġeff ect
ĠSau rabh
Ġfreeb ie
Ġinter es
Ġfa int
ĠWat to
ĠMag ala
Al zarri
Chak ravarthy
Ġ59622 10
C ummins
J E
R as
d ge
m ilar
p aul
er paul
ĠP a
ĠP ayne
Ġc ra
Ġe ffortless
ep ts
Ġsi milar
Ġsix er
Ġbe autiful
ĠHar i
ac ant
Ġse c
Ġmis cued
ĠTi ffin
Ġv acant
Ġ94 712
ĠRP S
ĠSo uth
Ġ78 154
Ġcr ouches
Ġch o
ank i
ĠChand erpaul
27 7
ĠMur ugan
Ġconf ir
Ġdiff icult
Ġdug out
Ġant ici
Ġallow ed
ĠMul ani
Harsh it
ĠSol anki
Ġunus ual
Ras ikh
Ġ94712 59
Ġ78154 15
c red
d led
j i
j ji
p ace
t own
u y
ĠS ome
ĠS light
ĠS ees
he st
Ġf un
ver s
Ġb roke
Ġr et
Ġe mp
ĠN off
ĠW al
ĠPat ward
Ġthr o
il d
st r
10 19
urr y
Ġstraight away
raj ith
ĠInd rajith
Ġsa f
if ier
23 9
pen sive
ĠNar endra
Ġpun ished
46 2
ĠBha jji
Ġsweet ly
ĠHari haran
ĠNoff ke
ĠPatward han
A P
L alit
W A
c ing
m ay
p ull
u is
y am
or ge
Ġf ans
Ġr eturn
ĠM odi
ĠP icked
Ġover thr
Ġd i
el ig
Ġin v
Ġin it
ot ion
ĠW ould
ĠY elig
ĠShar dul
Ġwor ld
Ġdown town
ant astic
Ġad ds
Ġcontin ue
Ġ23 8
Ġper ishes
ĠAl most
Ġ53 86
Ġcle ver
Ġ125 4
Ġdispat ches
Ġcon s
Ġsome one
Ġwa ist
Ġsk ier
35 9
ĠSar vesh
Ġme ant
Ġme ans
ĠBharat an
iff y
Ġsmo ked
Ġ523 1019
ĠSan jay
Ġswip e
Ġatta ck
Ġbon es
yp ical
Ġexact ly
Ġsec ures
ĠYelig ati
Ġ5386 462
D JG
G C
S uy
W arrier
d on
n am
he ba
Ġs en
ar an
Ġb ent
Ġr ow
Ġr ather
ĠP ro
Ġm ow
Ġm arg
Ġp ark
ĠG h
Ġn ail
ĠL ab
ĠL PC
Ġthr e
et e
et h
ro oy
Ġh ut
ĠSa heba
Ġmis times
ĠSS B
Ġ46 009
Ġ67 277
Ġli fe
Ġcon ver
anc ed
ĠBow ls
Ġme an
iff el
Ar shad
Ġpre c
ear s
Ġel se
ĠRe iffel
wor k
ĠEnd s
Ġfav our
Ġcertain ly
Ġthro at
Ġoverthr ow
Suy ash
ĠLab rooy
Ġ46009 14
Ġ67277 18
E dge
N aman
h ole
n an
o in
Ġo p
he ad
ing ly
ĠR o
Ġc hip
Ġm o
ou d
Ġde al
Ġde but
Ġin ch
Ġn ailed
10 359
Ġre qu
ĠE ng
ĠE oin
ĠSm aran
kat arag
ct s
Ġwon der
Ġ32 10359
Ġtoss es
Ġ46 239
Ġsl am
Ġsl ides
hav an
ĠVen katarag
ĠHa w
Ġpro ble
Gur keerat
ĠCar ey
Ġsit ting
Ġsto pped
Ġhor ri
Ġswip es
Ġdisappoint ed
Ġdesper ate
Ġblock hole
Ġ46239 67
ĠVenkatarag havan
M ohsin
R iyan
T homas
V in
d les
g l
g et
ĠS Z
ĠS ad
Ġf ell
at er
le e
Ġw ild
Ġr ub
ĠR oot
as hiv
Ġm ust
ĠD ananjaya
ĠB rab
Ġde ft
Ġor der
our ne
Ġfour th
Ġpl an
Ġgu ess
ĠDA J
Ġal though
Ġcl ue
Ġsl ams
Ġsw ats
Ġsharp ly
Ġli ked
69 4
ĠPri yam
Ġopen ers
Ġfe el
Ġsee ing
Ġimp ort
ĠDhar ams
Ġnear ly
Ġhapp ened
sp in
ĠKot ian
Ġacc epts
Ġbre aks
ĠTurn ed
ĠClo ete
ĠPa ine
Ġbroke n
ĠGh osh
ĠHaw k
Vin ay
ĠSad ashiv
ĠBrab ourne
ĠDharams ala
4 12
9 6
k ay
ĠS ub
Ġf ab
le ase
ĠK us
Ġc our
it ed
Ġof ten
Ġm ur
Ġm ood
Ġg lee
Ġd ig
ic ally
li me
Ġh oles
Ġh urry
Ġre ason
Ġre act
ĠDh ull
Ġ23 2
nad as
Ġso on
Ġ99 44
ĠKrish nadas
Ġsl ashes
ĠHol ds
uck y
arri es
Ġsk ies
ĠBeng eri
ĠAf ric
Ġcor don
Ġfoll ows
ec ially
ec ial
ten ded
Ġrep lays
Ġbang s
Ġdeposit s
ĠUltra Edge
Ġlin es
Ġpal ms
ĠSlight ly
Ġrequ ired
Ġ9944 694
' d
' re
E ye
N gidi
S han
a ched
b ody
g ra
i ma
j it
o ops
er ved
Ġs heer
Ġb atter
Ġr elie
ĠM ort
Ġp ops
ĠB anged
ra fe
ĠF ifty
us uf
ĠY usuf
Ġout er
atch ing
ash rafe
ov ed
Ġgu y
Ġpad dle
Ġex c
Ġsp un
Ġha cks
air s
az a
ĠZ ol
Ġ24 2
fort un
Ġ59 8
Ġsl ider
Ġk itc
Ġcr ashed
Ġcr ashing
Ġy ards
pen s
Kul want
ĠTan ush
Ġcli m
Ġshuff led
Ġheav ed
Ġfet ches
Ġdisa ppe
Ġsha ck
Ġpumm els
Ġcoun t
cred ible
Shan kar
ĠMort aza
Ġkitc hen
B CJ
G D
M F
N S
R a
R ussell
W illey
r it
w ara
Ġ .
Ġt errific
in ks
Ġs ke
Ġs na
Ġr i
ĠT ai
ha gra
es wara
ĠD uss
ut s
ra ct
Ġst arts
ĠH it
al ity
ĠG ov
ĠG nan
ĠW e
Ġke y
Ġman age
arn age
ĠSh uff
ant ed
ĠHar per
Ġal right
ind jee
Ġdu e
Ġsp eed
Ġas king
Ġv ol
orm al
Ġso aring
Ġcome back
Ġ142 6
oun t
ĠTh ree
Ġstun ning
Ġopen er
Ġabsolut e
ĠWa its
ĠBa cks
Ġel u
bb ers
Ġlift ed
Ġide a
ĠMuk und
Ġexecut ion
Ġbludge ons
ĠKus hagra
Ġmur der
ĠAfric an
ĠTai bu
ĠDuss en
ĠGov indjee
ĠGnan eswara
I C
K R
M L
P ri
S w
S antner
d d
d inson
f or
w anshi
z es
Ġs eri
Ġf lays
Ġb ur
Ġr ank
ĠM in
Ġc up
Ġc arried
ĠT D
ĠT ries
ha pat
Ġp ou
Ġp utting
ĠD ala
ĠH igh
ot ed
us hank
li ve
ĠRa ces
ĠY es
ul let
hi le
ĠL ong
sh at
ell ing
st airs
Ġre ck
Ġpl oy
iv es
Ġstraight er
Ġup stairs
ak hapat
Ġex pensive
Ġsp ace
ĠAn y
Ġpull ing
no cked
ĠJad du
ĠHaz are
Ġsw at
se cut
ĠMad dinson
Ġclo bbers
Ġpro v
Ab ishek
Ġfinger ti
Ġsur v
ĠRaghu wanshi
Ġcomm it
ĠVis akhapat
Ġcushi ons
Ġpres ent
ĠToss ed
Ġgra bs
Ġcra cks
Sw apnil
ushank a
secut ive
ĠVisakhapat nam
P oll
R amandeep
a ded
b an
b bed
c ely
g hest
m ukh
ĠS we
in ess
in may
Ġf ri
Ġb us
de s
Ġr u
ĠM ashrafe
Ġd ancing
Ġgo bbles
Ġh ook
bo un
Ġsc oops
ĠSh ast
ĠAB D
Ġhi ghest
ĠAb hi
Ġpitch ing
ĠCh inmay
Ġsp l
Ġsp ecial
ta ins
Ġ23 7
Ġpo pped
ain ing
Ġ78 412
Ġsl ide
ĠDesh mukh
Ġac tion
22 4
Har meet
Ġne xt
ĠMad ushanka
Ġfin ding
ĠArun kumar
Ġpick ing
ĠCom ing
ĠSan vir
Ġsub lime
Ġmisj udged
Ġob li
Ġsaf ely
Ġshack les
Ġvol ley
Poll ard
ĠShast ri
Ġ78412 62
M N
R N
U mran
i wi
p ing
r essive
Ġt ur
Ġo ld
Ġs ort
Ġf ist
Ġb lin
de mark
Ġw his
ĠR is
ĠK e
Ġc hipped
Ġm ar
Ġp ract
ĠD ur
ĠB en
ĠF lo
ĠG e
ĠV H
li ke
und red
Ġbe g
ĠSh ri
ĠMa de
ĠMal an
os es
ion al
Ġv en
Ġpo cket
Ġcatch ing
Ġj iffy
ĠBe ats
ĠAk shat
ĠPV SN
Ġsw ir
Ġdro pping
Ġbr ought
Ġcar ess
Ġsuperb ly
Ġton k
uf act
Ġyoung ster
PV D
Vijay kumar
Ġfier cely
Ġballo ons
Ġneat ly
JE C
Ġinit ially
Pri yansh
Ġspl ice
L MP
b ing
i ke
Ġ und
Ġs cor
Ġs ens
Ġf inis
Ġb iff
Ġc ent
Ġc arnage
Ġon es
ĠD ra
ĠC r
ĠB ant
um per
har ya
Ġh undred
Ġpl aces
ee ee
Ġar riv
ĠSt ays
ac harya
ĠMa x
Ġlo ose
Ġlo sing
att le
Ġpit ches
end ly
Ġdu o
ew or
Ġ27 5
ĠBr ings
Ġ39 22
ĠTa ke
ĠKings me
ĠRaj ase
ĠLe g
Ġcon secutive
Ġbr ute
36 5
Ġdo zen
ĠSar kar
Ġsli pped
ĠWas n
Ġsma ck
Ġer ror
Ġexpect ing
Ġsqueez es
Ġloop y
Ġdiffer ent
Ġspect ator
ĠWal ks
Ġthre aten
Ġfab ulous
Ġbur st
ĠAbhi jit
Ġtur f
ĠDur ban
ĠBant on
ĠKingsme ad
G IAN
J AR
S ING
U JAR
V DC
b ber
k hara
n ed
p ecially
r ps
s er
u c
ar ra
Ġb umper
Ġw ins
ĠK iwi
Ġa mp
Ġp ers
ĠB K
is ts
ĠJ er
Ġd art
Ġst ood
ĠH E
ĠG UJAR
Ġn ame
ĠY uv
to ck
ĠL IO
ti ve
Ġback wards
av ed
Ġsh y
Ġre ached
Ġman ufact
ĠE k
ĠKar un
ĠMar ty
Ġpr om
Ġ23 4
umb er
umb les
Ġ24 5
Ġpo ss
Ġdis p
Ġ54 8
Ġ59 80
ĠAC A
inn ers
Ġ152 9
ĠBot h
sw ing
Ġfir m
ĠBhatt acharya
ĠRI SING
ĠSUPER GIAN
Ġbrilliant ly
Ġ.. "
Ġshow ing
Ġes pecially
Az matullah
ĠThr ows
Ġap art
belie v
ĠHolds tock
ĠMin z
Ġfri endly
ĠMax i
ĠRajase khara
VDC A
ĠGUJAR AT
ĠYuv i
ĠLIO NS
ĠMarty n
ĠSUPERGIAN T
b ad
h h
i led
i hari
m ely
p ay
t ly
w hile
Ġ ja
he w
Ġf la
Ġr ace
Ġr amps
ĠR uss
ĠA d
Ġc ause
ĠT e
ĠT o
Ġa head
es er
ed ges
Ġm in
ĠD ro
ĠD re
ĠD war
ĠB ihari
Ġd ip
el t
Ġe qu
Ġ3 50
ĠG oyal
Ġn ormal
ĠN eser
ĠV aj
Ġl ap
ĠL ook
ĠSh ould
Ġro ck
Ġro cked
ĠAb s
ĠSal il
Ġslog ged
uri on
Ġgl ov
ĠOver pitched
Ġwal ked
Ġsee m
Ġcar ry
Ġsur ely
Ġpre medit
Ġcli p
Ġchar ging
Ġsmo ke
Ġdismis sed
76 67
swe eps
Ġ900 7667
Ġcelebration s
Ġchas ing
Ġla unched
ĠRat na
ĠGe orge
ĠEk ana
believ able
pay ee
ĠVaj payee
7 2
K J
M att
a ked
a ppa
n eeded
p rit
r at
s eam
ĠS earles
Ġs ince
Ġf antastic
ver appa
de sh
ĠM idh
un der
en er
it ch
it ely
Ġm er
ĠB G
Ġde lays
Ġin tended
Ġth umped
ĠH ima
ep ak
ĠN B
ĠN aib
sh uis
Ġwor king
Ġpl u
ish ing
Ġ19 22
her jee
ĠKa verappa
Ġtu cks
Ġ26 0
Ġ24 1
Ġdis hes
Ġcl atters
Ġwh ats
Ġ117 84
all ops
Ġhand er
29 0
ok ing
Ġattemp ts
Ġgl ance
Ġang les
Shiv il
Ġfollow through
ĠSl ic
Ġdrag ging
Ġknock s
Ġhapp en
De epak
Ġrais e
ox ed
Ġel b
Ġread y
ĠPra desh
Ġexpect ed
Ġmay be
Ġtra demark
Ġant e
Ġide al
ĠMuk herjee
Ġchas es
Ġshim my
Ġte as
Ġpract ice
ĠJer ling
bad in
ĠDwar shuis
ĠAbs olut
ĠMidh un
ĠHima chal
Ġ1922 365
, "
o aib
o ever
u ra
Ġ jab
Ġt ypical
ĠS war
an and
Ġf anc
Ġr ushed
ĠM ight
ĠK el
ĠA us
Ġc ul
Ġp ier
Ġp avi
ĠD on
Ġg ee
Ġg ather
Ġd ream
Ġde n
ĠF inally
Ġst eer
Ġst ation
ĠH its
Ġe m
li on
ĠW ide
ĠW hen
Ġl ad
ĠL o
Ġsh out
16 4
Ġpl ants
Ġqu ality
rav e
ac hes
Ġpr od
os ener
urn oor
Ġ34 95
Ġclub bed
Ġag g
if ic
Ġsett le
Sh oaib
Ġclo ser
Ash utosh
oop anand
Ġsmart ly
Ġhur ried
eri al
Ġhan gs
Ġshim mies
Ġconv in
Ġmile st
Ġcrun ches
Ġemp ty
Ġdi pping
ĠPro bably
spin ner
for ward
Ġsurv ives
ewor k
Ġglov ework
Ġwhats oever
ĠSwar oopanand
ĠKel kar
ĠAus tra
Ġpavi lion
G B
J DP
K o
b ble
j as
k ravarthy
v ent
Ġt emp
ar ly
Ġb ull
Ġb ullet
Ġw he
Ġr amp
Ġr ise
ĠA ng
Ġc hal
Ġc ling
Ġa erial
Ġover p
ĠD ri
ĠC ent
is es
id ish
Ġle ss
Ġth ank
Ġta il
Ġmid dled
Ġl one
ĠL eh
ti me
man n
st and
ĠCha kravarthy
Ġsh ov
Ġeas ier
Ġev ade
re mely
ĠSt ands
op ter
im ming
Ġlo bbed
Ġex ten
Ġsp ins
Ġ24 4
Ġ24 6
Ġv ari
Ġdis g
Ġ82 97
Ġhard ly
ĠMis ses
ok a
com es
Ġli v
ĠPrithvi raj
ĠGup ta
Ġbit es
Ġclo bber
ĠBar oka
agn ific
Ġcar ve
Ġchar ged
Ġreach ing
Ġshuff le
ĠMul der
met re
Ġsurpris e
Ġris k
Ġext ends
Ġpar ry
Ġantici pat
Ġret ired
Ra ina
Ġsna ff
Ġseri ous
boun ce
Ġfinis hes
Ġcul prit
Ġ3495 290
Ġmilest one
ĠAustra li
Ko chi
ĠLeh mann
agnific ent
D uminy
P rin
b at
g y
l ucky
p ort
s ion
u raj
w iv
Ġto ying
in itely
Ġs ave
Ġs ailed
Ġs aved
Ġf ram
Ġb ar
Ġb oot
Ġb attle
it al
ed it
Ġm ere
Ġm atters
ĠD a
ĠD wiv
ĠB hav
ĠF our
el led
Ġle arn
Ġth ump
ĠG urnoor
Ġn ick
ĠN el
li ft
ĠRa ced
Ġgo l
qu e
iv ely
Ġar en
Ġhe art
Ġmis er
Ġsp inners
ock s
Ġchan n
Ġ23 6
ĠSha ikh
ges t
Ġsl ash
Ġ135 94
Ġ135 95
Ġsqu ir
len ce
oa h
Ġloft ing
ĠWh o
Ġtrou b
Ġgl ori
Ġhands ome
Ġbr utal
ĠJam es
ĠSw ings
ĠRun s
ĠGul badin
WP UJC
Ġche cked
Ġslow ly
Ġbad ly
Ġjo ins
Ġens ured
Ġsurpris ed
Ġdiffer ence
Ġappla use
Ġtransf ers
Ġwel come
Ġgener ate
ĠHawk Eye
ĠShuff les
Ġblin der
Ġamp le
Ġstation ed
ĠCent urion
Ġliv id
Prin ce
Ġfram e
ĠDwiv edi
ĠBhav esh
H ead
K hejroliya
K uggeleijn
L A
M V
S port
T K
f orm
i wala
o om
p ur
u han
z ing
Ġ @
ĠS ard
ĠS ee
Ġs ud
Ġf ight
Ġb oss
ĠR imming
Ġc am
Ġc ards
Ġp op
Ġp ain
Ġp ose
ĠC hat
Ġg r
Ġg on
Ġd ust
ic opter
Ġin du
Ġle an
Ġle aves
al ifier
Ġe legant
Ġe tern
ĠG u
ĠG re
ĠN ic
ĠW ay
ĠW icket
ĠY e
Ġl it
Ġoff ie
ĠCha uhan
Ġh ung
13 6
ĠE as
Ġsc al
ĠMS D
Ġlo osener
Ġcut ting
Ġro ars
Ġrac ing
tra cking
ĠSuper Sport
Ġ24 3
ĠFl atter
20 20
Ġj umped
Ġj ugg
Ġma iden
Ġk is
Ġk ick
Ġcr edit
Ġfl ashes
ĠMer iwala
Ġair rr
Ġwould n
Ġfe ather
Ġcar rom
Ġbl ame
JD S
Ġsma ll
ĠCom p
bb led
Ġsimp ly
Ġsqueez e
the less
Ġunle ashes
Ġcaress es
ĠTe jas
Ġexten sion
Ġvari ation
ĠSard ar
Ġsud den
ĠRimming ton
O A
P ar
P ankaj
S D
V Y
g un
i med
t es
t urn
Ġt ill
ĠS k
Ġb rave
Ġr are
Ġr ange
Ġr aining
as hi
ĠP ower
Ġc as
ĠT ha
Ġa f
Ġa ff
Ġm ish
Ġfor eh
ĠJ o
Ġg rip
Ġd ays
ic s
Ġin swinger
Ġth wa
ĠG av
Ġn or
Ġn erves
ep tion
ĠV M
Ġfr ees
hi ya
ĠL oop
Ġback foot
man i
Ġh ops
Ġbe aut
Ġqu iet
re cts
ol d
im in
ĠSK Y
ĠSm art
Ġup ro
ta lly
Ġ23 9
umb ling
Ġas ked
ĠPr ess
ĠPar mar
em ber
Ġk nocked
Ġsty lish
Ġch ops
com ing
Ġhalf way
Ġstr ate
Ġhel met
Ġhel icopter
Ġfe eds
Ġdismis ses
Ġche st
Ġche cks
Ġread s
Ġste al
Ġpac er
Ġhor ror
Ġconfiden t
Ġris ky
Ġblast s
Ġinteres ting
Ġclever ly
Ġfingerti ps
Ġpresent s
Ġbus iness
ĠFlo ated
Ġfanc y
ĠDa hiya
Ġchann el
Ġetern ity
ĠTha la
ĠGav askar
A G
c er
g ged
i pped
Ġt errible
ĠS log
Ġto w
Ġto tally
er o
Ġf ive
at ive
Ġw oah
on est
ĠP WA
Ġa h
Ġm otion
Ġp alm
Ġfor ced
ĠD is
ĠF ine
ĠF raction
Ġin credible
Ġle aps
Ġle ather
har di
Ġn udge
Ġn umber
ĠN ice
Ġl az
Ġl oves
Ġl atches
Ġthr ashes
Ġcover ed
Ġre cover
Ġlong er
iv an
ĠSt un
Ġsc ream
ris p
ĠO kay
ĠSa xen
Ġro ar
Ġro of
Ġwatch ing
Ġshort ened
ĠInd ore
ĠRaj kot
Ġun s
iz es
ĠBe hardi
Ġ113 66
Ġslog ging
Ġhand y
ĠWh y
Ġne ither
ĠPri ce
Ġus ual
Ġfoot work
Ġsweep ing
ĠSar gun
Ġeven ing
Ġstart ing
uth or
Nav een
An uj
Ġcli pping
ĠDhar mani
Ġfast est
ĠRe aches
Ġconcede s
Ġtick les
ĠBir la
Ġacc ount
Ġscoop ed
Ġspo ons
Ġtra p
Ġdelight ed
Ġtre at
Ġwha cks
Ġdab s
Ġ1216 5
Ġcur tains
Ġescap es
Ġexper i
min ous
Ġeffortless ly
str et
Ġproble m
Ġhorri ble
Ġposs ible
Ġdisp atch
ĠAustrali an
Ġglori ous
ĠThala ivan
ĠSaxen a
ĠBehardi en
ĠSargun am
F H
J oginder
S im
U BT
V VS
V RV
c l
d riv
d oz
f an
i or
i les
Ġt al
Ġt raj
Ġo minous
Ġf am
at ure
Ġr el
Ġr ad
ĠM on
Ġc ase
Ġa imed
Ġa uthor
Ġm agnificent
Ġp ing
Ġfor ces
and er
um s
ĠH ands
ĠRa zz
ĠW est
ĠL I
Ġsi lence
Ġco ol
Ġh onest
Ġsh oes
Ġar r
Ġqu est
ĠE R
ant age
ac y
Ġlo ads
ast er
Ġtu ck
Ġshort ens
Ġas s
Ġ33 60
Ġpoint s
Ġun fortun
Ġun lucky
Ġsl id
Ġsa id
Ġcr unched
Ġsqu ar
Ġ147 3
Ġy or
ĠCle ver
Ġsw atted
ect ory
Ġus ing
sel ves
Ġclo sed
Ġtrack er
Ġthem selves
ec tive
ĠSl ow
Ġcar ved
Ġimp ress
Ġthrow ing
Ne esham
Ġed ges
Ġcelebr ate
Ġsprint s
Ġwin ning
Ġcream ed
Ġkne els
Ġthin ks
Ġloop ed
Ġbo om
Ġcalm ly
Ġsucc ess
Ġspan ks
Ġexper tly
Ġinteres ted
Ġprec ision
Ġslam med
get her
Ġreck on
ĠKe eps
Ġbeg in
Ġoverp itches
ĠNic ely
tes y
ĠJo han
Sim arjeet
Ġtraj ectory
Ġrad ar
ĠRazz ak
A F
J ay
K W
P K
Y arra
b ly
n es
p e
q ullah
r fan
t e
v edi
ĠS its
ĠS him
ĠS eth
in ed
Ġs hi
Ġs lo
Ġs ug
Ġf ig
Ġw atches
Ġw allops
ĠM B
ĠM r
ĠM oves
ĠR em
ĠP layed
Ġc amps
ed y
ĠD anced
ĠC ame
ra id
ĠJ alaj
Ġg ri
Ġg utt
Ġst ro
Ġst ory
ĠI mp
Ġle vers
ĠThe se
ur ing
ur ashtra
ur vedi
Ġl augh
Ġcom bo
av ing
ud he
ĠU A
ja cent
Ġse le
Ġad jacent
ĠSa has
ĠSa urashtra
Ġbu cket
Ġ26 2
Ġv o
ĠAn ish
ĠAl so
Ġun believable
edi qullah
Ġcl ai
Ġcr ou
Ġdri ll
wan ath
Ġdro ve
Ġtr ust
ĠDe ceived
Ġsett ing
ĠBre etz
ift h
Ġclo ses
Ġpro ving
rab udhe
Ġreview s
Shiv ang
Ġsu pp
Ġimp ressive
Ġfli er
Ġdep art
Ġche cking
Ġshuff ling
Ġflo aty
Ġleap t
Shah id
Ġchi pping
Ġlaun ch
Dh oni
Ġthin king
ĠSau rav
Ġadv antage
Ġstret ch
ĠVis wanath
Ġext remely
Ġrespon se
Ġconfir ms
Ġmo de
Ġdig s
Ġpou ch
Ġven om
uc ial
Ġfirm ly
ĠDro pped
Ġwhe ther
ĠChat urvedi
Ġaf raid
Ġbeaut y
ĠPress ure
Jay ant
Ġgutt ed
ĠSahas rabudhe
ĠBreetz ke
H R
K am
S H
S J
e f
e at
p ect
w ne
Ġ utter
ĠS till
ĠS ix
Ġs ped
Ġs neaks
Ġf uss
Ġb en
Ġr ed
ĠR W
ĠK an
Ġc risp
ĠT ymal
Ġa ck
Ġa live
ed ing
Ġm ates
Ġp ack
Ġp arried
Ġba m
Ġd ips
Ġd ances
Ġde lic
Ġst ran
ĠI sh
Ġin j
Ġta ps
ot e
Ġleg break
ĠW ill
ĠW idth
Ġno body
ul ar
Ġl un
Ġl ays
man ullah
13 7
Ġre lease
qu alifier
Ġstraight ened
Ġstraight forward
Ġar ches
Ġdef initely
ub ham
Ġse ar
Ġad m
Ġpad dles
ct ed
Ġha ck
Ġ25 7
ĠBhat kal
Ġsign s
iz ont
Ġ113 6
ĠHol kar
Ġcr ucial
leg ance
Ġpower ed
Ġhand le
Ġsw all
ĠEn ough
Ġhol ding
Ġcre ates
now led
Rah manullah
Ġwhi ppy
Ġpart y
Sam eer
Ġdou ble
ĠBa wne
Ġform er
Ġexp lo
ĠRe ally
Ġhor izont
be at
Ġtou ched
Ġsha ll
ĠQuick er
Ġresp ect
Ġintent ions
Ġbisect ing
cent ury
Ġeff ective
Ġhan g
Ġaim ing
Ġsucc essive
ĠRat hee
Ġtransf er
Ġcho pped
Ġinv it
Ġimport ant
Ġrelie f
Ġelu des
Ġwhis t
Ġund one
Ġsens ational
Ġmanufact ure
ĠAbsolut ely
ĠGre at
ĠEas ily
Ġscal p
imin ator
Ġlaz y
ĠJohan nes
Kam ran
Ġack nowled
Ġstran ded
B W
D H
F inal
P ra
Q ual
W I
X C
f inal
g al
h od
p aced
u ght
u pped
z i
z ed
Ġ ug
Ġt umbling
ĠS ediqullah
Ġs erves
ar r
Ġf aces
Ġf ashi
Ġw ings
Ġr ows
Ġr ushes
Ġr eds
ĠR an
en al
Ġc hat
Ġm on
Ġp air
Ġfor g
ĠD es
ra ful
Ġg ig
Ġg ames
Ġd ire
Ġst ate
Ġst epped
ĠI L
ĠG A
Ġn ut
Ġn one
ĠN ik
Ġstri king
hi k
Ġcom b
ft ing
iv els
ee mp
Ġsc y
op e
ĠAsh raful
Ġlength s
ĠAr gal
ĠO pens
end ous
Ġoffer ed
Ġ25 4
Ġ25 5
Ġ24 7
Ġpo le
Ġdis play
ĠPer haps
Ġj oy
ĠSo ft
ĠMus t
ĠAbd ur
Ġbel ow
Ġbel ted
Ġen j
ian ce
Ġli kes
Ġstr ength
Ġclo uts
Ġaw ful
Ġclean ers
ĠBar inder
Ġme et
Ġslow ed
Ġconnect ed
Ġshow ed
ĠHow ell
Ġnonchal ance
Ġmet hod
Ġbisect ed
Ġdisappoint ment
Ġwha ck
Ġwha cked
Ġfier ce
Ġstret ched
Ġescap ed
pull s
Ġmean while
Ġop tion
Ġimport antly
Ġcour se
Ġcour tesy
Ġglee fully
Ġcommit ted
ĠSwe et
ĠBen son
Ġcent ury
Ġarriv ed
Ġpremedit ated
rat a
Ġhappen ing
Ġclobber ed
Ġheart beat
Ġmiser y
Ġforeh and
Ġtal king
ĠMon u
Ġping ed
Ġyor kers
Ġslo ppy
Pra yas
Qual ifier
Ġug ly
Ġfashi on
ĠNik hil
A U
C K
D G
H M
P R
S ikandar
c ce
f ied
k t
u ds
u pp
Ġt rapped
Ġs er
Ġf ol
Ġf ail
Ġb atted
Ġr att
ĠR ep
ĠR oc
ĠR ocks
ll iance
ĠP l
ĠP iy
Ġc upped
ĠT ough
Ġover turn
Ġp iv
Ġp ass
Ġp arries
Ġfor t
is ely
ĠJ on
Ġst adium
Ġwas ted
Ġle vel
Ġth us
Ġe legance
ĠG G
Ġ6 00
Ġor din
Ġl aps
Ġl oud
Ġl ater
hi ps
ti e
Ġback lift
il led
Ġco ll
ro om
qu is
ft ed
ĠYadav indra
ov ing
Ġdes erved
Ġdot s
Ġdefen ce
ant ic
ac ing
Ġwith in
ĠDh ok
os ed
Ġ25 8
Ġv is
ric ult
Ġ39 2
ĠSim ple
ĠMus heer
Ġsplit ting
Ġk id
ĠNe ed
Ġcr ash
Ġbel ts
Ġag ricult
com b
ĠMahar aja
Ġsett led
Ġdra ma
RE E
TH REE
So hail
Ġlot s
Ġnever theless
Ġrais ed
Ġfrustr ation
Ġshap ing
Ġflo or
Ġer up
Ġtick led
hab h
Ġapp ro
Ġspo ils
Ġatta cking
Ġadjust s
Ġswivel led
Ġye ar
Ġye ars
Ġrocket s
Ġspan ked
Ġflow ing
Ġantici p
Ġcons um
Ġmarg in
ĠEng lish
Ġproble ms
ĠSub rata
Ġdisappe ars
Ġske w
Ġske ws
ĠRis habh
Ġswir ling
ĠLoop y
Ġtreat ment
stret ched
ĠHands comb
ĠShim mies
Ġfig ures
Ġsele ction
WI DE
Ġgig antic
Ġscy t
ĠRoc ket
ĠPiy ush
Ġordin ary
ĠDhok re
Ġagricult ura
' m
B ri
F azal
T S
b ur
b ish
g o
i fts
i verse
t ers
v ation
Ġt er
Ġt iny
cor rects
in ation
Ġs in
Ġs kied
Ġf umbles
Ġf oxed
Ġf ifth
Ġb room
Ġw o
Ġw idish
ĠM e
ĠM ish
un il
ĠK upp
ĠA uss
Ġc ust
it ion
it ching
ĠT alk
Ġa ud
Ġp lease
ĠD ances
ĠC atching
ĠB it
ĠB ose
Ġg em
Ġg lor
Ġg ras
Ġg ears
Ġd ishing
ou rish
Ġde layed
Ġin s
Ġin de
ĠH ur
us es
li es
li ps
ard ings
ĠRa ipur
ĠW here
ĠW ander
ma zing
Ġl ower
ĠL ands
ro under
Ġh ero
11 8
Ġpl on
op le
ĠDhaw al
hat i
ĠKa zi
Ġse a
ĠMa iden
ĠSa hara
Ġpr oud
Ġany way
Ġsp e
Ġ25 3
Ġj ams
Ġsm ashing
era lly
Ġsw ift
Ġfl att
Ġfl ourish
wa hati
lin ed
com pens
ĠMay be
Ġbig gest
ĠMD KJ
uff ed
itt en
ĠMun af
Ġme al
Ġskid ded
Ġdec ide
Ġgre et
Ġgre edy
Ġflo ater
ĠFir ed
Ġdrift ed
ress ing
Ġgrab bed
Ġbisect s
Ġstep ping
Ġpoun ce
Ġpoun ces
Ġens ure
ĠCould n
Ġtw ice
Ġrespon ds
Ġcount ry
Ġru ins
Ġplu cks
Ġelb ow
Ġconvin cing
Ġevade s
Ġlearn ing
Ġcam er
Ġlean ing
ĠGu wahati
Par vez
Ġmish it
Ġauthor ity
Ġsquar er
Ġvo ice
Ġhorizont al
ĠJohannes bur
Ġdire ction
Ġenj oy
Ġfol ks
Bri jesh
Fazal haq
ĠKupp uraj
Ġcust om
Ġglor y
ĠWander ers
ĠJohannesbur g
J L
M W
M ay
Y A
Y V
a a
b lo
e x
f all
i ously
l ands
m o
o ver
p ole
t ory
w ide
y y
Ġ ut
Ġ vi
Ġt ent
ĠS eam
ĠS unil
Ġto es
Ġo kay
he arted
Ġs al
Ġs hell
Ġb oo
Ġb its
Ġb race
ĠP acy
Ġc racked
it ting
ĠT own
ĠT est
ĠT ried
Ġm ain
Ġp ur
Ġp ats
ĠC red
ra ying
ĠJ ohn
Ġd ance
Ġd arts
Ġd ressing
Ġwas te
ĠThe n
ent ional
li z
ĠW rist
Ġout stretched
ĠL ungi
ti l
Ġthr ead
Ġgo bbled
Ġre leas
Ġdes ired
Ġgent ly
ant ing
lo y
Ġse al
Ġhis tory
Ġlo ss
Ġro ute
Ġcont est
ĠMal hot
Ġpress es
Ġcram ps
Ġblo ke
Ġsp ike
ib ly
Ġchan ged
Ġ25 2
ĠQ d
Ġj ig
Ġ73 4
Ġhar m
Ġcl assy
Ġ113 65
oc he
Ġsw itch
Ġway s
run t
ĠCap e
ĠSw ivels
Ġpun ishes
Ġwr itten
Ġreview ed
Ġsu cce
Ġswiv elling
Ġdam n
Ġexp ress
Ġexp oses
Ġluck ily
Ġton king
Ġdeliver ed
Ġhop es
Ġhur ls
BA W
ĠUn fortun
Ġsprint ed
Ġbring ing
Ġam bit
Ġsqueez ed
ĠHad din
Ġstay ing
Ġlight ning
Ġfav or
Ġent ire
Ġappla ud
ĠThr ough
Ġtw ist
ĠNew lands
ĠKn uckle
Ġcrun ch
Ġconfir m
Ġmarg inally
Ġconver ts
Ġdeal ing
Ġclue less
Ġri pper
Ġcup s
ĠAny way
ĠDra gs
Ġthreaten ing
ĠSlic ed
Ġagg ress
Ġanticipat ed
doz en
Ġsug ges
Ġcrou ched
Ġpack ing
Ġins ult
May ank
ĠCred it
ĠMalhot ra
) ,
C M
D K
D ananjaya
F Y
K MA
P BB
R utherford
S ur
S ach
S CA
Y udhvir
d own
e xt
n ey
o ded
r es
u el
w atching
Ġ lights
Ġt or
er ing
Ġs inks
Ġf iz
Ġf unk
at aka
le ng
Ġb end
Ġb ox
Ġw ry
Ġr ising
ĠK ee
ĠK ER
ĠP ort
ĠP SP
ĠP lays
ĠP hew
Ġc a
Ġc at
Ġc heer
Ġc arries
it es
it ts
ĠT re
ĠT errific
ĠT ypical
ed ged
Ġm ows
Ġm erri
Ġm itts
Ġp in
Ġp ep
Ġfor e
ĠC han
ĠC ol
ĠC utt
ĠC ann
ut ed
ra ge
ĠJ SCA
Ġd ying
ic ation
ow ed
Ġle ant
us ion
us hing
Ġor bit
Ġout swinger
ti es
Ġthr own
Ġgo bble
Ġh un
Ġh ug
Ġwor ds
ment s
Ġrecor d
ĠSt and
ĠE liz
Ġdefen d
up s
ab ati
ab eth
ess e
Ġpr eemp
Ġany one
Ġcram ping
Ġsp are
ath ers
CH I
Ġchan ces
Ġ26 3
ĠQ DK
ĠSha heed
int age
ĠSim ilar
ĠAl zarri
Ġhigh er
Ġres pite
Ġj udged
Ġcomp la
iz ed
Ġunder way
SK ERS
ye ar
ĠIn credible
Ġch unk
ĠTU SKERS
Ġ152 93
ĠPre medit
Ġright ly
AL A
Ġgot ten
alit ies
Sh ubham
ĠAf ghan
ĠBar abati
Ġwhi pping
Ġski ps
foot ed
ĠKO CHI
Ġthan ks
Ġra pped
Ġform alities
Ġbri lliance
ĠKarn ataka
bb ie
Ġhur ries
Ġste ep
Ġfinish ing
Kar anveer
Ġlet ting
Ġspo il
Ġam ong
Ġstrugg le
Ġjump ing
Ġbon us
Ġbon kers
ĠTom ar
Ġhan ging
Ġexecut ed
Ġens ures
Ġballo on
Ġbludge oned
Ġob vious
Ġconv entional
Ġrid ic
Ġblast ed
Ġcho ice
Ġsen ding
ĠRo bbie
Ġhorri bly
Ġrub bish
Ġexc ited
Ġclim bs
Ġmurder s
Ġprov ided
ĠBK G
Ġequ ation
Ġmer cy
Ġchal leng
Ġgol den
Ġsquir ts
Ġgon er
ĠComp lex
Ġcas ual
Ġaff ord
Ġarr ow
Ġunfortun ately
ĠRan chi
hik har
kt k
ĠRep lays
ĠJon ny
quis ite
ĠEnglish man
ĠAuss ie
Ġcamer as
blo oded
Ġvi o
ĠQd K
Sach in
ĠKee mo
ĠKER ALA
Ġmerri ly
ĠCutt ack
ĠCann ot
ĠEliz abeth
C RD
I rfan
O F
O cc
P H
S ak
c ious
i li
k ne
m endous
p in
s et
Ġt ired
ĠS heer
ĠS lips
ĠS hikhar
Ġs y
Ġs up
Ġs me
Ġs orts
Ġf ully
Ġf lay
Ġf oo
at ic
Ġb le
Ġb ra
Ġb runt
Ġw ind
Ġr ap
ĠM ic
en ded
en ess
Ġc la
it ors
ĠT al
Ġa ges
Ġover compens
ha el
es que
Ġp an
Ġp at
Ġfor mat
Ġfor ear
Ġfor get
ĠC hir
Ġd arted
Ġde st
ĠF antastic
Ġst eered
Ġin coming
am m
Ġth rilled
ĠH el
ĠH ard
Ġe ach
ĠN ope
ot ions
us ing
ĠW icketkeeper
Ġout ta
ul ation
to p
to pp
ĠL uck
ĠL ike
ate ver
Ġscore d
Ġh ost
Ġwor ry
11 2
Ġre ven
Ġpl uck
ĠSt e
ĠE vent
Ġhe ard
ey e
Ġse ver
Ġro le
Ġro oted
Ġpr ote
Ġsp ank
ct ing
Ġ25 1
Ġ26 1
ĠPer fect
Ġun til
Ġhar sh
Ġsl ashed
Ġsl anted
Ġti ed
uk ul
Ġkn own
Ġdri lling
ies t
ĠCon ne
all op
Ġdisdain fully
ĠDav is
oun is
oun ds
Ġattemp ting
ĠTh ose
Ġcre ated
Ġair y
SM SM
Ġang ry
Ġme ets
Ġpun ish
Ġfin esse
Ġfollow ing
Ġbl ind
ĠQu ite
ĠWa ited
Ġra ising
ray ed
Ġpe ople
ĠBa cked
ist ent
Ġho icks
Ġshap es
Ġfet ched
Ġdeliver s
Ġz oom
Ġhelp ing
udge ment
Ġrep lay
Ġam ount
Ġdeposit ed
Ġexec ute
asion al
Ġadv ances
Ġstret ches
Ġfreeb ies
Ġcoun ter
Ġcushi on
Ġpres ence
Ġproper ly
uis ed
Ġinv itation
Ġcons ider
Ġsen se
Ġwonder ful
Ġrelie ved
Ġdisappe ared
Ġbiff s
ĠDra gged
Ġsnaff le
Ġbar ely
Ġfight ing
ĠYe a
ĠSlog s
ĠRem ember
Ġgri pped
Ġstro kes
Ġsear ching
Ġvis itors
Ġappro ach
Ġscyt hes
Ġut most
Ġfunk y
Ġchalleng e
Occ asional
Sak ib
kne ed
Ġfoo led
ĠMic hael
ĠTal at
ĠLuck ily
Ġhost s
Ġreven ge
Ġprote ction
) .
A t
A man
G ony
H C
H az
J askaran
L J
M un
M athews
S had
b y
g ic
i gn
j udged
m ile
u a
u ous
u ation
u ced
x ter
Ġt am
Ġt ee
Ġt yp
ĠS ki
or ry
er ed
Ġo vation
an thr
Ġs ans
ar es
at ched
at ory
Ġb ashes
Ġw ee
un ior
ĠT r
Ġover corrects
Ġm ate
ĠD an
om in
ĠB oy
ĠB andekar
and y
Ġg eez
ĠF air
Ġst ops
ic es
ic tion
Ġle aving
ĠH ere
Ġn ur
Ġn udges
Ġn aked
ĠRa ises
ĠY ep
Ġmid dles
Ġl ove
hi gh
hi bit
ĠL et
ĠL ucky
our ney
ull s
ro ll
ill er
Ġsh ock
Ġre leased
Ġlong est
Ġinn oc
Ġeas es
Ġbe comes
Ġstraight en
Ġev iden
re ws
Ġbut ter
Ġsc rews
Ġup wards
Ġmis fiel
Ġcut e
Ġro cking
Ġtim ber
ik anthr
Ġcont ext
Ġoffer ing
Ġdu cking
ĠCh o
ath y
Ġchan ging
Ġ25 6
Ġ26 4
Ġ33 3
Ġ27 1
Ġ27 8
Ġv ital
Ġpo ke
Ġpo st
em i
ĠInd ia
Ġdis belie
Ġres ist
Ġj ourney
Ġ82 98
Ġun f
Ġun like
ĠCl ass
Ġ130 40
ĠNo body
Ġdri bbles
ĠIn st
Ġch uffed
Ġear th
Ġfl own
Ġposit ive
Ġag o
ĠDe c
Ġcaptain cy
cu pped
Ġcre ate
alth y
Ġstun ned
Ġbig ger
Ġsome where
Sh orey
ĠRav ikanthr
Ġpro ds
Ġme aty
Ġfe ast
Ash wani
Ġdra w
Ġsla pping
An molpreet
ĠSid dar
Ġtouch ing
Sam uels
ĠMot era
ceiv es
Ġshould n
Ġhow ever
Ġpa cked
Ġreg ulation
Ġheav y
Ġsit uation
ĠSp ots
ĠToo k
ĠHow ever
Ġgen erat
Ġmet ers
Ġtre ks
Ġdab bed
Ġadjust ed
Ġadjust ment
Ġdesper ately
Ġaim s
Ġent ertain
Ġtell s
Ġrocket ed
Ġtrav els
Ġtrav elling
Ġprec isely
Ġfavour ite
ĠEng ine
ĠSub ra
ĠSwe eper
Ġscor ing
Ġpers ists
Ġprom otion
Ġplu cked
Ġelb ows
Ġagg ressive
ĠAng led
ĠDri fting
Ġshov el
Ġtroub ling
Ġindu ced
eption al
Ġstrate gy
driv es
ums y
Ġsupp ort
Ġinj ury
Ġagricultura l
Ġaud ac
Ġinde ed
Ġcustom ary
Ġharm less
Sur yansh
ĠChir ra
topp able
At harva
Haz lewood
Mun af
Shad ab
Ġdisbelie f
ĠRavikanthr eddy
ĠSiddar th
C N
U r
U mar
Z eeshan
b led
d G
i us
i ped
l and
m ate
p art
r atch
r ate
r ong
v al
Ġ vers
Ġt rip
Ġt ame
Ġt umbles
ĠS qu
ĠS la
ĠS hane
an at
an while
Ġf al
Ġf ish
Ġf ox
at ors
ver ses
le war
Ġr ic
Ġr am
Ġr ib
Ġr ush
ĠM y
ĠM und
un ds
un ication
ĠK nocked
ĠP itches
en ch
en ly
Ġc her
Ġc hamp
ĠT ad
Ġa war
Ġa mazing
es ted
Ġon field
Ġm ag
Ġp ati
Ġp ants
ĠD one
ĠC dG
is ed
ut es
ra w
Ġg orge
Ġg ifts
Ġg athers
Ġd rew
Ġde l
Ġde vi
ĠF M
ĠF rom
Ġst ab
el f
Ġle ague
Ġle aking
ĠH at
ch n
Ġn ipped
ĠN O
ĠN CN
Ġta ble
Ġta lent
Ġta lly
ĠW on
ĠY ounis
Ġno ise
Ġl ashes
Ġl ured
Ġl arr
Ġl oving
to gether
il ing
man ian
ell s
ud ging
ĠU sed
Ġdown fall
Ġbe ast
re me
re aded
bo und
ol og
Ġsc oot
Ġsc reen
Ġcross ed
Ġgood ness
im et
ates t
Ġpush ing
Ġis s
Ġhe althy
lo ft
Ġal together
Ġgap s
ĠMa lewar
ĠRana de
Ġsp ears
Ġha cked
umb s
ĠPr asan
Ġ26 5
Ġ24 8
ĠBr ute
Ġdis hed
Ġj am
Ġ72 9
Ġ73 40
Ġ125 40
Ġkn elt
Ġsm oking
Ġsm iles
ĠLe ans
ĠLe gbreak
ous e
ĠSur ely
Ġsw ishes
Ġsw itches
Ġfl ings
Ġfl ush
Ġav o
Ġfir ing
Ġli king
ect ed
Ġwa fts
Ġwant ing
Ġfe eling
co op
Ġwrist y
Ġstand ards
ĠTim e
Ġrem oved
Ġpe asy
Ġinst antly
Ġho ardings
read s
Ġton ked
Ġflo ats
Ġcelebr atory
Ġhop ing
Ġflash y
Ġste adi
Ġsprint ing
Ġnonchal ant
Ġspo on
Ġtou ches
Ġsha kes
ĠGiv es
Ġgift ed
met er
Ġland ing
Ġunle ashed
Ġwel comes
ĠToss es
str u
Ġdi pped
Ġnail ing
ĠRo b
Ġclim bing
Ġpou ched
ĠAny thing
Ġprov ides
Ġfingerti p
Ġobli ged
Ġobli ges
Ġmar mal
ĠTake n
swing ing
Ġmin ute
Ġcarry ing
ĠSlic es
Ġpier ce
Ġem otions
ĠLo ads
Ġconvin ced
Ġtemp ting
stand ing
Ġgol f
ĠSee med
ĠYe ah
ĠSk ies
Ġthwa ck
Ġstylish ly
Ġrecover ed
ĠStun ning
Ġuns toppable
ĠImp act
Ġdelic ate
Ġmon ster
AU K
Ġfort un
ĠRocket ed
ĠMe anwhile
ĠMish y
Ġswift ly
Ġgreet ed
Ġreleas es
ĠUnfortun ate
Ġfavor ite
Ġpep per
ĠCol in
Ġvio lent
Ġrap id
ĠEvent ually
Ġtam ely
hibit ion
ĠEngine er
ĠSubra manian
Ur vil
Ġric oche
ĠMund he
Ġawar eness
ĠPrasan th
B E
H F
J unior
O C
R T
S al
b ar
c ha
d aman
m ight
ĠS ke
Ġto gether
an ap
an pur
Ġs elf
Ġf aced
Ġf uri
Ġf lexes
Ġb es
Ġb id
Ġr ash
Ġr aps
ĠM ull
ĠM att
ĠM oved
ĠP la
ĠP ulled
ĠP ushed
ĠP ulls
ĠA V
ĠA ct
it ute
Ġa er
Ġa loft
es tion
ri e
Ġm ent
Ġm inds
Ġm aul
Ġm ass
Ġm aster
Ġp ings
Ġp ure
ĠD el
ĠD ug
ĠD enly
ĠC hee
ĠC ertain
ĠB l
ĠB oss
ĠB oun
ĠB hand
ĠJ umps
ĠJ anat
Ġg race
Ġd uring
ĠF r
ĠF ree
ic ially
el come
el iminator
Ġle ave
Ġ3 25
ĠG ould
ĠG anap
Ġn ip
ĠN ehr
ĠN daman
ent ly
li min
ĠW anted
ĠW rong
Ġfr eed
Ġ11 75
ul ously
ĠShar ath
Ġl ur
Ġl atch
Ġoff icially
ĠL G
ĠL loy
Ġsi gh
et ing
ro vis
Ġqu estion
Ġdes erves
re es
bo oz
ĠE arly
Ġcan ter
Ġsc ratch
ris k
ag ing
ĠPathan ia
ĠO val
ang le
lo oking
Ġal might
less ly
Ġblo od
Ġex quisite
Ġex hibition
Ġ25 9
ĠZ TA
Ġgro ove
Ġ28 0
Ġ28 5
Ġv intage
ĠDR S
Ġper cent
Ġ36 0
Ġtoss ing
!! "
ain ed
Ġcomp ul
Ġcl umsy
ĠBe cause
Ġsl anting
Ġsqu ared
Ġ142 2
Ġ142 212
Ġwho le
ĠShiv ram
og s
ici ous
osit ion
Ġferoc iously
run s
ki ly
ĠEx pect
Ġcap ital
Ġli fel
ott le
DJ M
itt ers
Ġsk im
Ġsli pping
Ġme as
Ġskid ding
ĠAt temp
Ġcar es
Ġpre vent
Ġrem ember
Ġopp osition
Ġpe g
Ġdep th
Ġinst ant
Ġappeal ing
Ġread ing
Ġcontro lled
ĠUn iverse
Ġmess es
Ġacc ur
Ġwhip l
Ġspo oned
Ġab and
Ġelev ates
Ġclass ic
Ġallow ing
Ġknow ing
Ġsub st
Ġmet re
Ġtre mendous
Ġinstinct s
Ġla pped
Ġpoun ced
Ġballo oned
Ġescap e
Ġunle ash
Ġye ah
ĠKn ew
ĠEng land
ĠShuff led
Ġven ue
Ġarriv es
ĠLeg al
ĠAd v
Ġteas ing
Ġpier ces
Ġtail ing
Ġshov els
Ġparry ing
Ġgr ass
Ġsudden ly
ĠPower play
Ġgrip s
Ġupro oted
Ġtow ering
ĠFraction ally
Ġimpress ed
pe asy
Ġinvit ing
Ġforg ets
Ġstate ment
Ġfail ure
Ġerup ts
Ġgras p
ĠHur ter
Ġenjoy ed
Ġmain tains
Ġthread s
Ġambit ious
Ġtor so
PH KD
Ġovercompens ates
Ġforear ms
Ġtyp ically
Ġmisfiel ds
Ġcher ry
Ġgorge ous
Ġlarr ups
ĠMull anpur
ĠAct ually
ĠBhand age
ĠGanap athy
ĠNehr u
ĠNdaman e
limin ator
ĠLloy d
Ġalmight y
Ġlifel ine
A nand
E liminator
H ooda
I R
K B
M is
M ac
P ant
S unny
c r
c ues
d it
f er
f le
g ine
g aj
i am
l od
o cked
s la
s ki
s ively
t urner
u u
u ce
v in
w en
y ond
z y
Ġ ya
Ġ handed
ĠS ends
or tion
Ġto ld
he ight
in esh
in ton
Ġs orry
Ġf il
Ġf umble
Ġf if
Ġf acing
le ngth
Ġb as
de mp
Ġr ip
ĠR ath
ĠP ast
ĠP lenty
ĠP itching
en ced
Ġc ong
Ġc ashes
Ġover hit
Ġm atches
Ġp inch
ĠD inesh
om b
ĠB y
is c
ut uraj
ra kash
Ġg est
Ġg ear
Ġd oles
Ġd umped
Ġde w
Ġde ter
Ġst utter
ĠI J
nd er
ĠH ave
ch ang
Ġn a
Ġn est
ĠN eeded
Ġta iled
us ed
Ġ7 33
li ma
Ġor ig
ĠRa f
ĠW atches
ĠW hips
ĠW elcome
ma lly
Ġl atter
Ġl oved
Ġsi lly
Ġgo ld
Ġsix th
Ġco l
Ġke en
et y
ro und
ill ing
10 50
10 66
11 19
16 44
16 43
16 39
Ġpl ot
Ġeas iest
Ġman ner
Ġbe yond
Ġev aded
Ġdes p
ĠSt reaky
Ġdef eat
Ġsc ram
ĠSh ows
ap rakash
Ġan ger
Ġhe ar
Ġhe ll
ang les
Ġse ven
Ġlo c
Ġmis ti
Ġro aring
eh ind
os p
Ġsp ecified
Ġsp lic
Ġha ven
Ġchan ts
ood win
Ġ24 9
Ġ33 5
Ġ33 600
Ġ27 6
Ġ28 3
ĠBr own
Ġv ict
Ġpo kes
ĠAl as
ĠJay ant
ĠJay aprakash
Ġpoint ing
Ġ59 803
Ġsign ature
Ġhad n
Ġ72 93
ĠRaj esh
Ġ98 10
ĠChris top
Ġ82 9
Ġcl attered
Ġ108 25
inn ed
Ġsl ug
Ġwh ite
Ġk icks
ĠAnd re
Ġ135 9
Ġ135 953
ĠNo gaj
Ġ142 63
ĠMis cues
Ġref uses
ĠNav i
Ġ152 7
ĠCle arly
amp le
Ġtr uly
ĠWh oa
Ġdeflect ing
ĠDe ad
com ed
Ġval iant
Ġcon ced
ĠTh ings
erat ely
Ġgl ide
Ġgl ides
leas ing
Ġbr other
Ġair ly
Ġaw ry
Ġpro ve
Ġcor re
Gur japneet
Ġfe eding
Ash ok
Ġdra ws
Ġgre ets
Ġgre atest
ĠPratap kumar
Ar jun
Ġcollect ed
ĠBa xter
Ġche ap
Ġbri ef
sp eed
Ġel iminator
Ġcelebr ates
Ġcelebr ating
ĠSp lit
hit ting
Ġyoun ger
ĠUn believable
Ġchee kily
Ġsne aked
Ġrep lic
Ġrep eat
Ġgen ius
Ġam id
alle l
Ġstride s
Ġgift ing
Ġintent ional
cut s
Ġfle eting
Ġbre ath
Ġcomm its
Ġpoun ds
Ġcare er
Ġte chn
Ġmisj udgement
Ġappla uds
Ġconv iction
ĠUltra edge
Ġfact or
Ġspect ators
Ġwel comed
Ġlin ed
Ġcamp ai
Ġpar allel
Ġconver ging
Ġmean ing
Ġop ts
Ġdebut ant
Ġ598 04
Ġ1426 26
Ġelu ded
Ġbus y
Ġmar ks
ĠCr ashes
Ġdart ing
Ġja bs
Ġmin utes
rat ul
ĠAbsolut e
ĠDri fts
Ġdisg ust
Ġdisg uised
Ġtroub led
Ġgon na
Ġelegant ly
ĠWicket s
Ġjugg les
ĠSk id
Ġcas ually
Ġthwa cks
Ġstrate gic
Ġtow ers
Ġscream s
Ġexperi ence
Ġfam ili
Ġ1473 44
Ġben ef
ĠKan e
Ġcrisp ly
Ġbam booz
Ġlun ges
Ġadm ire
Ġswall owed
Ġacknowled ges
ĠGA V
Ġoverturn ed
Ġpiv ots
Ġanticip ates
Ġskew ed
Ġspe eds
ex istent
Ġcat cha
rage ous
Ġpreemp ted
Ġsy n
Ġsme ars
Ġble eding
amm oth
Ġeviden ce
ĠCho pped
ĠInst ead
Ġgenerat ed
Ġentertain ing
Ġvers ion
ĠNO T
Ġfuri ous
Ġbes ide
ĠMatt hew
ĠCertain ly
Ġscratch y
Ġaccur ate
Ġsubst itute
Mis bah
Ġfif ties
demp tion
ĠRath ore
Ġcong ratul
chang ing
Ġvict ory
ĠChristop her
ĠNogaj ski
Ġconced ing
Ġfamili ar
Ġcatcha ble
3 04
9 94
A uqib
F A
N air
U U
V ishnu
b les
b erately
c atch
c ti
c up
c ame
e cc
h o
i w
m er
o ing
p et
r od
r ation
s l
s ap
t zes
u ed
u ise
Ġ haw
Ġ iffy
Ġ ima
Ġt umm
Ġt ast
Ġt een
Ġt alk
Ġt angle
ĠS omething
er k
er v
he less
in ary
an um
Ġs ine
Ġs ham
Ġs wag
Ġs hav
Ġs ucker
Ġs aves
ar ound
ar dene
Ġf log
Ġf alse
Ġf layed
Ġb an
Ġb ers
Ġb ump
Ġb ol
Ġb lun
Ġb risk
ke n
Ġw hil
Ġw ounds
ĠR es
ĠR uturaj
un ch
ĠK G
ĠK rip
ĠP rav
en der
Ġc ard
it on
ĠT ra
Ġa la
Ġa back
Ġover bal
Ġover runs
ed ging
Ġm ee
Ġm ini
Ġp h
Ġp hot
Ġp enal
Ġfor cing
ĠD ou
ĠD arted
ĠD ua
ĠC he
ĠC ra
ĠC ross
ĠC ouple
ĠC DG
ĠB and
ĠB ound
ĠB az
ĠJ ason
ĠJ uicy
Ġg un
Ġg ully
Ġg aining
Ġd uly
Ġd ashes
Ġd umps
Ġd anced
ĠF ound
ĠF ive
ĠF iz
ĠF ry
ĠF lies
Ġwas ting
um n
Ġin d
Ġin t
Ġin san
Ġth ud
Ġth uds
ĠH o
ĠH ill
ch or
Ġe p
ĠG ame
Ġn ine
ĠN on
Ġta ct
ir es
ĠW ij
ĠY et
Ġfr ench
Ġl ay
Ġl ining
Ġl aces
ĠL ots
ti f
ti ly
Ġthr ottle
Ġscore s
il ty
con ds
Ġdeli ber
Ġdeli berately
et heless
ro cious
Ġh ole
Ġh ouse
Ġwor st
Ġwor ried
10 53
11 20
13 69
Ġre bound
qu i
Ġpl acing
ks e
18 15
18 16
Ġinn ov
Ġteam mate
Ġeas ed
Ġbe coming
Ġbe came
ick y
Ġstraight ens
Ġgu ilty
ĠSt ayed
bo y
ĠE C
ĠE m
ĠE very
Ġcross es
ĠSh ot
Ġdefen ding
side d
ag er
ĠKar im
Ġan ti
Ġan chor
hak ing
ĠMoham ad
ĠO wen
Ġse conds
Ġro lling
Ġpad dled
ak er
Ġcram p
Ġdu cks
GH S
os ure
Ġsp ear
Ġsp illed
Ġsp rayed
ib be
ew ardene
Ġchan ges
Ġshort en
ĠPr etty
ĠZ ak
Ġ33 603
ĠAn il
Ġ34 0
orm s
Ġper isc
Ġ39 219
Ġdis aster
aul t
Ġturn around
ĠFl icks
Ġpast ing
Ġso ars
Ġj ogs
Ġun c
Ġcomp osure
Ġcl as
Ġcl ou
iz ing
ust s
Ġwh atever
Ġk illed
ĠNe eds
ĠMan ages
me gs
Ġwho a
Ġcrow ded
Ġcrow ds
ĠWhat ta
all s
Ġsw ish
Ġsw itched
Ġsw iped
Ġfl u
Ġtr ot
Ġtr ue
Ġbel ter
Ġag ree
ĠEx pensive
Ġen er
ter day
Ġli ving
Ġcon cent
ĠTh ick
Ġoverc ook
Ġus ually
Ġbr ushed
Ġclo uted
out h
ph s
Ġnic ety
ĠBar sap
di qui
Ġdirect s
Ġdirect ed
oth ers
ĠSid diqui
Ġcar pet
ĠQu inton
Ġthick ish
Ġimp art
Ġimp rovis
Ġimp ecc
Ġwrist ed
Ġflick ing
ĠHendri kse
DL S
Ġrem ove
ĠCar rom
ĠCar ibbe
Ġpa cks
Ġexp osed
Ġho ists
read ful
Ġconf usion
ĠPra yas
Ġrema ins
Ġhelp less
Ġhur ting
Ġreal izes
Ġmess ed
Ġchee k
Ġsoft ly
RJ W
Ġele ments
Ġab ility
Ġsha ped
Ġam ends
Ġhammer ing
Ġstrugg led
Ġland mark
Ġadv ent
Ġadv ance
Ġ419 12
Ġ419 15
Ġla cked
Ġdesper ation
Ġwood work
Ġ1216 50
Ġ1216 53
Ġbo ards
ĠTurn s
Ġ1304 05
Ġ1304 09
Ġ1304 08
Ġstick er
Ġsucc umbs
Ġspect ac
Ġyes terday
Ġtw ir
Ġgener ous
Ġtrav elled
ĠKn elt
Ġrespon ded
ĠWal ked
Ġsaf est
Ġ1254 09
Ġ1254 08
Ġmow ed
Ġrub s
Ġ598 00
Ġ598 05
Ġclim b
Ġ1426 29
Ġmurder ous
dd dd
Ġseri ously
Ġcommit ting
Ġwhis ker
Ġbiff ed
Ġburst s
Ġ1529 29
Ġpremedit ates
Ġtemp ted
Ġdisg uise
Ġpain ful
Ġlit erally
Ġkis sed
Ġairrr r
Ġmotion less
Ġexperi enced
driv en
Ġass um
Ġ1473 50
Ġbegin ning
Ġclai ms
ĠKan pur
Ġswall ows
Ġwhist le
Ġacknowled ge
ĠDes pite
Ġcomb ination
Ġstrength s
Ġratt led
Ġcoll ap
Ġ392 18
Ġ392 20
Ġanticip ate
Ġhero ics
Ġplon ks
Ġsal t
Ġshell s
Ġboo st
Ġsucce eds
ĠTre ks
ĠChan ge
Ġhun t
ĠPremedit ates
Ġsup reme
Ġpan ic
Ġdest ro
Ġpluck ing
ĠSte ven
ĠConne cts
Ġconsider ing
Ġinnoc uous
Ġunf ur
Ġsupport ers
Ġfal len
Ġavo id
stru cting
Sal man
ĠSke ws
Ġaer ially
ĠChee ky
Ġaband oned
ĠAdv ances
ĠRaf i
Ġdesp air
Ġmisti ming
Ġ1359 50
Ġamid st
Ġhaw k
Ġtumm y
anum a
Ġbers erk
Ġblun der
Ġwhil st
ĠKrip al
Ġpenal ty
ĠWij ewardene
Ġconcent ration
ĠBarsap ara
Ġimpecc able
ĠCaribbe an
G F
K MDN
N K
T hat
W illiam
_ _
a led
a bo
b arr
c i
c lima
d oes
f l
f low
g ger
g ical
g rees
g round
i ri
i pping
i que
j u
m are
r ing
r on
r en
r ous
s m
s idish
t le
u ing
u it
u ine
u ction
w hat
y ed
z e
Ġ #
Ġ ver
Ġ ill
Ġt umbled
Ġt ested
ĠS ma
ĠS ets
ĠS inks
or der
Ġto ps
er en
cor ding
Ġs le
Ġs ac
Ġs ums
ar ely
ar ms
Ġf o
Ġf ut
Ġf urn
Ġf oc
Ġf ists
Ġf itting
ver age
Ġb ic
Ġb ir
Ġb less
Ġw ar
Ġw ily
Ġw eren
Ġr iding
ĠR am
ĠR elie
as ses
as ions
un ches
ĠK ept
ĠK ann
ĠP uts
en se
Ġc ri
it ure
Ġa ge
Ġover head
ri d
Ġm ammoth
Ġm outh
Ġp ed
Ġp ile
Ġp has
Ġp iles
Ġp ortion
Ġp inned
ĠD M
ĠD V
ĠB ends
ĠB oom
Ġba it
ĠJ inks
Ġg as
Ġg amb
Ġg rand
Ġg iant
Ġg allops
Ġd ram
Ġd ie
Ġd omin
Ġd readed
ĠF ails
Ġst eam
Ġst raying
ĠI rfan
Ġin c
Ġin swinging
ĠH or
Ġ3 12
Ġn icks
Ġn ips
ĠN ag
li m
li p
ard ing
ir ely
ĠW or
ĠW ast
ĠY arra
Ġout f
Ġfr e
Ġno pe
Ġ11 753
ul ts
Ġfiel ds
Ġl as
Ġl ang
ĠL ast
ĠL ets
ĠL atches
ĠL ond
Ġback tracking
Ġthr ashed
Ġgo sh
Ġthrough out
our s
Ġcom pre
et it
et ches
Ġh oodwin
nn nn
Ġwor th
10 56
10 54
11 22
11 24
11 23
13 4
14 5
Ġre verses
Ġpl ans
th day
own ess
18 12
led ge
Ġbe come
Ġdes erve
Ġocc asions
ĠSt rays
Ġdef ends
bo ok
ris tily
Ġan sw
Ġup on
Ġup to
ab bar
umm oxed
Ġall y
ff et
ang ler
lo s
lo ys
ĠMS S
ĠMa ke
ĠSa fe
Ġmis time
ĠPoll y
att y
Ġany more
llis ion
Ġbu ffet
Ġbuil t
ĠRana wat
Ġex tent
Ġex tended
Ġex ults
Ġha bit
ĠTi med
Ġ28 7
Ġ32 0
Ġdis tra
Ġdis lod
ĠAl ways
Ġj udge
Ġhead ing
Ġun ne
Ġcl in
Ġcl ut
Ġcomplet ing
Ġsl ugg
Ġsl owness
Ġk icked
Ġk abo
Ġ117 839
ett ing
ĠMan n
leg ged
ĠBang s
Ġsm ites
ĠCut s
len ged
Ġ152 76
Ġfl ashed
Ġfl ummoxed
Ġtr udges
Ġway ward
Ġferoc ious
ĠEn ded
ĠDav ey
Ġgot ta
ter ing
Ġcon cer
ĠTh ink
Ġtri angles
Ġtri gger
Ġsome times
Ġbr others
Ġsk ates
irect ed
Ġaw are
ĠOff ers
Ġcor rects
Ġskid der
Ġdec is
Ġdec eption
Ġsla ught
Ġfin er
Ġcar ving
Ġbounc ing
Ġwrist work
kk kk
Ġtrick les
Ġfli r
Ġwe ird
ogra phs
ĠTim ing
Ġche ers
Ġslow ish
Ġdistur b
Ġbreak ing
Ġcart ed
ĠSan ju
Ġwow ww
Ġinst ance
Ġmusc ular
Ġho led
Ġseam ing
Ġconnect ing
Ġnight mare
Ġheav ing
ĠRe ads
Ġpunch y
Ġpunch ing
ĠSp o
Ġspr ing
Ġmess ing
ĠPet er
Ġbother ing
ners hip
Kar thik
mus ed
Ġacc ept
Ġacc oun
Ġsight er
Ġsight ers
ĠDr eam
Ġpac ers
Ġexpect s
be fore
Ġtarg ets
Ġcir cled
Ġdelight ful
Ġcirc um
ĠWith out
Ġide as
Ġatta cks
Ġbre athe
Ġadv ancing
Ġcomm unication
Ġfier y
Ġstret ching
Ġinter c
xt book
Ġbo ard
Ġpumm el
Ġent ic
Ġent irely
Ġdecent ly
ĠNever theless
Ġgener ously
Ġtrav el
Ġpump ing
Ġconfir med
Ġinit ial
Ġconver t
Ġmo on
Ġwonder ing
Ġfell ow
Ġplan ning
Ġexc eptional
Ġri pped
Ġ1426 28
Ġelu de
Ġbeg ging
Ġund oing
Ġ548 34
Ġ1529 28
ĠDro ps
seam er
Ġmer ry
Ġteas ingly
Ġden t
Ġden ied
Ġshout ed
Ġprod uced
Ġbull ies
Ġchal lenged
Ġanticipat ing
Ġsnaff les
ĠFour th
Ġindu ces
ĠGu ess
Ġkis s
Ġkis ses
ĠComp let
Par thiv
Ġmish its
Ġnor mally
Ġupro ots
ĠStun ned
Ġunfortun ate
Ġimpress ion
Ġsuccess ion
Ġshi fts
Ġclai m
Ġben ding
Ġinj ured
Ġratt les
Ġkid ding
ĠNeed less
Ġerup t
Ġconsum es
Ġter ms
Ġsea led
Ġflatt ish
Ġcountry man
Ġtent ative
Ġaggress ion
Ġsugges ts
Ġfiz zes
Ġca using
Ġcompla in
Ġcompla ining
Ġridic ulous
Ġridic ulously
Ġsever al
Ġtee ing
ĠDec ides
Ġfeast s
Ġaudac ious
part nership
ĠSla ps
Ġram ped
Ġpati ence
ĠWon der
Ġsteadi es
ĠRob in
ĠPla ced
Ġmaul s
Ġpercent age
Ġcompul sive
Ġwhipl ashes
Ġorig inal
Ġcol umn
osp here
Ġ335 99
Ġcorre ct
Ġcampai gn
Ġsyn c
Ġswag ger
ĠPrav een
Ġmee k
Ġphot ographs
ĠFiz z
ĠEm atty
Ġclou ds
Ġener gy
Ġspectac ular
William son
Ġsac ri
Ġfurn iture
Ġbic eps
Ġbir thday
Ġphas e
Ġlang u
ĠLond on
Ġcompre hen
Ġslugg ish
" .
9 58
B R
B airstow
B MAJ
D NT
E T
H immat
K T
K oh
K rish
K ET
L omror
M iller
N ath
P N
S an
S um
T R
a ic
a ins
b ehind
d ri
d irected
e ats
f aces
f initely
i o
j re
l omb
m ates
o on
s emi
t aking
u de
u able
w ise
y al
y nam
Ġ hal
Ġt il
Ġt umble
Ġt ees
ĠS at
ĠS emi
or ing
or al
er an
er oll
er ving
cor re
cor ner
Ġo pt
Ġo dd
he m
in x
in till
Ġs uff
Ġs erved
Ġs haking
Ġs ledge
at ura
at ively
le nd
Ġb ud
Ġb eam
Ġb ite
Ġb read
Ġb ook
Ġw inds
Ġw allop
Ġw atched
Ġw ristily
Ġr attle
Ġr arely
ĠM ind
ĠR yan
on ent
as es
as ith
as ive
un ges
ĠK im
ĠK hak
ĠP e
ĠP in
ĠP ut
ĠA ppe
ĠA lex
en e
it ness
ĠT hank
Ġa id
Ġa hh
es ts
Ġon sla
Ġm one
Ġm em
Ġm aj
Ġp le
Ġp oses
Ġp leasing
ĠD iam
ĠC arries
ĠB el
ĠB al
ĠB uff
ĠB oon
Ġba g
Ġba gs
ra p
ĠJ as
Ġg allop
Ġd ash
Ġd ynam
Ġde ceives
Ġst are
Ġst ares
ic id
Ġit self
nd s
ow d
Ġ4 17
Ġin ward
Ġin ternational
har f
Ġth under
ide nds
ĠH ence
ĠH int
al o
ch ine
ch ers
Ġ3 16
ĠG on
ĠG ent
ĠG ol
ĠG ave
ĠG abbar
Ġn icked
Ġn erve
Ġn ature
Ġn erv
Ġn atura
ĠN ah
ĠN ormal
ot a
ĠV idar
Ġ7 339
ĠW IC
ĠW harf
Ġmid way
Ġl aced
ĠL ank
ĠL ED
ĠL iton
ti fied
Ġback tra
Ġback ground
il ver
ce ed
ell ow
con t
ĠU ppish
ro lling
Ġh um
Ġh ooks
10 2
10 7
10 57
11 25
Ġsh oot
13 9
14 4
Ġdriv ing
Ġre ward
Ġre ceiv
16 3
Ġpl anted
Ġpl unges
00 0
00 5
Ġman aging
iv ing
iv ed
Ġbe ar
ick ing
Ġstraight ish
Ġar ched
Ġev asive
Ġgu iding
la ce
ĠE ast
ĠE sp
Ġbut chers
Ġcan ters
ol ted
Ġsc intill
Ġgood ish
ĠSm o
ĠSm ashes
Ġhe at
win d
oni fied
lo ss
ĠMa king
Ġad ding
Ġmis cu
att ack
Ġtim ely
ast rous
Ġcann y
bha i
Ġblo b
os ing
os ite
Ġex ample
Ġsp raw
Ġsp illing
Ġha y
Ġha unches
ĠVi j
lay ing
Ġ26 7
Ġ26 8
Ġ26 9
Ġ33 59
Ġ33 598
Ġgro unds
Ġ27 0
Ġ27 2
Ġ28 6
gi es
Ġv ic
Ġpo king
oo oo
oo king
ade kar
Ġdiv idends
Ġso ak
Ġso aks
Ġj us
Ġj olted
ĠMus c
ĠEd ward
Ġun gain
Ġcomp etit
Ġ125 411
Ġk inda
ĠNat han
ĠNe at
Ġunder stand
Ġti ps
Ġthere by
ĠMan jre
Ġkn ots
ĠLe aps
Ġ142 62
Ġdri fter
ĠMis times
ici ously
Ġ152 92
ĠCle ans
Ġresul ted
Ġac cording
Ġtr ous
Ġag ony
ĠEx c
ĠDe ft
Ġen ab
Ġen ding
Ġavail able
Ġli mp
Ġne ck
Ġtri ms
Ġsome what
.. ..
Ġdo om
Ġstr ang
ĠJam aic
Ġsk ills
Ġten nis
lis tering
Ġsli pper
hen om
Ġmoment s
Ġwk t
ĠSw ing
Ġwal tzes
Ġfe ar
Ġslot s
co ops
JP R
Ġoverst epped
An ukul
ĠSl anted
Ġcar ts
Ġflight ing
Ġbl ue
ber ley
Ġslight est
Ġtrick y
Ġcollect ing
Ġfast er
mis sive
Ġsma cking
ĠTim es
Ġopp osite
ĠCar los
Ġappe ared
Ġmusc ling
Ġed ition
Ġel ated
Ġheav ens
ĠBrilliant ly
Ġflo at
ĠRe al
ĠFir es
Ġz ing
Ġz ip
Ġhop ed
Ġrema in
Ġrema ined
Ġother wise
Ġswo op
Ġreal ised
ĠPhili p
Ġcontrol s
Ġsprint er
Ġrep rie
Ġbang ing
Ġswip ing
Ġlaun ching
ĠSc ott
Ġgen erally
Ġgen uine
Ġspo iled
Ġkne eroll
Ġsimple st
Ġsqueez ing
Ġtarget ing
Ġstrugg les
Ġerr ing
Ġsub tle
Ġintent ion
Ġmet er
Ġtre k
cess ary
track ers
Ġdab bing
Ġ419 11
Ġexecut es
Ġla id
Ġ1216 54
Ġfraction ally
Ġbo bble
ĠTot ally
Ġte xtbook
Ġpumm elled
Ġdead ly
Ġmisj udges
Ġstrong ly
Ġtell ing
Ġ1304 06
Ġap olog
Ġap lomb
Ġinv ite
Ġ1254 06
Ġsen ior
Ġmow ing
Ġmarg ins
Ġprec ise
Ġfavour ed
Ġwild ly
Ġguess ed
Ġdig ging
Ġ598 06
Ġri ver
Ġreck ons
boun ced
ĠRis ky
Ġswir ls
Ġscor ers
Ġscor ching
Ġcent imet
ĠCr owd
eeee eeee
Ġthreaten ed
Ġpers onified
Ġmanufact ures
Ġprom oted
Ġfla un
Ġfla gs
Ġequ ally
seam ed
Ġpier ced
Ġshout s
Ġprod ding
Ġbull s
Ġbull doz
Ġbullet s
Ġwhe els
ĠAng les
Ġsquir ted
Ġjugg le
Ġjugg led
Ġkick ing
Ġvariation s
ĠLoop ed
Ġupro ot
ĠDis missive
Ġscream er
cl ass
Ġfam ous
Ġrel ied
Ġsuccess ful
Ġtrust s
Ġsear ch
Ġ1136 56
Ġ1136 57
Ġexplo des
ĠDes erved
Ġnut megs
Ġcomb usts
Ġser ies
Ġser ene
ĠPl umb
Ġbroom s
Ġflatt est
Ġsucce ed
Ġexpress ion
Ġsugges ted
ĠPremedit ated
Ġobvious ly
ĠHel ped
Ġspank ing
Ġpunish ment
Ġblind ly
ĠSki ps
ĠSki pper
ĠDan iel
Ġtrip e
ĠSqu eez
Ġfox es
Ġrib s
Ġchamp ion
Ġmag ic
Ġdel icious
Ġdevi ation
Ġiss ues
Ġspoon ing
Ġfortun e
Ġviolent ly
Ġrapid ly
Ġment al
ĠBoun cer
Ġskim s
Ġmeas ures
ĠAttemp ted
Ġdeter min
Ġnest les
Ġcheap ly
Ġbreath ing
Ġbenef it
iw adekar
Ġima gine
Ġteen ager
ĠBand iwadekar
ĠBound ary
Ġinsan e
Ġimprovis ation
Ġcollap se
clima x
Ġtops pin
Ġfut ile
ĠKann an
Ġgamb le
Ġdram atic
ĠNag pur
Ġunne cessary
Ġconcer ned
Koh li
Nath u
San vir
Sum it
ĠKim berley
ĠKhak har
Ġonsla ught
Ġmone y
ĠDiam ond
ĠBuff alo
icid al
ĠGent le
ĠVidar bha
Ġreceiv ing
ĠEsp ecially
Ġscintill ating
Ġmiscu ing
Ġungain ly
ĠManjre kar
) ',
? !
B utt
E E
G agandeep
K umar
L PC
N L
R inku
S a
V E
V ER
b or
b ow
b ir
b ling
b ye
c ul
c ue
d ip
e v
e in
e al
e med
e led
f ree
f ashi
f usion
g le
g en
g ree
g ically
h old
i od
m m
m ic
m id
n ot
p ose
s coop
s coops
t it
t eam
t ick
u an
u ke
u cked
u ously
v ely
w less
y ard
Ġ =
Ġ ir
Ġ view
Ġ veer
Ġ iden
Ġt we
Ġt racked
Ġt reads
Ġo w
Ġo oh
Ġo per
in ity
an ch
Ġs ong
Ġs urr
Ġf id
Ġf lights
Ġf unny
Ġf umbled
Ġf elt
at osphere
le ashes
Ġb arg
Ġw iel
Ġw ears
Ġw itness
Ġr ain
Ġr ides
Ġr hy
ĠM agnificent
ĠR ank
ĠR ushed
ĠR olled
ĠR icky
un ded
ĠK ne
ĠP iv
ĠA re
ĠA mazing
en ding
Ġc er
Ġc ha
Ġc ou
Ġc al
Ġc hir
it ing
it ative
ĠT ri
ĠT ou
ĠT ells
Ġa ch
Ġa ided
Ġa mused
Ġover drive
es ome
Ġm il
Ġm ill
Ġm illi
Ġm ock
Ġp ris
Ġp ict
Ġp hew
Ġp iling
Ġp asses
ĠD riv
ĠD arts
ĠD olly
ĠD ives
ĠC ont
ĠC hipped
ĠC utter
ĠC amps
ĠC hips
ĠB ra
ĠB ett
ĠB asith
is m
is ting
ra c
Ġg im
Ġg ained
Ġd r
Ġd in
Ġd im
Ġd inks
Ġd readful
ou ses
Ġde als
ĠF e
ĠF oll
ĠF alls
Ġst orm
Ġst ages
um er
gh u
ic ulous
Ġsingle s
Ġ4 33
Ġin sp
Ġin cred
Ġin cl
Ġin ev
Ġle d
Ġle verage
Ġth ri
ĠH IT
ĠH andy
Ġe ight
Ġe go
ĠG et
ĠG ONE
Ġn et
Ġn uts
ĠThe ir
ep ted
ep hen
ĠN ad
ĠN one
ĠN ails
ĠN ailed
ĠN umber
ĠN ipped
Ġta p
Ġta ile
ot ted
us ive
ent ially
ir t
ir udh
der n
ĠRa ining
ĠW hile
ĠY up
ck le
Ġout ing
Ġout standing
Ġfr anch
Ġl ic
Ġl ist
ĠPat rick
ĠL ost
ĠL anded
ĠL ockie
ĠL oud
Ġsi zz
sh ot
sh ort
ell ar
Ġco ffin
Ġcover ing
et eran
ĠU s
ro p
Ġh ot
Ġh iding
10 8
10 67
10 58
10 64
10 59
11 88
Ġsh atters
Ġsh ocked
13 0
13 64
14 0
14 3
14 64
Ġre mark
ande m
Ġpl under
per fect
18 8
iv el
19 8
Ġqu icks
Ġevent ful
Ġevent ual
Ġquick ish
ĠSt ri
ĠSt ephen
Ġdef in
ĠE rr
Ġbut cher
im al
im ated
ĠSh ubham
Ġdefen ces
rav ag
rav ity
ĠSam uel
ab bed
Ġhe y
Ġhe ap
Ġhe aded
raj i
ĠO f
ang s
ĠSmith y
Ġgap ing
Ġse als
Ġlo b
Ġro yal
ĠKul want
ĠBrav e
we ight
ast ed
ĠSto od
Ġleft y
Ġcontin uing
Ġpress ing
Ġblo cks
Ġbu y
Ġtu cking
ĠCh ops
Ġsp raying
Ġsp lend
vi on
Ġha ul
Ġas k
ĠPr as
Ġ27 3
Ġ27 7
Ġ28 1
Ġv eteran
ĠAn ukul
Ġ36 6
off s
ĠAl though
Ġpull er
Ġres cue
Ġso ared
Ġun able
Ġun iverse
Ġcomp ens
Ġcomp ared
Ġcl inch
Ġcl icks
ĠPun ches
ĠBe fore
Ġ113 658
Ġsa ke
Ġ130 411
Ġcr umbling
Ġcr uel
Ġch op
Ġch oking
ĠRid iculous
ĠSur gical
Ġy up
Ġy ellow
ĠCle ar
ĠCle ared
ffici ent
Ġsw ord
Ġfl am
Ġfl uff
Ġmi rac
22 50
22 46
sw ings
ĠWh atever
run ning
Ġposition s
Ġposition ed
emp ted
lin es
ĠBis ected
ĠDe finitely
com m
Ġinf orms
Ġli ve
Ġcon cl
Ġswe at
Ġne g
Ġtri fle
ĠRichar d
Ġlow ers
Ġwill ing
Ġfoot ed
ĠBow l
Ġstr ange
Ġstr atosphere
ift ed
Ġsk ill
Ġclo sing
Ġclean ed
Ġclean est
Ġpro ves
Ġpro ceed
Ġcor ker
Ġpun ishing
Ġfe ed
Ġcall ing
Ġwhi zz
Ġneed less
Ġreview ing
An irudh
ĠSl ows
ĠSl iding
Ġpri zed
Ġmovement s
ĠFle w
ĠOut side
ĠOut standing
ĠOut rageous
ĠNath u
Ġknock ing
ĠCar ved
Ġdismis sive
Ġdep arted
Ġhapp ily
ĠCom fort
si x
Ġappe als
Ġham str
Ġho icked
read er
Ġed gy
Ġdeliver ing
ĠRe demption
Ġz ips
Ġday light
Ġleap ed
ĠSp otted
ĠUn leashes
ĠOr ange
Ġsne aking
Ġrep lace
Ġcricket ing
ĠIs n
Ġpac es
Ġhor r
Yash pal
Ġyour self
Ġfetch ing
alle st
Ġgrab bing
Ġresp ons
Ġmet res
Ġloop ier
Ġsky wards
Ġbre ather
Ġexecut ing
Ġsurpris ingly
Ġlight ing
Ġ1216 4
Ġbo ardings
ĠDar ren
Ġext ravag
Ġbludge on
Ġfair ly
Ġob structing
Ġcur ling
Ġunle ashing
medit ated
Ġpal med
Ġgra zes
ĠKn ows
ĠKn ocks
Ġfaint est
Ġcho oses
Ġemp loy
Ġemp loys
Ġsen sed
Ġop ted
Ġop ting
Ġmo dern
Ġdeal t
Ġwonder s
Ġwonder fully
Ġrub bing
Ġexc ept
Ġdisappe aring
Ra ghu
rit ory
Ġ1426 27
Ġprov iding
Ġobli vion
ĠKe vin
Ġmar ch
Ġpocket ed
Ġswir l
Ġsens ible
Ġfinis hed
ĠCr ouches
Ġerror s
Ġpers isted
Ġmanufact ured
Ġposs ibly
Ġdisp arag
Ġ548 33
Ġ1529 26
Ġ1529 27
hh h
Ġja ff
ĠAd am
Ġmin imal
Ġlap se
Ġmer ely
Ġteas es
Ġteas ed
Ġem otion
ĠLo fted
Ġprod ded
Ġbull ied
Ġthank fully
Ġsnaff led
Ġthump ing
ĠSee ms
Ġboss ing
ĠPower fully
Ġforeh ands
Ġquiet ly
Ġsteal ing
Ġuns ure
Ġexperi ment
Ġass oci
ĠClever ly
ĠSlow ish
Ġsug gest
ĠImp ort
Ġcrou ch
Ġdelic ately
Ġlun ged
Ġ1136 59
Ġinvit ingly
Ġwhist ling
Ġoption s
ĠSweet ly
Ġpiv ot
Ġconsum ed
ĠRocket s
Ġagricultura lly
go ing
Ġter ritory
Ġsin king
Ġwo e
ĠMish raji
Ġgras ses
aa a
yy yy
Ġpur pose
Ġ734 04
Ġfiz z
Ġhug eeeeeeee
Ġsteep ler
Ġsteep ling
Ġamong st
Ġbra in
Ġcla ps
Ġpat rolling
Ġcounter attack
ĠTr ent
Ġnur dle
Ġshock er
Ġstraighten ing
Ġchamp ions
Ġstab s
olog y
Ġiss ue
Ġjam med
Ġmarmal izes
Ġlur king
Ġlur ingly
Ġfil thy
Ġloc al
Ġsplic ed
Ġslug s
ĠSplit s
Ġreplic a
Ġsine ws
Ġshav ed
Ġcard inal
Ġph ys
ĠChe t
Ġthud ded
ĠNon etheless
Ġtact ics
tif ies
Ġinnov ative
Ġperisc ope
Ġclas ps
Ġcheek iness
Ġunfur ls
barr ass
flow ing
Ġsle ep
Ġfitting ly
Ġbless ing
ĠRelie f
Ġcri m
ĠWor ld
Ġlas ers
Ġansw er
Ġdislod ges
Ġdecis ions
Ġslaught ers
ĠComplet ely
ĠWonder ful
Ġmeek ly
Ġlangu id
Ġcomprehen sive
ĠAppe al
ĠGol den
ĠWIC KET
Ġvic inity
ĠExc eptional
ĠJamaic an
henom enal
ĠSwing ing
Ġdetermin ed
Butt ler
Sa ha
bor ne
fashi oned
tit ude
ĠKne els
Ġchir ps
ĠTou ch
Ġach ie
ĠCont in
ĠBett er
Ġgim me
Ġincred ibly
Ġinev it
Ġtaile nder
Ġfranch ise
Ġquicks ilver
Ġsplend id
Ġconcl usive
Ġhamstr ing
! '
4 10
8 43
C atch
F F
F I
G S
H E
H anuma
I F
J W
L B
L ivingstone
N o
P M
R is
R uss
S Z
S au
T P
T ripathi
V ivrant
a jan
b ers
b ail
c st
c ushi
d o
d ict
f ont
g g
g one
g ging
g eeee
h ands
h ook
i ge
i ence
j am
k icked
p led
p ted
p itch
p unch
r ase
r enal
s a
s cor
s ational
t han
t les
u ins
u art
w ire
y le
y el
Ġ ul
Ġ ess
Ġ !!
Ġt est
Ġt erri
Ġt allest
ĠS et
ĠS ett
ĠS ince
ĠS ave
ĠS held
ĠS aved
ĠS itting
or ds
or thodox
Ġto urney
er y
er ingly
cor t
Ġo un
Ġo th
in ding
in ker
in aman
ĠScore s
an e
an other
Ġs un
Ġs us
Ġs ir
Ġs hed
Ġs itters
ar re
ar red
Ġf an
Ġf ed
Ġf um
Ġf ul
Ġf end
Ġf ool
Ġf ault
at form
le st
le ct
le cts
Ġb lit
Ġb udge
Ġb oys
Ġb arrier
Ġb lip
Ġb listering
de st
de grees
Ġw hir
Ġw ave
Ġw ise
Ġw rap
Ġr ips
ĠM itch
ĠR el
ĠR od
ĠR ound
ĠR are
ĠR eds
ĠR uins
on ks
ĠK ent
ĠK yle
ĠP ops
ĠA ya
en ces
Ġc ash
Ġc ran
Ġc andy
it ary
it ially
ĠT od
ĠT ry
ĠT rick
ĠT old
Ġover does
es tim
Ġon us
ri ble
ri but
Ġm ic
Ġm ad
Ġm ot
Ġm athe
Ġm ora
Ġm other
Ġm attered
Ġm aker
Ġm oral
Ġp atch
Ġp ath
Ġp ins
ĠD uck
ĠD abbed
ĠC li
ĠC all
ĠC run
ĠB la
ĠB lo
ĠB ullet
ĠB Mac
ut ing
Ġba iled
ĠJ osh
Ġg ains
Ġd ross
Ġd up
Ġd ashed
Ġde m
Ġde v
Ġde ny
Ġde laying
ĠF iel
ĠF ortun
ĠF ailed
ĠF etches
Ġst at
Ġst re
Ġst ock
Ġst able
Ġst int
Ġst ars
um ent
ow ing
Ġ4 50
ad y
Ġin wards
Ġle aks
Ġle aked
ĠH aving
ĠH amm
ĠH anuma
al ing
ch ase
ch ance
ch ases
Ġe yel
han t
Ġ3 18
ĠG en
ĠG ive
Ġn ib
Ġn ig
Ġn ipping
Ġn umer
ĠN or
Ġta ils
Ġta ckle
ĠV ik
ent h
icke st
li f
Ġleg al
ir ation
ĠW C
Ġ10 00
ck y
Ġout rageous
Ġout sm
ma de
ma chine
Ġno se
Ġl ures
Ġoff ice
Ġ13 12
ĠL ot
ĠL oses
ĠL ooking
ĠL uke
ĠL ifted
Ġsi l
Ġsi zes
ti p
sh ocked
Ġthr ash
Ġgo d
pp in
Ġcom ical
ell ig
od d
Ġat rocious
Ġco llision
Ġco loss
st art
st ances
ĠU p
ĠU nder
ro lled
Ġh ouses
Ġsh own
13 1
13 68
Ġre c
Ġre ver
Ġre bu
Ġre demption
ft y
per ious
ump h
th m
th at
th ought
00 7
Ġman ning
Ġside ways
Ġar t
ov man
Ġqu ickest
re al
re ci
haw an
ĠSt ro
ĠSt uart
bo l
bo om
bo ost
ĠE r
ĠE ither
ĠE vin
ol ation
Ġsc en
Ġsc rip
Ġsc ree
Ġsc aled
Ġcross ing
Ġgood bye
Ġdefen sively
ant er
ĠAsh ton
Ġan no
Ġan imated
ĠPo unds
win ning
ac les
Ġwith eringly
Ġstump ish
ĠO b
ĠO pen
ĠO ops
ĠO rd
ont y
ĠKa boom
Ġal titude
ive led
Ġad judged
ĠSa ils
Ġlo ck
Ġmis read
Ġump te
Ġdeep er
Ġpr ow
ak y
Ġpress ed
Ġsol d
Ġsol itary
Ġsp run
Ġsp its
Ġsp ark
Ġsp read
Ġsp orts
Ġsp aring
Ġsp ared
ib ility
az z
fe et
Ġas c
Ġas ks
ĠPr eemp
Ġ33 6
Ġ29 0
Ġ27 9
Ġ28 4
ĠBr uce
Ġpo pping
Ġpo ise
Ġ30 9
Ġper ched
Ġper ished
em font
Ġdis astrous
Ġafter no
Ġafter thought
ĠAl ready
ade s
Ġ43 9
Ġres urr
Ġj udgement
ĠShort er
ĠSai led
ĠHas him
ĠFinch y
Ġhead s
Ġ82 974
Ġun less
Ġhar a
ĠBish op
Ġseason s
Ġcomp li
Ġcomp osed
Ġcl ust
Ġcl atter
iz e
iz arre
Ġcle ans
ĠKrishna ppa
ĠBe en
Ġsl ants
Ġk ill
Ġk ills
Ġ123 7
ĠNe arly
ĠCl ub
Ġ118 17
ett le
Ġti p
Ġti pped
ĠHol d
je cti
ug ged
ord ination
ord inary
Ġkn uck
Ġ137 03
ĠIn ter
ĠIn itially
Ġch inaman
den ly
ĠShiv il
ĠCon fusion
Ġy ard
Ġy ells
Ġ152 767
all ing
Ġnot e
Ġsw atting
Ġsw inger
Ġsw itching
Ġsw iveled
Ġfl urry
Ġfl uffed
Ġ153 54
Ġac ti
22 39
sw ivel
uri es
ki ri
Ġfir ewor
Ġval uable
ann y
Ġcon dit
ĠTh readed
ĠTh reads
ect s
Ġgl ided
Ġtri cks
Ġtri umph
Ġus her
Ġlow est
Ġbr eez
Ġbr ushing
Ġfoot ball
ĠSen sational
Ġdo or
itt y
Ġclo ck
Ġclo cked
out s
Ġwhat ta
ost e
break er
ĠGo ing
ĠMur der
Ġaw esome
stump s
Ġclean er
28 0
Ġpro g
Ġpro p
Ġpro ps
Ġpro of
Ġpro ved
34 2
KA J
Ġslot ted
Ab hinandan
Ġwr ite
Ġthigh s
Ġfin als
Ġfin est
Ġreac ted
Ġsu cked
Ġsu icidal
Ġsu fficient
93 2
ĠAt rocious
ĠSl inga
ĠSl ashed
Ġbl ows
Ġgoog lies
60 1
Ġsur faces
Ġimp et
Ġimp arts
Ġimp arted
Ġpre y
ĠOut swinger
ear ing
ear ed
Ġevery where
mi ed
Ġwe ak
Ġcolle ague
Ġra w
Ġrem oving
Ġopp onent
Ġhapp ens
Ġbreak down
Ġcrack er
Ġbad ge
Ġwow za
sp inners
ist an
ist ic
arg et
Ġho ist
Ġho arding
Ġseam er
Ġseam ed
Ġed uc
Ġed geeee
ĠJaco b
Ġel der
Ġmind ful
Ġsmart er
ĠRe view
Ġer red
Ġz ipped
Ġz ero
Ġshow c
ĠSp rays
ĠSp ears
Ġhur led
hit ter
Ġreal ises
Ġreal ized
Ġreal izing
Ġyoun gest
ĠUn lucky
ugg led
Ġste el
Ġste ady
Ġfinish er
Ġrep eats
Ġacc epted
ĠDev dhar
Ġjo ke
Ġjo ined
ĠGle nn
ĠSud denly
ens ions
Ġes cort
Ġapp reci
Ġab ort
Ġtra cks
Ġtra cer
Ġtra dit
Ġdelight fully
Ġelev ated
Ġbla zing
Ġbla zed
Ġcirc les
PV SN
Ġmost ly
Ġdeposit ing
Ġatta cked
Ġmy ster
pris ing
arm er
Ġwha cking
Ġbal anced
Ġadv ice
ĠWow za
Ġchas ed
ĠHang s
Ġpoun cing
Ġens uring
Ġris es
Ġbo bbled
Ġte leg
Ġpumm eled
Ġaim less
Ġent er
ĠTurn ing
ĠAgain st
Ġcur ving
Ġ1304 07
Ġfa ith
Ġgener ates
Ġshe lled
Ġtrav eling
Ġhope less
ĠSome one
Ġret ained
Ġemp hat
Ġ1254 07
Ġcons olation
Ġthre at
Ġthre aded
Ġconver ge
Ġfell a
ĠSub lime
Ġdig its
Ra hane
Ġsna kes
Ġri pping
Ġmurder ed
ĠMin imum
ĠAny one
Ġprov ide
Ġsurv ived
Ġcommit ment
Ġpresent ed
Ġru in
Ġru ining
Ġru ined
Ġobli ge
Ġblin ded
ĠRis odkar
ĠBen jam
ĠFlo ats
Ġbeg ins
Ġund id
Ġsens ibly
Ġcent urion
Ġthreaten s
Ġdart er
Ġprom pted
Ġ548 36
Ġfla p
ĠDre Russ
Ġshimmy ing
Ġden ted
Ġem barrass
ĠAng ling
ĠDri fted
Ġanticipat ion
Ġlearn s
Ġsquir t
Ġtroub les
Ġcam ped
Ġcam era
Ġindu cing
Ġscal ped
Ġsmall er
Ġaff air
ĠDis pat
Ġrecover s
ĠStun ner
Ġscream ing
stret ch
Ġfam ed
Ġauthor itative
Ġmagnificent ly
Ġsquar es
Ġshi ft
Ġvo ices
Ġtrust ed
Ġsupp osed
Ġlun ging
Ġexplo de
Ġexplo its
Ġinvit es
Ġpass age
Ġfort ress
Ġcoll ided
Ġscyt hed
Ġbroom ed
Ġwo ken
ĠMe aty
Ġaud ible
Ġinde x
Ġspe cky
Ġcountry mile
Ġcustom er
Ġtent acles
Ġboo ster
Ġpur ple
Ġ734 03
Ġexpress ions
ĠUnfortun ately
Ġcrunch y
Ġaggress or
Ġaggress ively
Ġpreemp ts
Ġsup remely
Ġcla pping
ĠHel d
ĠHard ly
ĠConne cted
Ġzoom s
Ġzoom ed
Ġwee k
Ġnur dled
Ġdraw ing
Ġaudac ity
ĠSla pped
Ġmag ical
Ġscoot s
Ġ729 29
Ġ729 28
Ġsteadi ed
ĠRob ert
Ġfortun ately
Ġricoche ts
Ġmass ac
Ġmass ively
ĠFr ont
Ġ1175 36
ĠExpect s
ĠExpect ed
Ġcapital izes
ĠAttemp ts
Ġfil th
Ġbas ics
Ġrip oste
Ġ733 98
Ġ733 99
Ġscram bled
Ġ1527 68
Ġtechn ique
Ġtechn ology
ĠSkid dy
Ġbambooz le
Ġcongratul ate
ho ick
Ġtast e
Ġtast y
Ġsham e
Ġflog s
Ġban ks
ĠRes pite
ĠRes ult
ĠTra demark
ĠDou ble
ĠCra zy
Ġgun s
Ġlay ing
Ġdeliber ate
Ġadvent ure
Ġadvent ures
Ġtwir ls
Ġassum ed
Ġver dict
ĠSma ll
Ġfoc us
Ġped al
ĠBoom ing
Ġinc re
ĠHor rible
Ġoutf oxed
Ġclut ches
Ġcircum stances
Ġinterc epts
Ġsacri fic
Ġhal t
Ġtil t
Ġwallop ed
Ġmaj or
Ġdynam ite
Ġnatura l
ĠLank an
cont rolled
Ġbear ings
ĠSmo ked
Ġhay wire
oooo om
ĠMusc les
Ġcompetit ive
Ġstrang led
Ġreprie ve
Ġcentimet ers
Ġbulls eye
Ġview ing
Ġiden tifies
Ġow ner
Ġoper ator
Ġsurr ender
Ġrhy thm
ĠPiv ots
Ġmill imet
Ġmilli on
Ġmock ery
Ġpict ure
ĠDriv en
Ġdim ensions
ĠFoll ows
Ġlic ense
Ġremark able
ĠErr s
ĠPras hant
comm unication
Ġproceed ings
ĠComfort ably
Ġhorr endous
Ġjaff a
ĠImport ant
Ġphys io
Ġcrim inal
FI VE
Ris hi
Sau rav
cushi ons
renal ine
ĠSheld on
Ġoun ce
Ġoth ers
Ġfum ing
Ġful lest
ĠAya ppa
ĠTod ay
Ġmathe mat
Ġmora le
ĠBlo emfont
Ġeyel ine
Ġnig gle
Ġcoloss al
Ġanno un
ĠOrd inary
Ġumpte enth
Ġsprun g
Ġafterno on
Ġclust ers
Ġknuck les
Ġfirewor ks
Ġcondit ions
Ġeduc ated
Ġtradit ional
Ġmyster y
ĠBenjam in
ĠBloemfont ein
2 13
2 20
3 07
4 16
6 88
7 74
A HH
D I
D V
D hawan
G R
G ul
G oswami
I t
J B
K edar
L G
M O
M an
M itchell
M ashrafe
N A
N B
P WA
R ay
S m
T D
T T
U thappa
V H
V ir
W W
Y ou
[ /
a x
a cked
a fter
b ra
b re
b ang
b atting
b ert
b yes
c he
c us
c ard
c age
c tive
d ur
d ab
d ley
d raw
d iving
d rop
e as
e ded
e way
e ated
f ull
f ade
f aced
f ice
f rom
g in
g na
g ood
h or
h on
h ers
h its
i man
i ans
i kes
i fe
k n
k hon
l wind
m or
m med
m ph
m oved
m dip
n s
n t
n ak
p l
p o
p es
p ers
p ress
r ot
r et
s im
s ely
s ized
s top
t r
t w
t in
t able
t ter
t ising
t arget
u ded
u wan
w ing
w ed
w dy
w hip
w hips
x y
y m
y our
z ag
Ġ >
Ġ i
Ġ ur
Ġ umm
Ġ ast
Ġ uff
Ġ ign
Ġt icket
Ġt end
Ġt andem
Ġt earing
ĠS n
ĠS hi
ĠS iv
ĠS ped
ĠS orry
or med
Ġto ug
Ġto wn
er ts
er ted
he ave
he lic
in ta
ĠScore d
an sive
Ġs an
Ġs on
Ġs ump
Ġs ank
Ġs ways
Ġs aving
Ġs ample
ar ently
Ġf od
Ġf ix
at han
ver al
ver tising
Ġb un
Ġb ully
Ġb urn
Ġb umps
Ġb right
Ġb arra
Ġb unch
de li
de ck
ing o
ke y
Ġw il
Ġw aves
Ġw isely
Ġr ide
Ġr av
Ġr ail
Ġr ely
Ġr ich
Ġr if
Ġr uth
Ġr ushing
ĠM ud
ĠM ood
ĠR om
ĠR og
ĠR ip
ĠR if
ĠR ides
on u
as ed
ĠK ay
ĠK ous
ĠK ook
ĠK iller
ĠP ick
ĠP umm
ĠP ace
ĠP ier
ĠP awar
ĠP ushes
ĠA j
en ing
en ght
en cy
Ġc ell
Ġc hil
it ies
ĠT O
ĠT am
ĠT ill
ĠT ucked
Ġa ah
Ġa uction
Ġover d
Ġover ran
Ġover corre
ha i
ha cked
ha ppy
es ting
ri er
ri an
ri son
ed ic
ed ict
Ġm ul
Ġm ort
Ġm edi
Ġm oun
Ġm onty
Ġm edic
Ġp ot
Ġp ol
Ġp aced
Ġp erson
Ġp atted
ĠD am
ĠD iff
ĠD anger
ĠD ishes
ĠD readful
ĠD anny
ĠC atch
ĠC our
ĠC rack
ĠC elebr
ĠC arnage
ĠC risp
ĠC alls
ĠB on
ĠB am
ĠB ip
ĠB ody
ĠB reak
ĠB ehind
ĠB izarre
is o
is ter
and ra
and ya
and ers
ra ham
ĠJ B
ĠJ e
ĠJ umped
Ġg ut
Ġg ullet
Ġg rave
Ġg ravity
Ġg ym
Ġd ic
Ġd od
Ġd ump
Ġd ish
Ġd ang
Ġd ry
Ġd ice
ou der
Ġde cking
Ġde xter
Ġde grees
Ġde emed
Ġde gree
ĠF la
ĠF ab
ĠF ier
ĠF lays
ĠF ifth
ĠF rees
Ġst ar
Ġst om
Ġst ap
Ġst reak
Ġst iff
Ġst oop
Ġst rayed
Ġst inker
Ġst ormed
ic ul
ic hes
ĠI an
el b
el oc
el age
Ġit ching
ad vis
Ġin ad
Ġin her
Ġin ten
Ġin tim
Ġin swing
Ġin ex
Ġle ad
Ġle ak
Ġle eway
har d
har ac
har gic
Ġth umb
Ġth umbs
ĠH P
ĠH S
ĠH av
ĠH ash
ĠH ooks
ĠH iman
al i
al iz
ch ool
Ġe h
Ġe kes
Ġe cst
han y
Ġ3 11
Ġn th
Ġn im
Ġn ag
Ġn ast
Ġn ah
Ġn ets
Ġball er
ep ing
ep ower
ĠN Z
ĠN uwan
Ġta le
ĠV N
ĠV al
ĠV ital
ĠV intage
Ġ5 18
Ġ5 19
ent y
ent ion
ur ries
li mely
li fied
Ġ9 10
Ġor ange
ir ts
ĠRa w
ĠRa ise
ĠW ants
ĠW aves
ĠW oah
ĠW kt
ĠW hacked
ĠY u
ĠY JB
Ġout s
Ġout swing
ma iden
Ġfr esh
Ġfr uit
ul am
ul ner
Ġfiel ded
Ġl ov
Ġl ab
Ġl ashed
Ġl adi
Ġl ous
Ġl ame
Ġl aw
Ġl atched
Ġl ouder
ĠL ak
ĠL oops
ĠL ifts
ĠL iam
ĠL ife
ĠL enght
Ġsi gna
sh u
ate ment
our ed
il ding
il ind
man ce
man ned
od a
od dy
Ġat t
Ġat tra
Ġco ach
con y
st ick
st roke
med itation
riv es
Ġovers eas
ud ing
ĠU tter
ro s
Ġh ust
10 0
10 3
11 5
11 6
11 86
Ġsh op
Ġsh oddy
13 2
12 4
14 8
ya gar
Ġre v
Ġre de
Ġre ve
Ġre je
Ġre vs
Ġre co
Ġre aps
Ġre cent
qu ality
Ġpl atform
per tly
Ġwide d
th ony
th ink
00 1
00 3
00 8
Ġman tra
Ġman ipul
Ġman ual
Ġdown ward
Ġbe aring
Ġbe hold
Ġbe wdy
ged y
Ġside s
Ġside lines
Ġar ching
Ġqu int
Ġqu alifier
re leas
ĠSt icks
ĠSt arted
ĠSt raying
ĠSt ellar
Ġdef eated
bo lic
ĠE mp
Ġarm y
Ġarm er
ol ate
Ġsc a
Ġsc ot
Ġsc arred
Ġsc urries
op es
im p
ap t
ap on
ant ha
ant aliz
up t
uss ed
ag am
Ġup set
ĠSam e
Ġhe els
ac ross
ac tive
ĠAr m
ĠAr ches
ĠAr my
ĠO DI
lo at
Ġal as
Ġse at
uv a
ĠMa hal
Ġad renaline
Ġad vertising
Ġro de
Ġro les
Ġro ads
Ġumpir ing
ik az
ess ed
Ġcont ribut
Ġpr ep
Ġpr ances
Ġpr odi
ans elage
ped als
ped alled
ak rish
ak iri
end able
Ġbu ries
Ġex quis
ĠRR R
Ġsp it
Ġsp ir
Ġsp ill
Ġsp ort
Ġsp icy
ath on
Ġhit ters
Ġextra ordinary
Ġas pect
ĠPr edict
ĠZ oom
ĠZ eal
ĠZ inta
Ġ33 9
Ġ29 3
Ġ28 8
ĠBr ett
gi ous
Ġv ill
Ġv ice
Ġv iciously
Ġv eloc
Ġv ulner
ĠAn thony
25 3
Ġ34 5
Ġ34 6
Ġ34 8
Ġ35 7
Ġpo ol
int rod
ail ing
Ġper p
Ġper ils
Ġper for
Ġper iod
em y
fort able
Ġ39 66
Ġdis ar
Ġdis man
Ġdis con
Ġdis may
Ġhigh way
Ġ44 7
Ġ44 8
Ġ44 98
20 3
75 8
Ġj ub
Ġj ogg
Ġj udging
Ġj itters
Ġj inx
mon d
ĠShort ens
ĠHas n
ĠRaj at
!! !
Ġ82 978
Ġ82 975
Ġun p
Ġun cor
Ġun ve
Ġun com
Ġun real
Ġun controlled
Ġun moved
Ġun happy
Ġun manned
Ġhar der
Ġhar akiri
Ġcomp ound
san ity
ust y
ĠChar ged
ĠChar les
ĠBe ers
Ġsl ump
Ġsl ows
Ġk mph
ite ment
MD KJ
ĠLynn sanity
oot h
Ġunder estim
ett ed
ett able
Ġti e
ĠMura li
Ġthere after
ĠMan y
ug s
ini est
Ġsm ite
Ġsm iling
Ġsm ooth
ĠMumbai kar
arc hes
Ġdri bble
Ġdri bbled
ĠIn swinger
Ġslog sweep
Ġ147 35
ĠCon s
ĠCon ce
ĠCon secutive
ĠPre c
ĠPre ity
ĠPre mdip
Ġfront foot
Ġrefer red
ip hany
Ġsw erved
Ġsw erving
04 4
05 8
Ġfl inch
Ġfl ashing
Ġfl ows
Ġfl ung
Ġright fully
Ġtr udging
22 45
22 48
ĠEn s
sw ats
sw ivels
Ġloft y
Ġbody line
Ġbel ting
24 0
24 23
ĠBis ects
ĠAm ple
ĠEx quisite
ĠEx pertly
ĠDe ath
ĠDe ceives
Ġen core
Ġen emy
ĠTH E
ĠTH IS
Ġfir epower
Ġcap s
ter jee
ter istic
Ġli m
Ġcon st
Ġcon nn
ĠTh umps
ĠTh ought
ĠTh yagar
69 1
69 2
ĠStraight forward
Ġcre ating
Ġcre eping
Ġne igh
Ġgl ad
Ġgl ued
ĠMad ness
Ġoverc ooked
ott en
Ġus hers
Ġbig gies
43 8
ĠOver c
ĠOver compens
Ġmiss ion
Ġdo led
94 9
ĠJam tha
57 1
Ġsk ying
rack er
ĠBri an
ĠBri lliance
Ġclo ut
Ġclo sely
ĠSty lish
est ic
ĠCo vers
ĠCo llision
Ġim perious
ari ly
Ġyorker ish
ĠMo ises
DA J
Ġpro ven
Ġmoment arily
Ġang ler
ph y
34 7
ĠSw ir
ĠSw ept
ĠSw itched
ĠSw ung
ĠBar ely
Ġdirect ing
Ġfe ars
Ġfe athers
Ġslot ting
Ġsee ks
Ġsee king
Ġsee ming
Ab dur
Ġneed le
Ġneed ful
Ġneed lessly
Ġeffort s
SS B
oth y
Ġnon etheless
ĠSl ugged
Ġcar om
Ġpri me
Ġbl own
Ġbl ares
ĠQu ality
Ġbounc ers
88 5
Ġsur gically
Ar cy
Ġring ing
Ġpre meditation
Ġtrick le
Ġfli pper
Ġwe apon
Ġchar med
55 5
mis s
40 2
sk y
ĠTim ely
ĠTim bah
ĠTim othy
Ġrem inds
Mus heer
Ġpe el
Ġpe gged
aram akrish
ĠHope fully
Ġslow est
Ġcart ing
Ġexp ansive
Ġbri dge
Ġu pping
back er
Ġbacks pin
Ġreg ister
Ġho pped
Ġho isted
Ġho pping
Ġseam s
ĠBack ing
Ġed ging
ĠStr ong
ĠStr etches
Ġconf used
ĠSe khon
ĠSe veral
ox es
Ġel an
Ġel ic
Ġnight s
Ġtall er
Ġheav en
Ġflo od
Ġflo ppy
Ġflo ating
ĠRe ad
ĠRe verse
ĠRe ached
ĠRe verses
ĠUm m
ĠSp ills
chal ance
ugg ling
Ġstroke play
Ġste als
Ġsto ops
Ġsimp ler
Ġdismiss als
udge oned
Ġprevious ly
handed ly
Ġtick ling
Ġsn uck
Ġlet hal
Ġlet hargic
Ġrep ly
Ġrep air
Ġacc om
Ġacc el
Ġsoft est
Ġcream ing
Ġtarg etting
Ġthought s
ĠUmp ires
ĠQuick ly
AA AA
Ġant hem
Ġconfiden tly
Ġelev ate
Ġbla ck
Ġbla zes
Ġbase ball
Ġam bled
Ġam bling
iy anselage
Ġide ally
Ġerr atic
Ġsub limely
Ġresp ond
Ġmista kes
Ġinstin cti
met ers
Ġtre ats
Ġtre ated
Ġtre ating
Ġdisappoint ing
km ph
Ġbal cony
Ġ419 16
Ġcomm endable
Ġadjust ing
Ġshim mied
Ġla ws
Ġinter est
Ġbo bbles
ĠTot al
Ġprocess ion
Ġfair ness
Ġmisj udging
ansf ers
Ġcur l
Ġcur se
Ġcur sing
Ġpredict ably
bats man
Ġstick ing
Ġtransf orms
Ġye a
Ġtw ists
Ġeye ing
ĠWat ched
ba kes
min ute
Ġblast ing
Ġcra zy
ĠSouth paw
Ġcho pper
Ġret ain
str ous
Ġreturn ing
ĠPro ble
Ġconver ted
Ġmean time
Ġfavour ites
ĠRo om
Ġslam ming
Ġhorri fic
gl as
gl ance
Ġrub ber
Ġplan e
Ġplan et
Ġdig it
Ġexc use
Ġexc itement
Ġclim bed
Ġshack le
Ġmanage ment
Ġspeed ster
dd d
Ġpou ching
Ġreck oned
Ġpresent ation
ĠSwe eps
Ġru le
ĠRis es
Ġmar athon
Ġpocket ing
Ġscor ched
ĠCr uel
eeee ee
Ġamp lified
Ġprom ising
Ġ548 35
hh hh
Ġja il
Ġfla ir
Ġfla wless
ĠAd just
ĠAd rian
Ġmin imum
Ġequ al
Ġpremedit ating
Ġjab bed
Ġfanc ied
ĠMight y
Ġden ying
ĠLo fts
ĠLo osener
Ġshout ing
Ġprod u
Ġtemp t
Ġtemp ts
Ġramp age
Ġchal ked
Ġoverp itching
Ġtail or
Ġshov elled
ĠAustrali a
Ġbar r
Ġnick ing
Ġmiser able
Ġglori ously
ĠSee ing
Ġfight back
ĠChat terjee
Ġgr ate
Ġgr own
Ġdust ed
ĠGre ets
ĠEas iest
Ġjugg ling
Ġairrr rr
turn ed
Ġaf loat
Ġthwa cked
ĠPress es
ĠSlog ged
Ġuns ettle
Ġrel ies
Ġrel cut
Ġrel atively
Ġarr est
Ġarr ested
Ġboom ing
Ġsuccess fully
Ġshi es
Ġshi fting
Ġshi fted
ĠRem oves
Ġgri ma
Ġstro king
Ġclai med
Ġsupp le
pect ed
Ġred uced
Ġdelic acy
Ġadm ired
Ġadm ires
Ġhorizont ally
Ġtransfer ed
Ġwhist led
Ġmon strous
Ġforg ettable
Ġforg otten
ĠDes per
Ġcomb ined
Ġpremeditated ly
Ġser v
Ġfail ing
ĠPl ants
Ġpiv oted
Ġpass ed
ĠJon athan
Ġcoll ide
Ġfloor ed
Ġconsum ing
Ġskew ing
Ġwo bble
ĠHur ries
Ġplon k
Ġplon king
Ġflatt ened
Ġtent atively
hearted ly
Ġsal ute
Ġshell shocked
Ġpur ely
Ġpur chase
Ġambit iously
Ġapplaud ing
Ġca used
ĠTre mendous
Ġpin point
Ġfore handed
ĠChan ts
ĠCol lects
Ġhun ch
ĠAfghan istan
Ġballoon ing
Ġcasual ty
Ġvio lence
Ġsme ar
Ġbra kes
Ġbra wn
Ġwind ow
Ġcla wing
Ġforear m
Ġdest iny
ĠSte ve
Ġsever ely
Ġzoom ing
Ġinvitation s
Ġapproach ing
ĠTr ansfers
Ġnur dles
Ġpost s
Ġregulation s
Ġgenerat ing
Ġrib cage
Ġpati ently
Ġdevi ate
Ġstab bed
bound ary
Ġscoot ed
Ġmarmal ized
Ġpepper ed
Ġricoche t
ĠDel ic
ĠDel ight
ĠBl asted
ĠBl udgeoned
ĠBoun ces
ĠFr ustr
ĠFr ench
Ġfreed om
Ġcompul sively
Ġmeas ure
Ġwhipl ashed
Ġbas ed
Ġgest ures
Ġgest ured
Ġstutter ing
Ġnest ling
Ġhell uva
Ġloc ate
Ġ829 73
ĠSkid s
Ġbambooz led
Ġcongratul ates
UU UU
sl ower
sl anter
Ġsine w
Ġflog ged
Ġban ana
Ġoverbal ancing
ĠDou glas
ĠCra ig
Ġind ic
Ġint rod
Ġep iphany
Ġtact ic
Ġinnov ation
boy ant
ĠEvery one
ĠEvery thing
Ġspear ing
Ġperisc opes
Ġunc harac
Ġdestro ys
Ġdestro yed
fl ick
uit ous
Ġwar hor
ĠHor ror
ĠWast e
Ġfre ely
Ġfre aky
Ġhoodwin ked
nnnn nnnn
Ġdistra ught
Ġclin ical
Ġkabo om
Ġkabo ooooom
ĠSpo ils
ĠSpo ons
Ġaccoun ts
Ġaccoun ted
Ġinterc ept
Ġentic ing
Ġsacri fice
dri fter
Ġsuff er
Ġbeam ing
ĠPe ople
ĠAlex ander
Ġmem or
Ġple ading
ĠBel ted
Ġnerv y
Ġnerv ous
Ġbacktra cked
Ġbacktra cks
Ġshoot s
Ġspraw ls
Ġjus tif
Ġjus tified
Ġtrous er
Ġtrous ers
Ġenab les
Ġlimp ing
Ġtrek ked
Ġflaun ts
Ġflaun ted
Ġbulldoz es
Ġbulldoz ed
ĠSqueez ed
cul ated
Ġveer ing
Ġtwe aks
Ġbarg ain
Ġwitness ed
Ġcer tified
ĠTri fle
ĠBra dley
Ġdr own
ĠFe eds
Ġincl uding
Ġeight h
ĠNad u
Ġsizz ler
Ġdefin ite
Ġbutcher ed
Ġflam boyant
Ġfluff s
Ġneg ate
Ġwhizz es
Ġreplace ment
Ġrespons ibility
Ġextravag ant
Ġemploy ed
Ġdisparag ing
Ġassoci ated
Ġpivot al
Ġwoe ful
Ġlanguid ly
ĠContin ues
Ġinevit able
Ġess ay
Ġterri bly
Ġblit z
Ġwhir lwind
ĠTry ing
Ġmic ro
Ġmad ness
Ġmot oring
ĠCli pped
ĠBullet s
ĠJosh ua
Ġdup ed
ĠFiel der
Ġstat ue
Ġstre et
ĠHamm ered
Ġnumer ous
ĠVik ram
Ġrever sed
Ġrebu ilding
ĠStro kes
Ġscen es
Ġscrip t
ĠOpen ed
ĠOops y
Ġprow ess
ĠPreemp ts
Ġresurr ected
Ġcompli ment
ĠClub s
ĠInter esting
Ġusher ed
Ġbreez e
ĠMurder ed
Ġprog ress
Ġimpet us
Ġenter prising
ĠDispat ches
Ġmassac red
Ġincre as
Gul badin
Ray udu
Sm ith
Vir at
bre aks
Ġur ge
Ġast ute
ĠSiv aramakrish
Ġtoug hest
Ġsump t
Ġfod der
Ġbarra ge
Ġrav ishing
Ġrail way
Ġruth less
ĠMud iyanselage
ĠMood y
ĠRog er
ĠKous hik
ĠKook ab
ĠPumm els
Ġchil d
ĠTam il
Ġmedi oc
Ġmedic ine
Ġpol ite
Ġperson al
ĠDanger ous
ĠCour tesy
ĠCrack ing
Ġdic ey
Ġstap le
advis ed
Ġintim id
Ġinex per
ĠHav en
ĠHiman shu
Ġecst atic
Ġnim ble
Ġnag ging
Ġnast y
Ġladi es
Ġlous y
ĠUtter ly
Ġreco very
Ġquint ess
releas er
antaliz ingly
ikaz e
Ġprodi gious
Ġexquis itely
ĠZeal and
Ġveloc ity
Ġperfor mance
Ġjogg ing
Ġuncom fortable
Ġneigh b
ĠOvercompens ates
Ġinstincti vely
Ġuncharac teristic
Ġwarhor se
ĠSivaramakrish nan
! ?
) :
+ .
, '
0 24
0 73
2 864
3 22
3 43
4 25
4 73
4 57
4 28
4 82
5 67
5 43
5 93
6 67
7 19
7 29
7 89
7 99
8 78
8 09
8 08
8 83
9 18
9 89
9 44
9 86
9 98
9 97
9 07
? )
A k
A MM
B aby
D M
G ambhir
G urnoor
H e
H yder
I PL
J alaj
K laasen
K iwi
L I
L Y
L iton
M onu
M ilind
O L
O O
O ne
O PP
P SP
P oor
P henomenal
P andya
R W
R ohit
R ovman
S ar
S ediqullah
S coop
T Y
T e
T h
T he
T an
U A
V AL
W arn
Y ounis
] [/
a is
a id
a pped
a kar
a lent
a ppe
a wn
b h
b l
b ates
b oth
b low
b ati
b rid
c ou
c uss
c hest
d is
d ly
d ds
d one
d os
d ig
d ition
e u
e ers
e ath
f r
f li
f ud
f ast
f lighted
f old
f loss
g u
g ul
g eh
g ner
g ame
g ination
g uised
h w
h um
h us
h op
h oop
h paw
h ounds
h ouse
h sim
i i
i cor
i um
i ate
i pper
i ppy
i vers
j eez
j ured
k ates
k ant
k ays
k rie
l ard
l ers
l odge
l uck
l ation
l asses
l ane
m ur
m ma
m less
m osphere
m bol
n or
o e
o j
o oh
o per
o gi
p ro
p ump
p ol
p ower
p ins
p ulled
p ired
p ush
p itches
p leasing
p acked
r u
r ow
r ast
r ated
s le
s it
s ha
s ur
s to
s ingh
s log
s hip
s ense
s lip
t ri
t om
t ic
t hed
t wo
t ith
t ure
t ici
t ices
t aker
u hal
u uge
u pper
u ising
u des
u ades
v ind
v inder
v ails
v endra
v ites
w er
w idish
w itting
x e
x ious
y ta
y ush
y mer
y brid
y hounds
z o
z vendra
Â ł
Ġ *
Ġ +
Ġ |
Ġ ic
Ġ ice
Ġt as
Ġt riv
Ġt ank
Ġt idy
Ġt eed
Ġt iniest
Ġt antalizingly
ĠS it
ĠS ou
ĠS li
ĠS urr
ĠS ort
ĠS lo
ĠS na
ĠS ne
ĠS reen
ĠS ile
ĠS cy
ĠS eri
ĠS erves
ĠS erved
ĠS ign
ĠS chool
or ed
or ded
or bo
Ġto y
Ġto pp
Ġto pped
Ġto ys
Ġto mor
er on
er ked
er ence
er acy
er gen
Ġo ur
Ġo bs
Ġo ust
Ġo uch
Ġo ops
Ġo oz
Ġo xy
Ġo dds
he els
in ent
in ded
in th
in king
an y
an za
Ġs as
Ġs and
Ġs ou
Ġs way
Ġs oul
Ġs ag
Ġs had
Ġs unk
Ġs ought
Ġs ung
Ġs ussed
ar er
ar ay
ar ate
ar ang
Ġf it
Ġf ra
Ġf ot
Ġf ant
Ġf ac
Ġf ading
Ġf ended
Ġf ences
ver ts
ver tent
le ad
le ap
Ġb ot
Ġb ird
Ġb ash
Ġb rav
Ġb ashed
Ġb ust
Ġb osh
Ġb omb
Ġb iri
Ġb oring
de al
de pt
de structing
de gree
ing ent
ke yed
Ġw ri
Ġw is
Ġw et
Ġw ham
Ġw ound
Ġw oes
Ġw oo
Ġw hale
Ġw rapped
Ġw ading
Ġw arm
Ġw anders
Ġr as
Ġr om
Ġr ough
Ġr iv
Ġr ous
Ġr eper
Ġr usty
ĠM ang
ĠM ana
ĠM ohn
ĠM athe
ĠM atters
ĠM ost
ĠM aster
ĠM oving
ĠM andy
ĠM ammoth
ĠM bang
ĠR ed
ĠR ash
ĠR ub
ĠR ang
ĠR ushes
ĠR ush
ĠR ovman
on ing
on es
as m
as ures
ll er
un s
un ning
un ished
ĠK ing
ĠK es
ĠK ag
ĠP ard
ĠP ings
ĠP op
ĠP ram
ĠP lay
ĠP ouches
ĠP ays
ĠP HH
ĠP umps
ĠP lease
ĠP inned
ĠP laying
ĠA way
ĠA im
ĠA jay
ĠA iden
ĠA jit
ĠA part
ĠA yush
Ġc ast
Ġc aut
Ġc ity
Ġc atap
Ġc astled
Ġc ries
Ġc uc
Ġc tr
Ġc unning
it ya
it ant
it ous
it ted
it ated
ĠT I
ĠT y
ĠT on
ĠT han
ĠT ro
ĠT ick
ĠT rav
ĠT ag
ĠT act
ĠT rue
ĠT WO
ĠT arg
ĠT yp
ĠT ests
Ġa ver
Ġa and
Ġa gh
Ġa li
Ġa wa
Ġa warded
Ġa verage
Ġa xe
Ġa dept
Ġover all
Ġover comes
ha ys
es e
es ha
es ent
Ġon r
Ġon set
ri ch
ri be
ri cted
Ġm or
Ġm ine
Ġm are
Ġm agn
Ġm ars
Ġm ire
Ġm elt
Ġp is
Ġp ra
Ġp ir
Ġp ul
Ġp endul
Ġp leas
Ġp uff
Ġp ink
Ġp ray
Ġp iled
Ġp osing
Ġp andem
Ġp angs
Ġp henomenal
Ġfor mal
ĠD O
ĠD u
ĠD ud
ĠD ill
ĠD em
ĠD aren
ĠD onald
ĠD ili
ĠD omin
ĠD iving
ĠD ived
om s
om es
om estic
ĠC or
ĠC am
ĠC ur
ĠC hi
ĠC ome
ĠC up
ĠC ram
ĠC alled
ĠC are
ĠC PL
ĠC ity
ĠC atches
ĠC ream
ĠC hest
ĠC lips
ĠC YA
ĠC lim
ĠC OL
ĠB h
ĠB in
ĠB an
ĠB ent
ĠB ats
ĠB ris
ĠB less
ĠB has
ĠB lin
ĠB OY
ĠB elie
ĠB unny
ĠB listering
ĠB uries
is y
is ite
is fied
and a
and ran
ut y
ut ra
ut ive
ut ation
ut ally
ut megs
Ġba gged
ra l
ra ps
ra its
ra cts
ĠJ ee
ĠJ oint
ĠJ ogs
ĠJ inx
ĠJ uggled
Ġg e
Ġg ul
Ġg arn
Ġg ross
Ġg ain
Ġg rin
Ġg run
Ġg ushes
Ġg ala
Ġg arg
Ġg rant
Ġg aves
Ġg runt
Ġd ur
Ġd ib
Ġd aught
Ġd oll
Ġd ile
Ġd ark
Ġd ove
Ġd imin
Ġd ares
Ġd angles
Ġd irt
Ġd omestic
Ġd uty
ou ched
Ġde ce
Ġde cked
Ġde je
Ġde cks
Ġde vel
Ġde mol
Ġde bates
ĠF et
ĠF ort
ĠF IN
ĠF inis
ĠF abi
ĠF ist
ĠF red
ĠF inal
ĠF iness
ĠF IF
ĠF inding
Ġst am
Ġst al
Ġst ats
Ġst ore
Ġst alled
Ġst amp
Ġst rew
Ġst aring
Ġst amps
Ġst umbles
Ġst ellar
Ġst raits
um e
ic he
ic ed
ic ted
ic lima
ĠI m
ĠI ll
el ps
id den
nd ra
ad ise
Ġin je
Ġin vis
Ġin tern
Ġin di
Ġin ves
Ġin ching
am ed
am med
am bo
am ond
Ġle ver
Ġle af
Ġle ads
Ġle nt
Ġth s
Ġth er
Ġth war
Ġth rives
ide mic
ĠH A
ĠH es
ĠH am
ĠH ey
ĠH ig
ĠH ung
ĠH ushed
ĠH oodwin
al aka
ch y
ch less
ch anger
ch ild
ch andra
Ġe ats
Ġe ish
han gs
ĠG er
ĠG od
ĠG auti
ĠG rant
ĠG ifts
ĠG etting
ĠG IF
ĠG ajan
ĠG raham
ĠG omes
Ġn ought
Ġn udging
Ġn ippy
Ġn inth
Ġball ons
ĠN a
ĠN ine
ĠN OW
ĠN udges
ĠN erves
ĠN erv
ĠN utmegs
Ġta g
Ġta pping
Ġta bles
ot he
ot racts
ĠV il
ĠV ai
us her
Ġ5 25
Ġ6 13
Ġ6 146
ent u
ent ed
ent ial
ur ra
Ġ7 17
Ġ7 18
Ġ7 50
Ġ8 11
Ġ8 16
Ġ8 000
li ged
Ġ9 17
Ġ9 18
Ġ9 50
Ġleg end
Ġleg gies
ir k
ĠRa ul
ĠRa kesh
ĠRa vis
ĠW W
ĠW atch
ĠW il
ĠW oof
ĠW ayne
ĠW heels
ĠY or
ĠY og
ĠY alaka
Ġ10 15
Ġ10 16
Ġout ings
Ġout fiel
Ġout set
Ġstri ding
Ġstri fe
ma ble
Ġfr en
Ġfr ong
Ġno ds
Ġno isy
Ġ11 19
ul ated
iel d
Ġ12 33
Ġmid st
Ġl at
Ġl ull
Ġl ash
Ġl umb
Ġl au
Ġl ord
Ġl akh
Ġl uring
Ġl atest
to ire
to ls
Ġoff break
Ġ13 50
ĠPat ab
hi b
ĠL it
ĠL ion
ĠL ara
Ġsi len
Ġsi lent
ti er
ti vely
sh ow
sh ered
Ġback f
Ġback track
Ġ14 20
il ation
pp iness
Ġcom ically
Ġcom edy
av ish
av ier
Ġat mosphere
Ġco ck
Ġco lor
Ġco ld
Ġco ordination
st ers
st raight
st orm
st atement
Ġwicket keeper
ud dle
Ġbow s
Ġkeep ers
ĠCha os
et ti
et hing
et ically
ĠU L
ĠU ff
ĠU day
ĠU gly
ĠU sing
ĠU shered
ro ute
ro cket
ro bat
Ġh er
Ġh ide
Ġh our
Ġh ash
Ġh oc
Ġh ides
Ġh ush
Ġh uu
Ġh osp
Ġh ours
Ġh ooking
Ġh ybrid
Ġh idden
Ġwor thy
10 1
11 94
11 93
Ġsh atter
Ġsh ove
Ġsh irt
12 6
14 1
14 59
14 598
ya kumar
Ġre wards
Ġre ap
Ġre ars
Ġre cl
Ġre ign
Ġre ceives
Ġre introd
ham mer
ers ey
oh o
ft en
ft ers
wicket s
17 0
17 1
per ed
ump card
Ġeconom ical
th s
th ere
18 0
ment ed
eam s
Ġteam mates
Ġdown ards
iv en
iv al
iv ate
iv elled
iv alent
Ġbe mused
Ġbe fud
Ġbe jeez
ee chless
ick o
Ġrecor ds
Ġstraight est
Ġar g
Ġar ch
19 9
Ġqu ota
Ġdes ire
Ġdes erving
Ġdes erted
Ġgu ys
Ġcomment s
Ġdesc ends
Ġdesc ribe
ĠInn oc
ai m
ai ms
re ive
ĠSt uck
ĠSt epped
ĠSt arts
ĠSt amps
ĠSt eams
Ġdef ining
Ġdef ault
Ġdef eats
la ins
la ces
ĠE ver
ĠE ss
ĠE qu
ĠE ye
ĠE legance
ĠE VER
Ġbut ton
Ġcan on
Ġplay offs
ol as
ol ogi
Ġsc ars
Ġgood luck
op ed
op lane
im ates
ĠSh ow
ĠSh owing
ĠMor ne
ĠMor rison
ap ot
ap our
ap ati
ant uan
ub b
ub hai
rav elling
ĠHar ry
ĠHar mless
ris e
ag ram
ĠSm eared
ĠKar an
Ġan n
Ġan xious
Ġup s
Ġup hold
ĠOUT sur
Ġbound ray
Ġhe el
Ġhe ck
Ġhe avi
ram bled
ĠPo un
ĠPo ses
ĠPo unded
ĠPo sit
win k
win ner
ac he
ĠAr vind
Ġwith draw
Ġstump ings
ff ed
ff ic
ĠO K
ĠO k
ĠO utt
ĠO NE
ĠO ld
ĠO VER
ĠO VAL
ĠO ften
ang ling
ĠMar tin
ĠMar ais
oni um
lo fts
hal ved
ont ane
Ġal be
Ġse izes
Ġse arches
Ġse ething
ĠMc Scoop
ĠMa in
ĠMa hip
Ġad ap
Ġad jecti
Ġlo ad
Ġlo os
Ġlo bb
Ġmis communication
Ġcut ters
thi gh
Ġro bs
Ġro se
Ġro bbed
ĠPoll lard
ess es
ĠAb ove
ĠAb hin
Ġcont ain
Ġcont emp
Ġcont ention
Ġcont rast
Ġcont ingent
Ġfree ing
Ġfree zes
ĠSu cce
ĠSu icidal
ind u
ind am
ind les
Ġpitch er
ped alling
Ġany body
bha v
ran ath
ĠKL R
Ġcontin ued
end anc
end ously
end ige
Ġbu zz
Ġbuil ds
ĠRay mond
ge ance
ĠCh ose
ĠCh ota
os er
os ra
os ity
Ġex ag
Ġsp il
Ġsp ong
Ġsp ira
Ġsp ikes
Ġsp eechless
Ġsp ontane
ta cked
ta int
ib er
ib els
ĠMA AMM
vi able
ct or
ct ically
Ġha v
Ġha ir
tra in
Ġshort ness
Ġextra cts
Ġextra cted
ĠSuper man
Ġas ide
ĠPr esent
ĠZ ero
Ġ50 11
ve able
ĠPar ries
Ġgro pe
Ġgro pes
Ġ27 03
Ġ28 2
ĠBr ing
ĠBr ought
Ġv ent
Ġv ir
Ġv ind
Ġv oc
Ġv apour
ĠAn ti
ĠAn jum
ĠAn tici
25 9
ĠSM S
Ġ34 1
Ġ34 2
Ġ34 7
Ġ34 9
Ġ34 87
ĠSha z
ĠSha ke
ĠSha bb
Ġ35 18
Ġ35 22
ĠDR OPP
Ġpo ked
Ġpo ppin
Ġ30 6
Ġ30 7
Ġ30 76
Ġ40 7
Ġ40 89
em ped
Ġ36 1
ĠHe ight
ĠHe ave
ĠHe aves
Ġ39 0
Ġdis mal
Ġdis res
Ġdis cuss
Ġdis lodge
ĠPer ks
ĠPer iod
33 7
Ġbat on
Ġ37 1
Ġ37 5
Ġcatch ers
ĠFl ashed
ĠFl ashes
Ġhigh ish
Ġ46 6
Ġ46 9
Ġ44 0
Ġmore ver
ade n
Ġ54 08
Ġ52 688
Ġ57 7
Ġ62 04
20 4
20 5
Ġ43 8
Ġ48 52
75 7
Ġ38 0
Ġ38 5
Ġ38 9
Ġres orts
Ġres train
Ġso ar
Ġso unded
Ġj eez
Ġj unior
Ġj erked
Ġj ersey
Ġ94 8
Ġ76 0
Ġ56 86
Ġ83 55
ĠShort ened
Ġ67 10
wad uge
Ġ90 44
ĠEd ge
ĠEd ges
Ġ89 45
Ġun de
Ġun it
Ġun int
Ġun fort
Ġun be
Ġun want
Ġun ique
Ġun orthodox
Ġun think
Ġun ravelling
Ġhar dest
ĠPad manabhan
Ġ95 6
Ġhas sle
Ġ79 8
Ġma chine
Ġcl ar
Ġcl anger
Ġcl icking
Ġcl iches
ĠKrish nak
san e
Ġcle ave
BK G
Ġwh ups
Ġk ph
Ġk iller
Ġk itty
ĠRE DS
ĠNat ional
ĠAS AP
Ġ126 50
Ġ117 8
Ġ117 843
oot s
ĠNe ither
ĠCl atters
ĠCl umsy
Ġsa le
Ġunder statement
Ġti pping
Ġti ppy
ĠYash as
ĠMura l
je on
ĠMan ufact
ĠSuperb ly
ider ing
me gged
me asures
Ġ135 954
Ġcr y
Ġcr it
Ġcr umble
Ġcr uising
Ġsm id
Ġsm iled
ĠLe on
ĠLe ave
ĠLe apt
Ġsqu ad
MI AA
ĠAk ila
Ġwho ever
ĠHet ymer
Ġdri ver
ĠIn tent
ĠIn vites
ĠIn sane
ĠMis s
ĠMis judged
ĠMis communication
Ġch icke
Ġpower ing
ĠSur esh
ĠSur pris
art ing
Ġref lex
Ġref use
Ġref using
Ġslog sweeps
Ġ147 07
oc ument
Ġclub bing
ĠVen kata
ĠVen kates
ĠLa ch
ĠLa ck
ĠCon verts
Ġy elps
ĠPre cious
Ġrefer ring
Ġnot es
Ġnot ch
Ġnot ches
Ġnot ice
ip e
ip es
Ġsw ishing
Ġsw ords
04 6
05 9
Ġfl utter
ĠClean ly
Ġac robat
Ġtime out
ank ing
ĠPow ers
pat ed
Ġright s
Ġright away
Ġtr od
Ġtr end
Ġtr umpcard
22 3
22 6
22 8
22 47
ĠEn ter
ĠEn tices
ĠAs hes
ĠAs king
wa ist
Ġwidth s
Ġvan ished
ĠHay dos
ich andran
so il
ĠKam ikaze
Ġbel ated
29 4
AL LL
AL LY
89 3
ĠAm bati
ĠEx ec
ĠDe ar
ĠDe als
ĠDe fen
yan is
Ġen gine
Ġen cou
Ġen gul
Ġen route
Ġen viable
com p
74 3
74 5
74 7
ĠAw ful
Ġhol der
tain ing
tain ed
if ies
Ġinf use
Ġinf using
Ġshar e
Ġshar es
Ġshar per
Ġder ailed
ann ed
23 1
ter y
86 6
Ġli p
Ġli ves
ĠTh ough
ĠTh rew
erat ed
ĠStraight away
ĠIng ests
cu it
Ġare as
Ġgl iding
Ġgl oved
Ġhalf volley
ĠMad hav
Ġtram ple
Ġtram pled
Ġtram pol
ĠCap tain
Ġtri pping
Ġtri mmed
78 3
mat ure
Ġhands ha
66 337
ĠSho uts
ĠSho uting
09 34
ĠGl um
Ġsome body
Ġ174 0
ĠOver does
ĠOver bakes
ĠOver pitches
Ġbr ush
Ġbr uted
Ġbr uised
Ġbr utally
ĠBre ad
.. .."
.. ...
ĠCham ara
39 2
39 00
Ġair r
Ch opra
Ġwa fted
Ġdo osra
Ġdo ctor
94 5
ĠBow ling
Ġstr ing
ĠJam al
57 6
57 9
Ġsk ip
Ġsk imming
Ġsk irts
ĠHa pp
ĠHa cks
ĠNig el
54 9
ĠMahe ndra
out ing
Ġlike ly
77 6
ĠDas un
ĠRav ind
ĠRav ichandran
ĠTan ay
ĠTan may
Ġim men
ras ad
ari o
ĠMo han
ĠMo bbed
Ġmaximum s
ĠX avier
stump ish
Ġstart er
Ġstart led
97 9
Ġpro f
Ġpro sp
Ġpro jecti
Ġfly er
Ġsent ences
HH HH
Ġcor ners
ĠSw itches
ĠSw iped
ĠSw ivelled
ĠSw ipes
ĠBar oda
ĠSham s
Ġdirect ly
Ġtrack ing
99 3
99 59
Ġfe at
Ġfe els
Ġwhi pp
ĠRun ning
Ġdec l
Ġdec imates
Ġdec ibels
46 14
Ġlast ed
Ġadd ition
ec tively
Ġreac ts
Ġwrong ly
Ġclose by
ĠOn to
Ġpick up
Ġgre ed
ĠAt tacked
Ġpart icul
ĠSl ants
ĠSl anting
ĠSl ammed
Pr ithvi
Ġpri ze
Ġbl ank
ĠQu alifier
Ġprice less
Ġboth ers
ĠCSK ians
64 9
60 2
Sam son
Ġski ers
Ġsur gical
Ġimp ire
ĠLad y
Ġpre vails
Ġpre mature
ink ya
Ġstand ard
lex ed
Ġevery day
Ġevery time
ĠBro oms
Ġtrick ling
Ġswiv eling
Ġwe aker
ĠWa it
ĠWa les
ĠWa fted
ĠWa iting
Ġchar ity
Ġra fters
Ġrem inding
ĠMid dles
Ġpe ace
ĠCar ves
aun g
hand ers
Ġlot tery
Ġcost s
Ġform id
Ġhapp ier
ĠPrab hsim
Ġche w
Ġche que
Ġslow ing
Ġdistur bs
Ġbreak er
Ġcart ers
Ġshuff ly
Ġexp onent
Ġexp osing
Ġexp lains
Ġbetter ed
jab bed
Ġhes itant
Ġu h
ĠCom edy
Ġdoub led
Ġdoub ts
Ġrest less
Ġrest ricted
ĠBet ween
Ne ver
si gn
Ġappe ars
Ġcartwhe el
ĠGood ness
Ġwow ing
Ġ500 0
thr ottle
sp ecial
Ġreg ular
Ġreg arding
ĠYorker ish
Ġfrustr ating
ĠBack ward
ĠStr ange
ĠStr uggling
Ġguard ing
Ġconf using
Ġhamm ie
ĠSe ven
stri ke
stri king
stri kers
Ġel imin
bb ly
bb ling
Ġton s
Ġown s
Ġown ers
Ġsmart est
AC K
ĠRe ason
Ġz ig
Ġz ipping
41 10
76 58
Ġset back
ĠPra g
ĠPra deep
ĠSp in
ĠSp ins
ĠSp are
ĠSp lic
ĠSp ecial
ĠSp rayed
ĠSp eared
Ġfound ation
Ġhur ling
Ġspr ang
Ġreal ise
ĠHow rah
Ġearn ed
ĠUn f
ĠUn like
ĠUn til
ven ir
Ġsto ic
Ġsto len
Ġsimp lif
Ġbother ed
ball s
ball er
Ġtick ing
Ġsn uff
Ġsn iff
Ġsn aking
Ġsn atched
ĠFirst ly
65 2
Kar im
Ġyoung sters
Ġrep aid
Ġrep utation
Ġrep reive
Ġcricket er
Ġacc entu
Ġsoft ening
pad dle
Ġdon ning
Ġjo in
Ġhor de
LL LL
omet er
Ġele ct
Ġtarg etted
Ġcir cuit
Ġmix ed
Ġscoop ing
Br endon
ĠSc ream
ĠSc rambled
Ġapp ly
Ġapp lic
Ġapp arently
Ġspo ke
Ġab ys
Ġab omin
Ġtra il
Ġtra ps
Ġtra king
Ġtra ining
Ġtra gedy
Ġtra dition
Ġtra ffic
Ġsha ke
Ġsha ve
Ġkne el
ĠQuick ish
Ġdelight s
Ġant iclima
Ġdanger man
Ġdanger ously
Ġam ble
Ġlift ing
Ġcirc ling
Ġtarget ed
90 26
ĠHad n
Ġbelie ves
Ġerr upt
Ġsub s
Ġsub du
ĠKal uhal
1189 2
Ġmet ed
tim er
tim ate
arm ish
Ġeff ectively
Ġtry st
Ġ400 0
Ġbre aches
apu waduge
Ġadv anced
ĠSanto sh
ĠNow here
Ġmeat ily
Ġla cks
Ġpoun ded
Ġsurpris ing
Ġlight en
Ġcare ful
Ġhoick ing
Ġris ks
Ġpred icted
Ġte ase
Ġsat isfied
Ġext reme
Ġfair yta
Ġmisj udge
Ġent ices
Ġent hus
Ġcalm ness
Ġappla uses
Ġtell ya
Ġcur led
Ġcur ve
Ġcur ved
Ġ1304 04
ĠThr own
ĠThr ashed
Ġtough er
Ġtough ie
bats men
Ġsucc umb
Ġroll er
Ġroll icking
Ġtw isted
Ġtw enty
Ġwel coming
Ġeye balls
Ġrocket ing
ĠSol id
ĠClo bber
Ġgener osity
Ġathletic ism
Ġshe ds
Ġcamp ing
Ġap ologi
Ġpay ing
Ġpal ming
Ġgra zed
Ġgra cious
Ġunus ually
belie veable
Ġpar adise
Ġcrun ching
Ġhope fully
Ġhope ful
Ġeffect ed
ĠPa wan
Ġcra w
Ġcra dle
Ġcra fty
Ġsec ret
Ġdifficult y
ĠSome how
Ġret re
Ġret ali
ĠWal tzes
Ġthro ats
may be
Ġreturn s
Ġdi amond
Ġcons ult
Ġcons istent
Ġsmoked dddd
Ġsen ses
ĠPro per
ĠPro ving
ĠPro active
Ġmarg inal
ĠGh ulam
Ġconver ting
Ġfavour s
ĠRo han
ĠRo bs
Ġmo pped
get y
Ġrub bed
Ġdeft ly
Ġdeft ness
Ġguess ing
spin ning
ĠSub rot
ĠKus al
Ġmur mur
Ġreason s
Ġreason able
Ġrelie ve
Ġrelie ving
Ġsna ked
ĠHit man
ĠWe ight
ĠWe ird
Ġspeed ing
Pri yam
Ġbur ps
ĠHigh ly
Ġreck less
Ġreck lessly
Ġsurv ive
ban e
des erved
Ġblin k
Ġwhis ked
Ġwhis king
ĠRis hi
ĠKe ep
ĠKe eper
Ġmar ker
ĠFlo aty
ĠFlo ater
ĠGe a
ĠShri kant
Ġven geance
Ġpocket s
Ġswir led
Ġswir ler
Ġcaress ed
Ġscor er
Ġsens ing
ĠDra ma
ĠCr unched
ĠCr ashed
Ġarriv al
Ġpers ist
Ġpers isting
Ġpers uades
ĠJer ome
Ġprom otions
Ġprom ised
Ġposs esses
Ġdisp atching
Ġ548 38
Ġja w
Ġja gs
Ġja gged
Ġja gging
Ġfla g
ĠRuss el
ĠAd itya
ĠDro p
Ġequ ipped
Ġequ ivalent
Ġnormal cy
Ġglov ing
Ġmer ci
ĠSlic ing
Ġready made
Ġgee e
Ġgather ing
Ġdream s
Ġdream y
Ġden ial
Ġem bar
Ġem ergen
Ġlad y
Ġshout hpaw
Ġhurried ly
vent h
Ġbullet ed
Ġramp aging
Ġchal ks
Ġoverp itch
Ġless er
Ġthank ing
Ġexten ding
Ġbar ring
Ġboot s
Ġboot laces
ĠDa le
ĠNel son
Ġmiser ies
Ġmiser ably
Ġbrutal ised
Ġblinder s
Ġgr ow
Ġgr itty
ĠGre yhounds
Ġlit eracy
136 46
Ġkis sing
Ġfeather ing
Ġfeather ed
ĠComp ounds
ĠSk im
ĠPower ed
Ġaff ect
Ġaff ords
ĠJo b
ĠSmart ly
Ġhelicopter ed
Ġhorror s
cer ting
Ġtow ered
ĠDis p
ĠDis astrous
Ġlaz ily
Ġscream ed
Ġtal ked
Ġrel ax
ĠMon ster
Ġass et
Ġass ist
Ġass ault
ĠShim ron
Ġslo ppiness
Ġfig ure
Ġgri pping
Ġstro ked
Ġstro lls
ĠImp rovis
Ġlaugh ing
Ġsele cted
Ġclai ming
Ġtrust ing
Ġmode st
pect ful
Ġutter ly
Ġben eath
Ġred uce
Ġadm iration
Ġswall ow
Ġexplo sive
Ġtransfer red
Ġwhist les
Ġmon ths
Ġforg iven
Ġnut megged
Ġenj oys
Ġser ving
Ġfail ures
Ġratt ling
ĠPl ucked
ĠPl onks
Ġpass ing
Ġvis ible
Ġkid s
Ġappro ached
Ġconsum e
Ġter m
ĠAuss ies
ĠHur ls
118 82
Ġplon ked
Ġspe aks
Ġswift est
Ġconvincing ly
Ġcamer aman
Ġenjoy ing
fall s
Ġsal ts
Ġsal ivate
Ġreleas er
Ġreleas ing
oche ted
Ġconfirm ation
Ġsugges ting
Sur yakumar
ext remely
res p
Ġtor rid
Ġca pped
Ġcheer lead
Ġpep pers
ĠChan ges
rage ment
Ġhug s
Ġsteep ly
Ġsteep est
Ġspoil er
Ġsy mbol
Ġflay ing
Ġble ak
Ġovercompens ate
ĠHard us
Ġworry ing
ĠEvent ful
Ġsever e
Ġblind fold
Ġzoom er
Ġcounter part
ign ition
Ġtyp e
Ġwee ks
ĠTr ou
ĠTr ust
Ġshock ing
Ġeviden ced
Ġmisfiel ded
ĠCho oses
Ġpost ing
Ġunf air
ĠClass ic
ĠInst agram
ĠDec ided
Ġsituation s
Ġentertain ment
Ġtrip s
Ġtrip le
Ġfal ters
Ġdel iciously
Ġbeast ly
Ġavo iding
coop ed
Ġmarmal ises
Ġtempting ly
Ġricoche ted
Ġricoche ting
ĠSke wed
ĠPla ce
Ġaer oplane
rie ve
Ġment ally
Ġminds et
Ġmaul ing
Ġmass ages
Ġmaster stroke
ĠDel icious
ĠBl ame
Ġquestion s
Ġcanter ing
Ġcapital ise
Ġcapital ize
Ġskim med
Ġskim mer
Ġremember ed
Ġgrass ing
cr ushing
cr usher
fer ence
sla p
Ġhanded ly
Ġgest uring
Ġstutter ed
Ġna pping
Ġorig inally
1644 7
Ġscram ble
Ġscram bling
Ġhell o
Ġsplic ing
Ġsplic es
Ġ829 77
Ġreplic ated
Ġcampai gner
Ġdisgust ed
Ġsyn ony
Ġcongratul ated
Ġima gination
Ġsham bles
Ġsham bolic
Ġshav es
Ġbump ers
Ġbol t
Ġbol ted
Ġbol wer
Ġbrisk ly
ĠTra p
Ġoverbal ances
Ġoverbal anced
Ġph rase
ĠBound aries
Ġind ucker
Ġind ication
Ġint end
Ġint ellig
Ġinsan ely
Ġthud ding
Ġep idemic
Ġdeliber ates
Ġdeliber ation
Ġanchor ed
Ġclas ped
Ġflu ent
Ġflu ency
Ġtwir l
Ġassum e
Ġassum ing
Ġcollap ses
Ġdestro y
Ġunfur ling
Ġblunder s
__ __
barr el
fl icks
ĠSma cks
Ġfo il
Ġfo iled
Ġbless ed
Ġwar ming
ĠRam esh
Ġped alled
Ġgrand child
Ġdomin ate
Ġdomin ant
Ġsteam ing
ĠWast ing
ĠWast es
Ġoutf oxes
Ġfields man
Ġhoodwin ks
Ġansw ers
Ġdistra ct
Ġdistra cted
Ġclut ch
Ġdecis ive
Ġslaught er
kkkk kk
Ġflir t
Ġflir ted
Ġflir ting
Ġcircum ference
Ġentic ed
Ġentic ingly
Ġcorrect ly
Ġlangu age
Ġcomprehen sively
Ġtil ted
ĠSat bhai
Ġbud dy
Ġbeam er
ĠPe ach
ĠThank fully
Ġmem bers
ĠBel ts
ĠBal apuwaduge
rap hed
ĠJas bir
Ġgallop ing
Ġthunder s
Ġthunder bol
ĠGon er
ĠGon zo
Ġnatura lly
ĠLank a
ĠLED s
cont inent
Ġhum ong
Ġshoot ing
ĠSmo kes
Ġspraw ling
oooo oh
ĠNeat ly
Ġenab ling
Ġfear less
Ġswoop ing
Ġswoop ed
Ġreprie ved
Ġintention ally
Ġapolog ises
ĠSqueez es
not ch
tick le
tick ler
Ġir on
Ġfid dle
Ġfid gety
Ġwiel ds
Ġwiel ding
Ġcha os
Ġcou rage
Ġcou pled
Ġcal culated
Ġmil ks
Ġmil king
Ġpris es
Ġpris ed
ĠBra in
Ġdin ner
ĠFe el
Ġstorm ing
Ġinsp ired
Ġthri ce
Ġnuts hell
Ġsizz ling
ĠUs man
Ġplunder ing
ĠStri ke
ĠStri kes
Ġdefin ition
Ġcompens ate
Ġcompens ates
Ġclinch ing
Ġflam ingo
Ġmirac le
Ġmirac ulously
six th
Ġreplace ments
Ġrespons ible
Ġextravag anza
Ġbludgeon ing
Ġdisparag ingly
Ġassoci ate
Ġwoe fully
aaa ah
ĠChet an
ĠChet tith
Ġachie ve
Ġachie ved
ĠContin uing
Ġinevit ably
sa fe
scor ing
Ġul timate
ĠSett ling
Ġsus pected
Ġfool ing
ĠRel ied
Ġcandy floss
ĠTrick les
ĠBla zed
Ġdem oral
Ġdev oured
ĠFortun e
ĠGen ius
Ġnib ble
Ġoutsm arted
Ġoutsm arting
Ġsil k
Ġrec eption
Ġart ist
boost ing
Ġscree ches
Ġscree ching
ĠOb liged
feet ed
Ġasc ertain
Ġasc endanc
Ġ1237 17
Ġacti vation
Ġprop ortion
Ġweak ness
Ġopponent s
Ġshowc ase
Ġshowc ased
Ġappreci ation
Ġabort ing
Ġteleg raphed
Ġfaith ful
Ġemphat ic
Ġemphat ically
Ġembarrass ing
Ġsacrific es
Ġsurrender s
Ġmillimet ers
Ġmathemat ically
Ġannoun ced
Ġannoun ces
Man oj
che ck
kn ee
pl us
press ure
tw ir
your self
Ġi ota
Ġuff f
Ġign ited
ĠShi fts
helic opter
Ġfix ture
Ġburn t
deli ver
Ġrely ing
Ġrich ocheted
ĠRif led
ĠPier ces
ĠAj inkya
ĠTill akar
Ġoverd ose
Ġovercorre ction
Ġmul ti
Ġmort als
Ġpot entially
ĠDam n
ĠDiff icult
ĠCelebr ation
ĠCrisp ly
ĠBon us
ĠBip in
Ġdod o
Ġdexter ity
ĠFla wless
Ġstom ps
elb owed
Ġinad vertent
Ġinher its
Ġinten ding
ĠVal uable
ĠYu zvendra
Ġfruit ful
Ġlov in
ĠLak sh
Ġsigna lling
Ġatt emped
Ġattra ctive
Ġhust led
Ġrede emed
Ġreje ction
Ġmanipul ating
ĠEmp loys
Ġsca le
agam age
Ġcontribut ion
ĠPredict able
ĠZoom s
Ġvulner able
Ġperp lexed
Ġdisar ray
Ġdisman tles
Ġjub ilation
Ġunp unished
Ġuncor ks
Ġunve iled
Ġunderestim ates
ĠCons idering
ĠConce ded
ĠPrec isely
ĠEns ures
Ġlim ited
Ġconnn ected
ĠThyagar ajan
ĠOverc ooked
ĠSwir ls
Ġseeming ly
Ġelic its
Ġflood lights
Ġaccom p
Ġaccel er
ĠProble m
ĠAdjust s
Ġpremeditating ly
Ġprodu cing
Ġtempt ation
Ġbarr el
Ġgrate ful
Ġrelcut ant
Ġgrima cing
Ġserv ice
ĠDelic ate
ĠFrustr ated
Ġsinew y
Ġindic ating
Ġintrod uction
Ġintercept ing
Ġmemor ies
Ġjustif y
Ġdrown ed
Ġblitz krie
Ġincreas ingly
Ġsumpt uously
ĠKookab urra
Ġmedioc re
Ġintimid ated
Ġinexper ience
Ġquintess entially
Ġneighb ours
Ak shat
Hyder abad
Poor an
Sar faraz
Te jas
Tan ush
Warn er
chest ed
dis guised
dig it
Ġtas k
ĠSou rav
ĠSlo ppy
ĠSne aked
ĠSreen ath
ĠSile nce
ĠScy thed
ĠSeri ously
Ġtomor row
Ġoust ide
Ġoxy gen
Ġsas hays
Ġsou venir
Ġsag a
Ġsung lasses
aray ana
Ġfant asy
Ġbiri yanis
Ġwri gg
Ġrous ing
Ġreper toire
ĠMang aung
ĠMana ged
ĠMohn ish
ĠMbang wa
ĠRub bish
ĠKag iso
ĠPard on
ĠPop eye
ĠPram od
ĠPHH UUUU
ĠAim less
Ġcaut ion
Ġcatap ult
Ġcuc umber
Ġctr l
ĠTro phy
ĠTrav is
ĠTarg ets
ĠTyp ically
Ġagh ast
Ġali gn
Ġmelt down
Ġpis tols
Ġpir ou
Ġpendul um
Ġpleas ure
Ġpray ers
Ġpandem onium
Ġformal ity
ĠDud udu
ĠDill on
ĠDili p
ĠDomin ic
ĠCam eron
ĠCome back
ĠCram ps
ĠCare ful
ĠBris bane
ĠBless ing
ĠBlin der
ĠBelie ve
utra li
Ġgrin ding
Ġgarg antuan
Ġdib bly
Ġdaught er
Ġdoll ars
Ġdile mma
Ġdimin utive
Ġdece ive
Ġdeje cted
Ġdevel oped
Ġdemol ished
ĠFort uitous
ĠFIN ALLY
ĠFinis hes
ĠFabi an
ĠFiness e
ĠFIF TY
Ġstal king
Ġstrew n
Ġinvis ible
Ġindi pper
Ġthwar ted
ĠHig hest
ĠHoodwin ked
ĠGajan an
ĠNerv y
ĠVil jeon
ĠVai bhav
ĠYog esh
Ġlumb ers
Ġlau ches
ĠPatab endige
Ġcolor s
Ġhosp it
Ġrecl aim
Ġbefud dled
Ġbejeez us
ĠOUTsur ance
Ġheavi ly
ĠPosit ive
Ġalbe it
ĠMahip al
Ġadjecti ves
Ġlobb ing
ĠAbhin av
Ġspontane ous
taint y
ĠMAAMM AA
ĠPresent ing
ĠAntici pated
ĠDROPP ED
Ġdisres pectful
Ġdiscuss ion
Ġunbe aten
Ġunwant ed
Ġunthink able
MIAA AHH
ĠSurpris es
ocument ed
ĠVenkates h
Ġbelated ly
Ġencou ragement
Ġengul f
Ġtrampol ine
Ġimmen se
Ġprojecti le
Ġparticul arly
ĠPrabhsim ran
Ġapplic ation
Ġabomin able
Ġanticlima ctically
Ġsubdu ed
ĠKaluhal am
Ġfairyta le
Ġenthus i
ĠClobber ed
Ġretali ates
ĠSubrot o
Ġmerci lessly
Ġemergen cy
ĠImprovis ation
Ġcheerlead ers
ĠInstagram mable
Ġgrandchild ren
Ġthunderbol t
ĠChettith ody
Ġascendanc y
ĠTillakar at
Ġinadvertent ly
Ġblitzkrie g
