{"<|endoftext|>":0,"<pad>":1,"<unk>":2,"!":3,"\"":4,"#":5,"$":6,"%":7,"&":8,"'":9,"(":10,")":11,"*":12,"+":13,",":14,"-":15,".":16,"/":17,"0":18,"1":19,"2":20,"3":21,"4":22,"5":23,"6":24,"7":25,"8":26,"9":27,":":28,";":29,"<":30,"=":31,">":32,"?":33,"@":34,"A":35,"B":36,"C":37,"D":38,"E":39,"F":40,"G":41,"H":42,"I":43,"J":44,"K":45,"L":46,"M":47,"N":48,"O":49,"P":50,"Q":51,"R":52,"S":53,"T":54,"U":55,"V":56,"W":57,"X":58,"Y":59,"Z":60,"[":61,"\\":62,"]":63,"^":64,"_":65,"`":66,"a":67,"b":68,"c":69,"d":70,"e":71,"f":72,"g":73,"h":74,"i":75,"j":76,"k":77,"l":78,"m":79,"n":80,"o":81,"p":82,"q":83,"r":84,"s":85,"t":86,"u":87,"v":88,"w":89,"x":90,"y":91,"z":92,"{":93,"|":94,"}":95,"~":96,"¡":97,"¢":98,"£":99,"¤":100,"¥":101,"¦":102,"§":103,"¨":104,"©":105,"ª":106,"«":107,"¬":108,"®":109,"¯":110,"°":111,"±":112,"²":113,"³":114,"´":115,"µ":116,"¶":117,"·":118,"¸":119,"¹":120,"º":121,"»":122,"¼":123,"½":124,"¾":125,"¿":126,"À":127,"Á":128,"Â":129,"Ã":130,"Ä":131,"Å":132,"Æ":133,"Ç":134,"È":135,"É":136,"Ê":137,"Ë":138,"Ì":139,"Í":140,"Î":141,"Ï":142,"Ð":143,"Ñ":144,"Ò":145,"Ó":146,"Ô":147,"Õ":148,"Ö":149,"×":150,"Ø":151,"Ù":152,"Ú":153,"Û":154,"Ü":155,"Ý":156,"Þ":157,"ß":158,"à":159,"á":160,"â":161,"ã":162,"ä":163,"å":164,"æ":165,"ç":166,"è":167,"é":168,"ê":169,"ë":170,"ì":171,"í":172,"î":173,"ï":174,"ð":175,"ñ":176,"ò":177,"ó":178,"ô":179,"õ":180,"ö":181,"÷":182,"ø":183,"ù":184,"ú":185,"û":186,"ü":187,"ý":188,"þ":189,"ÿ":190,"Ā":191,"ā":192,"Ă":193,"ă":194,"Ą":195,"ą":196,"Ć":197,"ć":198,"Ĉ":199,"ĉ":200,"Ċ":201,"ċ":202,"Č":203,"č":204,"Ď":205,"ď":206,"Đ":207,"đ":208,"Ē":209,"ē":210,"Ĕ":211,"ĕ":212,"Ė":213,"ė":214,"Ę":215,"ę":216,"Ě":217,"ě":218,"Ĝ":219,"ĝ":220,"Ğ":221,"ğ":222,"Ġ":223,"ġ":224,"Ģ":225,"ģ":226,"Ĥ":227,"ĥ":228,"Ħ":229,"ħ":230,"Ĩ":231,"ĩ":232,"Ī":233,"ī":234,"Ĭ":235,"ĭ":236,"Į":237,"į":238,"İ":239,"ı":240,"Ĳ":241,"ĳ":242,"Ĵ":243,"ĵ":244,"Ķ":245,"ķ":246,"ĸ":247,"Ĺ":248,"ĺ":249,"Ļ":250,"ļ":251,"Ľ":252,"ľ":253,"Ŀ":254,"ŀ":255,"Ł":256,"ł":257,"Ń":258,"Ġt":259,"ĠS":260,"or":261,"Ġto":262,"er":263,"cor":264,"Ġo":265,"core":266,"he":267,"in":268,"ĠScore":269,"an":270,"Ġ1":271,"Ġs":272,"ar":273,"Ġthe":274,"Ġf":275,"==":276,"at":277,"ver":278,"le":279,"Ġb":280,"de":281,"ing":282,"ke":283,"Ġw":284,"Ġr":285,"ĠM":286,"ĠR":287,"on":288,"as":289,"ll":290,"un":291,"ĠK":292,"ĠP":293,"ĠA":294,"en":295,"Ġc":296,"it":297,"ĠT":298,"Ġa":299,"====":300,"Ġover":301,"ha":302,"es":303,"Ġon":304,"ri":305,"Ġof":306,"ed":307,"Ġm":308,"Ġp":309,"Ġfor":310,"ĠD":311,"om":312,"Ġrun":313,"ĠC":314,"ĠB":315,"Ġ2":316,"is":317,"and":318,"ut":319,"Ġba":320,"ra":321,"ĠJ":322,"Ġg":323,"Ġd":324,"ay":325,"ou":326,"Ġde":327,"ĠF":328,"Ġst":329,"Ġwas":330,"um":331,"gh":332,"OU":333,"ic":334,"ĠI":335,"el":336,"Ġsing":337,"Ġsingle":338,"Ġit":339,"id":340,"nd":341,"Ġone":342,"Ġand":343,"ow":344,"Ġ4":345,"ad":346,"Ġin":347,"am":348,"Ġle":349,"har":350,"Ġth":351,"ide":352,"ĠH":353,"Over":354,"al":355,"End":356,"ch":357,"Ġe":358,"han":359,"Ġ3":360,"========":361,"ĠG":362,"OUR":363,"Ġn":364,"ĠThe":365,"Ġball":366,"ep":367,"ĠN":368,"Ġta":369,"ot":370,"ĠV":371,"Ġ'":372,"us":373,"Ġruns":374,"Ġ5":375,"Ġ6":376,"ĠFOUR":377,"ent":378,"ur":379,"Ġ7":380,"icke":381,"Ġ8":382,"li":383,"Ġ9":384,"ard":385,"Ġor":386,"Ġleg":387,"ir":388,"icket":389,"der":390,"ĠRa":391,"ĠW":392,"ĠY":393,"Ġ10":394,"Ġtake":395,"ck":396,"Ġout":397,"Ġ0":398,"Ġstri":399,"Ġstrike":400,"ma":401,"atch":402,"Ġfr":403,"Ġno":404,"Ġ11":405,"ul":406,"Ġtaken":407,"iel":408,"ĠShar":409,"ĠSharma":410,"Ġ12":411,"ary":412,"Ġmid":413,"Ġfiel":414,"ght":415,"'.":416,"Ġl":417,"to":418,"Ġoff":419,"Ġ13":420,"ĠPat":421,"hi":422,"ingh":423,"ĠSingh":424,"ĠL":425,"Ġthey":426,"Ġsi":427,"ine":428,"Ġfrom":429,"ded":430,"ti":431,"sh":432,"Ġback":433,"Ġthr":434,"Ġ14":435,"Ġgo":436,"ough":437,"ate":438,"ight":439,"ats":440,"Ġfielder":441,"ings":442,"ss":443,"ly":444,"================":445,"Ġpus":446,"Ġthrough":447,"our":448,"Ġsix":449,"ds":450,"Ġscore":451,"Ġfour":452,"il":453,"way":454,"Ġ15":455,"ce":456,"IX":457,"Ġballs":458,"pp":459,"hed":460,"Ġcom":461,"av":462,"man":463,"Ġmatch":464,"ull":465,"ell":466,"od":467,"Ġat":468,"very":469,"Ġco":470,"ked":471,"Ġaway":472,"con":473,"st":474,"med":475,"Ġwicket":476,"Ġsixes":477,"Ġdeli":478,"Ġfours":479,"Ġrate":480,"Ġcover":481,"Ġdelivery":482,"riv":483,"Ġovers":484,"ud":485,"Ġke":486,"Ġbow":487,"Ġinto":488,"ĠSIX":489,"wo":490,"Ġkeep":491,"ith":492,"Ġ16":493,"ĠCha":494,"ward":495,"et":496,"Ġwickets":497,"ĠU":498,"ro":499,"Ġby":500,"Ġh":501,"nn":502,"Ġwor":503,"ill":504,"10":505,"Ġ20":506,"11":507,"Ġsh":508,"umar":509,"13":510,"12":511,"ong":512,"14":513,"Ġtwo":514,"ya":515,"Ġdriv":516,"Ġre":517,"15":518,"qu":519,"16":520,"ham":521,"ers":522,"oh":523,"Ġ17":524,"ande":525,"Ġpl":526,"ft":527,"und":528,"wicket":529,"17":530,"ĠPatel":531,"Ġlong":532,"ĠKumar":533,"per":534,"Ġwide":535,"urr":536,"ump":537,"Ġecon":538,"Ġeconom":539,"Ġeconomy":540,"th":541,"adav":542,"ĠYadav":543,"ks":544,"ĠID":545,"own":546,"00":547,"18":548,"ment":549,"rip":550,"eam":551,"ched":552,"',":553,"'s":554,"Ġinn":555,"Ġteam":556,"ĠJa":557,"Ġinnings":558,"ĠKhan":559,"led":560,"Ġeas":561,"Ġ18":562,"hes":563,"Ġman":564,"Ġdown":565,"iv":566,"Ġbe":567,"raight":568,"Ġfine":569,"'t":570,"ee":571,"Ġbowl":572,"ged":573,"ort":574,"ick":575,"ird":576,"unched":577,"Ġside":578,"Ġthird":579,"tion":580,"ome":581,"pped":582,"ash":583,"arn":584,"Ġrecor":585,"Ġrecorded":586,"Ġstraight":587,"Ġar":588,"Ġdriven":589,"ish":590,"19":591,"Ġbats":592,"cc":593,"ja":594,"Ġbatsman":595,"Ġev":596,"ov":597,"Ġ19":598,"Ġqu":599,"Ġdes":600,"cked":601,"Ġgu":602,"Ġ\"":603,"Ġocc":604,"Ġevent":605,"Ġquick":606,"come":607,"ĠPand":608,"Ġcomment":609,"Ġdesc":610,"ĠInn":611,"ription":612,"Ġdescription":613,"Ġcommentary":614,"In":615,"Ġoutcome":616,"urred":617,"Ġoccurred":618,"ĠInns":619,"ai":620,"Ġguide":621,"ĠPandya":622,"re":623,"ross":624,"ends":625,"haw":626,"ĠSt":627,"oul":628,"Ġdef":629,"bo":630,"la":631,"wards":632,"OUT":633,"son":634,"ĠE":635,"Ġbut":636,"Ġeasy":637,"Ġcan":638,"Ġarm":639,"Ġplay":640,"Ġtowards":641,"ng":642,"Ġmov":643,"ol":644,"Ġonly":645,"Ġsc":646,"Ġcross":647,"ĠDJ":648,"Ġgood":649,"op":650,"im":651,"ĠSh":652,"Ġscam":653,"Ġscamper":654,"Ġpushes":655,"ates":656,"Ġpunched":657,"Ġarms":658,"Ġpush":659,"Ġworks":660,"================================":661,"ĠRA":662,"Ġmoving":663,"Ġtapped":664,"udged":665,"Ġgent":666,"Ġgentle":667,"board":668,"Ġrot":669,"Ġscoreboard":670,"Ġrotates":671,"Ġdot":672,"Ġnudged":673,"Ġguided":674,"Ġdefen":675,"ĠMor":676,"ap":677,"ĠKoh":678,"ant":679,"ub":680,"ĠKohli":681,"rav":682,"side":683,"ound":684,"up":685,"ĠSP":686,"ĠAsh":687,"ĠHar":688,"ĠSK":689,"uss":690,"deja":691,"her":692,"kar":693,"ris":694,"ag":695,"ĠSm":696,"Ġis":697,"ĠPP":698,"ĠKar":699,"ĠJadeja":700,"ĠDhaw":701,"ĠDhawan":702,"Ġan":703,"ĠRah":704,"Ġup":705,"ĠSam":706,"ab":707,"hat":708,"Ġwell":709,"ĠOUT":710,"Ġbound":711,"Ġhe":712,"ram":713,"oham":714,"ĠDA":715,"ngth":716,"ĠPo":717,"Ġlength":718,"one":719,"Ġboundary":720,"ĠWarn":721,"win":722,"ĠSR":723,"ac":724,"ĠPathan":725,"umm":726,"hir":727,"Ġkeeper":728,"Ġall":729,"ĠAr":730,"raj":731,"arine":732,"hak":733,"Ġwith":734,"ey":735,"ĠMoham":736,"Ġstump":737,"ĠAshwin":738,"yer":739,"ully":740,"fully":741,"ff":742,"illi":743,"Ġoutside":744,"ĠNarine":745,"ĠO":746,"Ġbye":747,"ang":748,"ĠMar":749,"ĠCH":750,"jan":751,"ĠAB":752,"inds":753,"oni":754,"deep":755,"andeep":756,"lo":757,"ĠMS":758,"Ġworked":759,"Ġshot":760,"ina":761,"ana":762,"oes":763,"hal":764,"ont":765,"ĠKa":766,"Ġal":767,"ĠDh":768,"ĠSmith":769,"Ġgap":770,"ure":771,"Ġse":772,"ĠRaina":773,"Ġhis":774,"ding":775,"kat":776,"Ġhi":777,"ĠRG":778,"ive":779,"atson":780,"ĠMohammed":781,"Ġbowler":782,"ĠCA":783,"ĠWatson":784,"ĠMc":785,"ĠWarner":786,"uv":787,"ĠMa":788,"Ġad":789,"ĠSa":790,"ĠAM":791,"Ġdoes":792,"hane":793,"Ġlo":794,"Ġthat":795,"ĠMM":796,"ĠIyer":797,"Ġmis":798,"ia":799,"ĠMK":800,"Ġcut":801,"sive":802,"wal":803,"thi":804,"Ġbowling":805,"Ġforward":806,"utt":807,"ĠRahul":808,"ĠAD":809,"Ġro":810,"Ġgoes":811,"ĠDhoni":812,"ĠPoll":813,"att":814,"Ġump":815,"ppa":816,"ĠKul":817,"Ġumpir":818,"ĠRahane":819,"Ġtim":820,"Ġsends":821,"less":822,"Ġadded":823,"ĠBrav":824,"ĠBravo":825,"ĠAR":826,"ĠAh":827,"ĠJC":828,"ik":829,"we":830,"timed":831,"ĠSS":832,"Ġfinds":833,"ess":834,"ast":835,"ashid":836,"ĠAb":837,"ace":838,"FOUR":839,"ĠSto":840,"ayle":841,"ĠGayle":842,"tha":843,"Ġpad":844,"thappa":845,"ĠUthappa":846,"Ġcont":847,"shan":848,"Ġdeep":849,"here":850,"ĠPollard":851,"thik":852,"Ġfree":853,"ĠKarthik":854,"ĠSu":855,"Ġpit":856,"amb":857,"Ġbowled":858,"Ġroom":859,"ind":860,"Ġbeat":861,"IN":862,"Ġdoesn":863,"eh":864,"Ġleft":865,"AT":866,"Ġpr":867,"ĠChaw":868,"ĠChawla":869,"ĠHH":870,"Ġpitch":871,"ore":872,"ans":873,"Ġends":874,"ĠPande":875,"ĠSamson":876,"ĠPandey":877,"ped":878,"Ġcann":879,"ĠJP":880,"oult":881,"Ġany":882,"bha":883,"Ġbeaten":884,"ĠMal":885,"bhajan":886,"ower":887,"Ġrac":888,"ĠChahar":889,"ak":890,"ran":891,"rah":892,"umrah":893,"ishra":894,"Ġshoul":895,"ĠKL":896,"ĠMcC":897,"ues":898,"ussell":899,"Ġcontin":900,"llis":901,"end":902,"Ġpress":903,"Ġraces":904,"ĠRussell":905,"ĠRD":906,"Ġsumm":907,"Ġsummary":908,"Ġpressure":909,"Ġcontinues":910,"Ġplays":911,"ĠKA":912,"Ġcram":913,"ĠChahal":914,"Ġblo":915,"esh":916,"Ġcannot":917,"Ġcramped":918,"Ġoffer":919,"Ġmistimed":920,"Ġdu":921,"Ġbu":922,"Ġtight":923,"where":924,"Ġwatch":925,"Ġtu":926,"Ġdefensive":927,"Ġshoulder":928,"Ġanywhere":929,"Ġbuil":930,"Ġforce":931,"als":932,"Ġbuilding":933,"Ġshoulders":934,"ĠRay":935,"Ġblocked":936,"Ġtucked":937,"kel":938,"ĠMorkel":939,"Ġwatchfully":940,"ĠRana":941,"ĠMishra":942,"ge":943,"udu":944,"ĠCh":945,"ĠRayudu":946,"ĠRashid":947,"ĠButt":948,"GH":949,"ĠVilli":950,"ĠVilliers":951,"Ġsol":952,"ĠRV":953,"Ġalone":954,"ler":955,"Ġsolid":956,"Ġdefended":957,"Ġsolidly":958,"GHT":959,"ĠJJ":960,"oy":961,"na":962,"ĠKH":963,"ĠPless":964,"ĠPlessis":965,"os":966,"ĠHarbhajan":967,"ĠButtler":968,"Ġumpire":969,"UGHT":970,"ĠCAUGHT":971,"Ġtiming":972,"ĠKallis":973,"ĠBumrah":974,"ĠPant":975,"ĠYS":976,"ĠMarsh":977,"Ġex":978,"ĠRR":979,"Ġsp":980,"his":981,"ambhir":982,"ĠGambhir":983,"inga":984,"ta":985,"ock":986,"ib":987,"ĠJH":988,"ĠKK":989,"cond":990,"ĠMA":991,"vi":992,"ĠKD":993,"ct":994,"ĠJD":995,"fts":996,"Ġsecond":997,"ĠSV":998,"ĠAhmed":999,"Ġha":1000,"ĠGill":1001,"gar":1002,"ĠVi":1003,"ner":1004,"Ġbet":1005,"ew":1006,"tra":1007,"lit":1008,"ĠThak":1009,"ĠThakur":1010,"well":1011,"ubman":1012,"Ġ22":1013,"ĠAgar":1014,"kes":1015,"Ġcovers":1016,"ful":1017,"ĠVar":1018,"ĠMalinga":1019,"hami":1020,"jha":1021,"ĠOjha":1022,"ĠMu":1023,"ne":1024,"ath":1025,"air":1026,"CH":1027,"ĠSA":1028,"ween":1029,"Ġbetween":1030,"az":1031,"ĠShubman":1032,"Ġchan":1033,"ĠAT":1034,"Ġ23":1035,"xwell":1036,"alled":1037,"uvraj":1038,"XI":1039,"Ġhit":1040,"ĠSandeep":1041,"Ġ25":1042,"Ġshort":1043,"fe":1044,"tal":1045,"ĠMaxwell":1046,"umb":1047,"iraj":1048,"ĠYK":1049,"ĠTi":1050,"ĠGJ":1051,"ĠHuss":1052,"Ġtotal":1053,"jay":1054,"ence":1055,"ĠTiw":1056,"ĠST":1057,"50":1058,"Ġextra":1059,"Ġdrive":1060,"ĠUT":1061,"Ġfence":1062,"ĠSuper":1063,"ĠShami":1064,"Ġchance":1065,"Ġas":1066,"ĠYuvraj":1067,"ĠPr":1068,"ĠTiwary":1069,"MAT":1070,"MATCH":1071,"ood":1072,"nad":1073,"lay":1074,"ĠVijay":1075,"ĠRoy":1076,"ĠKock":1077,"ishan":1078,"ĠKishan":1079,"ĠZ":1080,"nadkat":1081,"Ġ50":1082,"ion":1083,"Ġ100":1084,"ton":1085,"ĠSN":1086,"Ġbeats":1087,"ada":1088,"ĠHussey":1089,"ĠMill":1090,"Ġ26":1091,"ĠThat":1092,"Ġthis":1093,"ĠSiraj":1094,"ĠDP":1095,"ĠIshan":1096,"ĠBoult":1097,"inis":1098,"Ġ24":1099,"Ġ21":1100,"ashed":1101,"ĠPJ":1102,"atting":1103,"Ġ33":1104,"Ġfield":1105,"Ġwon":1106,"ve":1107,"ĠDL":1108,"ĠPar":1109,"ĠSaha":1110,"urn":1111,"Ġgro":1112,"Ġground":1113,"Ġpads":1114,"ĠStoinis":1115,"ĠIK":1116,"ĠSL":1117,"athi":1118,"Ġ29":1119,"ier":1120,"ĠMJ":1121,"ĠBB":1122,"Ġ27":1123,"ara":1124,"ue":1125,"ĠCurr":1126,"ĠCurran":1127,"ere":1128,"Ġ28":1129,"Play":1130,"ĠBr":1131,"les":1132,"gi":1133,"Ġv":1134,"ĠQ":1135,"ĠAn":1136,"bada":1137,"ĠRabada":1138,"able":1139,"25":1140,"Ġget":1141,"Ġrop":1142,"ĠSM":1143,"Ġ34":1144,"ĠMiller":1145,"ĠTA":1146,"ning":1147,"ĠSha":1148,"Ġ35":1149,"ĠWP":1150,"ĠUnadkat":1151,"opal":1152,"ĠAJ":1153,"ĠDR":1154,"Ġpo":1155,"orm":1156,"aut":1157,"int":1158,"Ġ32":1159,"ins":1160,"Ġplayed":1161,"ĠHV":1162,"ullum":1163,"ĠMcCullum":1164,"cher":1165,"Ġ30":1166,"ĠVR":1167,"ail":1168,"Ġ40":1169,"ĠMorris":1170,"ĠMP":1171,"Ġ42":1172,"Ġper":1173,"em":1174,"ĠAgarwal":1175,"au":1176,"Ġ36":1177,"ric":1178,"ĠPA":1179,"fort":1180,"Ġ31":1181,"ĠBad":1182,"ĠShah":1183,"ĠInd":1184,"fter":1185,"aj":1186,"ĠVin":1187,"ĠJA":1188,"Ġ45":1189,"ĠHe":1190,"Ġcomfort":1191,"ĠKuldeep":1192,"ling":1193,"ummins":1194,"hek":1195,"Ġbyes":1196,"Ġ39":1197,"Ġtoss":1198,"Ġdis":1199,"Ġafter":1200,"ĠDub":1201,"ĠKarti":1202,"Ġrunning":1203,"ĠIndi":1204,"auti":1205,"ĠPer":1206,"33":1207,"Ġcalled":1208,"are":1209,"ĠCummins":1210,"ĠSim":1211,"aul":1212,"Ġbat":1213,"Ġ37":1214,"off":1215,"ĠAl":1216,"ING":1217,"eyn":1218,"ĠLate":1219,"INGS":1220,"hakib":1221,"ses":1222,"ĠSE":1223,"Ġlofts":1224,"Ġcatch":1225,"ĠJay":1226,"Ġ47":1227,"Ġpull":1228,"Ġturn":1229,"ĠFl":1230,"ĠVinay":1231,"Ġ66":1232,"ĠSang":1233,"oo":1234,"Ġhigh":1235,"ĠDS":1236,"ges":1237,"war":1238,"ĠMark":1239,"ĠSteyn":1240,"Ġ46":1241,"illiam":1242,"karn":1243,"ĠKulkarn":1244,"ĠKulkarni":1245,"Ġ44":1246,"iny":1247,"ĠWilliam":1248,"ĠRavi":1249,"ĠBhat":1250,"Ġmore":1251,"ade":1252,"uminy":1253,"Ġease":1254,"autifully":1255,"Ġ54":1256,"ĠAv":1257,"Ġ49":1258,"Ġ55":1259,"ps":1260,"no":1261,"ĠDuminy":1262,"Ġ52":1263,"Ġ57":1264,"mad":1265,"Ġ62":1266,"20":1267,"ĠWilliamson":1268,"Ġ43":1269,"Ġ48":1270,"Ġpoint":1271,"75":1272,"Ġ60":1273,"let":1274,"Ġ38":1275,"ĠArcher":1276,"67":1277,"Ġ41":1278,"SIX":1279,"Ġ59":1280,"eer":1281,"Ġ85":1282,"ripathi":1283,"ĠTripathi":1284,"Ġres":1285,"ĠTa":1286,"gn":1287,"Ġpast":1288,"Ġdiv":1289,"Ġso":1290,"ĠTM":1291,"Ġ61":1292,"Ġj":1293,"ĠDW":1294,"Ġ74":1295,"Ġsign":1296,"ĠKings":1297,"owerful":1298,"mon":1299,"Ġ94":1300,"Ġ76":1301,"aik":1302,"shdeep":1303,"Ġ56":1304,"Ġhad":1305,"Ġ72":1306,"Ġ63":1307,"ĠRP":1308,"Ġ83":1309,"Bow":1310,"ĠShort":1311,"ĠSo":1312,"ĠKartik":1313,"Ġ69":1314,"Ġ53":1315,"Ġ75":1316,"ĠMus":1317,"Ġtoo":1318,"ĠSai":1319,"atia":1320,"ĠTew":1321,"ĠTewatia":1322,"ĠAC":1323,"ĠShakib":1324,"ĠHas":1325,"endul":1326,"Ġ67":1327,"ĠTendul":1328,"ĠTendulkar":1329,"Ġ73":1330,"Ġ88":1331,"inch":1332,"wad":1333,"Ġ80":1334,"aught":1335,"ĠGaik":1336,"ĠGaikwad":1337,"ĠVarun":1338,"Ġ51":1339,"Ġcome":1340,"Ġ90":1341,"Batting":1342,"Inn":1343,"NINGS":1344,"INNINGS":1345,"Bowling":1346,"Innings":1347,"Ġ68":1348,"ĠFinch":1349,"Ġ87":1350,"ĠRahman":1351,"ĠRaj":1352,"ashing":1353,"Ġ70":1354,"Ġplace":1355,"================================================":1356,"================================================================================":1357,"undar":1358,"ĠEd":1359,"ĠSundar":1360,"Ġ99":1361,"ĠHen":1362,"Ġfar":1363,"ĠXI":1364,"Ġhead":1365,"Ġ71":1366,"Ġpace":1367,"Ġ77":1368,"Ġ98":1369,"ĠHasan":1370,"Ġ58":1371,"ehra":1372,"ashington":1373,"Ġcuts":1374,"LT":1375,"Ġ92":1376,"ĠChris":1377,"!!":1378,"ain":1379,"ĠIt":1380,"Ġplacement":1381,"Ġ89":1382,"ĠCV":1383,"Ġ82":1384,"Ġ78":1385,"pre":1386,"ĠArshdeep":1387,"bs":1388,"idh":1389,"ulla":1390,"wag":1391,"Ġ64":1392,"Ġ84":1393,"ĠSeh":1394,"ĠSehwag":1395,"Ġsplit":1396,"Ġun":1397,"ĠJM":1398,"asidh":1399,"ĠAli":1400,"ĠBA":1401,"Ġ65":1402,"Ġ93":1403,"Ġpushed":1404,"Ġhar":1405,"ĠNehra":1406,"Ġsplits":1407,"Ġ86":1408,"rish":1409,"ĠPad":1410,"ĠBish":1411,"ĠAbd":1412,"noi":1413,"ĠBishnoi":1414,"ĠEdged":1415,"hishek":1416,"ĠCaught":1417,"ĠBhatia":1418,"Ġhard":1419,"ils":1420,"Ġ95":1421,"ason":1422,"Ġ81":1423,"Ġhas":1424,"Ġcomfortable":1425,"ques":1426,"riques":1427,"ĠPoor":1428,"kal":1429,"ĠSPD":1430,"edi":1431,"Ġ79":1432,"ands":1433,"Ġma":1434,"ĠDrav":1435,"ĠDravid":1436,"ikkal":1437,"ĠPadikkal":1438,"ooda":1439,"Ġseason":1440,"Ġcomp":1441,"Ġcl":1442,"Ġ97":1443,"ĠHooda":1444,"ĠSB":1445,"ĠPun":1446,"udhar":1447,"ĠParag":1448,"ĠKrish":1449,"iz":1450,"san":1451,"ĠPooran":1452,"Ġ104":1453,"Ġ91":1454,"PL":1455,"ĠFer":1456,"ohn":1457,"ĠKS":1458,"ĠHenriques":1459,"ĠStokes":1460,"umbai":1461,"ity":1462,"ghan":1463,"Ġcomplet":1464,"yder":1465,"ohnson":1466,"ust":1467,"Ġ96":1468,"mran":1469,"Ġ103":1470,"ĠJR":1471,"lena":1472,"lenaghan":1473,"ĠAbhishek":1474,"Ġcle":1475,"rist":1476,"ĠShaw":1477,"icked":1478,"ĠWashington":1479,"ĠDube":1480,"Ġ108":1481,"ĠPrasidh":1482,"ket":1483,"ĠKrishna":1484,"Ġ101":1485,"ĠChar":1486,"Ġ111":1487,"Ġ109":1488,"ĠMandeep":1489,"iswal":1490,"ĠJaiswal":1491,"kner":1492,"ĠMR":1493,"aulkner":1494,"Ġ110":1495,"ĠKV":1496,"Ġ125":1497,"Ġ114":1498,"Ġteams":1499,"ormat":1500,"ĠKaul":1501,"ĠMC":1502,"ĠAvesh":1503,"Ġ102":1504,"Ġ116":1505,"Ġ112":1506,"BK":1507,"inn":1508,"Ġ105":1509,"ĠBe":1510,"ague":1511,"Ġ120":1512,"Player":1513,"ĠSal":1514,"dy":1515,"Ġsl":1516,"ĠJohnson":1517,"Ġ113":1518,"mier":1519,"Ġwh":1520,"Ġk":1521,"ĠNair":1522,"ys":1523,"ĠShan":1524,"ĠRE":1525,"edge":1526,"Ġfull":1527,"ite":1528,"Ġ115":1529,"Ġ107":1530,"Ġ106":1531,"ĠNat":1532,"MD":1533,"ĠFaulkner":1534,"ĠSudhar":1535,"ĠSudharsan":1536,"arajan":1537,"ĠNatarajan":1538,"fect":1539,"Ġhim":1540,"ynn":1541,"ĠYBK":1542,"ĠLynn":1543,"ĠAS":1544,"Ġ126":1545,"hee":1546,"Ġ117":1547,"Ġline":1548,"adeem":1549,"Ġ121":1550,"Ġ119":1551,"ĠCJ":1552,"Ġ122":1553,"inda":1554,"rin":1555,"ĠAK":1556,"ĠGil":1557,"christ":1558,"Ġhip":1559,"ĠGilchrist":1560,"EK":1561,"ĠKC":1562,"eddy":1563,"stow":1564,"airstow":1565,"oot":1566,"ĠReddy":1567,"Ġ123":1568,"ĠShankar":1569,"ĠNe":1570,"ĠBairstow":1571,"ĠCl":1572,"uly":1573,"Ġ133":1574,"ĠDinda":1575,"Ġ118":1576,"Ġsa":1577,"Ġdiving":1578,"ĠGang":1579,"ĠGanguly":1580,"haran":1581,"Ġ128":1582,"alaj":1583,"ĠMEK":1584,"Ġunder":1585,"ett":1586,"kara":1587,"Ġti":1588,"ĠYash":1589,"elhi":1590,"ĠSC":1591,"ĠTriv":1592,"ĠHol":1593,"ĠTrivedi":1594,"Ġ127":1595,"uk":1596,"dene":1597,"ĠBalaj":1598,"ĠBalaji":1599,"ass":1600,"uthee":1601,"awar":1602,"ĠJayawar":1603,"ĠJayawardene":1604,"ĠNadeem":1605,"ĠMura":1606,"rinath":1607,"je":1608,"litharan":1609,"ĠMuralitharan":1610,"tian":1611,"ose":1612,"ely":1613,"Ġthere":1614,"Ġtimed":1615,"Ġrope":1616,"wood":1617,"aced":1618,"Ġgets":1619,"ĠGopal":1620,"inny":1621,"ĠAnd":1622,"ĠMatch":1623,"hipped":1624,"SK":1625,"KK":1626,"SR":1627,"Ġ130":1628,"ĠMan":1629,"baz":1630,"ug":1631,"ĠHolder":1632,"fectly":1633,"ĠBJ":1634,"ĠSy":1635,"ĠMarkram":1636,"zz":1637,"ĠLR":1638,"ĠMcClenaghan":1639,"ord":1640,"asen":1641,"Ġfielding":1642,"Ġclear":1643,"Ġplaced":1644,"ĠPunja":1645,"kata":1646,"olkata":1647,"ĠMG":1648,"ĠSuperb":1649,"ĠBinny":1650,"fiz":1651,"tafiz":1652,"tafizur":1653,"ĠDPMD":1654,"ilak":1655,"lle":1656,"ider":1657,"ĠTahir":1658,"ĠSmashed":1659,"oss":1660,"me":1661,"Ġsty":1662,"Ġsafe":1663,"akkara":1664,"ĠSangakkara":1665,"ws":1666,"lled":1667,"Ġkn":1668,"Ġedge":1669,"hav":1670,"Ġ135":1671,"Ġ124":1672,"adi":1673,"ĠNo":1674,"Ġstyle":1675,"Ġcr":1676,"ĠPerfectly":1677,"ĠNV":1678,"hiv":1679,"ĠWhipped":1680,"rilled":1681,"Ġguides":1682,"Ġ131":1683,"LE":1684,"ĠCharges":1685,"assy":1686,"Ġ129":1687,"adium":1688,"ĠJO":1689,"henn":1690,"Ġ150":1691,"hennai":1692,"leg":1693,"ĠFinds":1694,"ĠUses":1695,"ĠBeautifully":1696,"ĠChristian":1697,"Ġ134":1698,"ĠClassy":1699,"racked":1700,"ĠStadium":1701,"athe":1702,"Ġcompletes":1703,"ts":1704,"Ġ132":1705,"CB":1706,"ĠJad":1707,"ĠSouthee":1708,"ĠWarne":1709,"bu":1710,"Ġ[":1711,"ini":1712,"ĠIndians":1713,"]\"":1714,"athews":1715,"odge":1716,"ĠBang":1717,"ĠHodge":1718,"ĠCracked":1719,"night":1720,"ĠMathews":1721,"ĠPunched":1722,"Ġsm":1723,"legant":1724,"laasen":1725,"gus":1726,"ĠKlaasen":1727,"ĠDrilled":1728,"guson":1729,"ĠJadhav":1730,"eered":1731,"ĠVarma":1732,"ye":1733,"Ġ140":1734,"ĠFlicked":1735,"kesh":1736,"Ġ137":1737,"ĠLe":1738,"ĠMumbai":1739,"ĠCut":1740,"ricbu":1741,"ricbuzz":1742,"Ġsqu":1743,"reen":1744,"Ġrider":1745,"gan":1746,"ĠSteered":1747,"uj":1748,"ĠKM":1749,"ĠMorgan":1750,"MI":1751,"kumar":1752,"ĠElegant":1753,"arc":1754,"preet":1755,"ĠAk":1756,"Ġ142":1757,"Ġstumps":1758,"ĠStarc":1759,"ous":1760,"ĠRJ":1761,"Ġ136":1762,"ww":1763,"fiel":1764,"Ġ138":1765,"KKR":1766,"Ġcashed":1767,"ĠMustafizur":1768,"ches":1769,"Ġwho":1770,"field":1771,"myer":1772,"ĠHet":1773,"ĠHetmyer":1774,"ĠFerguson":1775,"ĠDil":1776,"ĠDilshan":1777,"icks":1778,"Ġdri":1779,"ĠPowerful":1780,"ĠTilak":1781,"ĠIn":1782,"ĠPunjab":1783,"wan":1784,"ĠGreen":1785,"ĠChalle":1786,"ĠChalleng":1787,"ĠChallengers":1788,"ĠMukesh":1789,"ĠMis":1790,"Ġch":1791,"Ġ139":1792,"ĠRid":1793,"ĠKnight":1794,"ĠRiders":1795,"DC":1796,"ley":1797,"monds":1798,"ĠSymonds":1799,"JG":1800,"ĠBadrinath":1801,"den":1802,"Ġ146":1803,"Ġear":1804,"ĠJans":1805,"ĠJansen":1806,"XIP":1807,"OW":1808,"ĠBOW":1809,"LED":1810,"ĠBOWLED":1811,"Ġpower":1812,"ĠImran":1813,"Ġjust":1814,"light":1815,"ĠTG":1816,"ortje":1817,"Ġsquare":1818,"log":1819,"ĠSimran":1820,"ĠAbdulla":1821,"aron":1822,"ĠSTR":1823,"ĠSur":1824,"ĠDT":1825,"ĠFull":1826,"art":1827,"ĠDesh":1828,"ĠMas":1829,"Ġstands":1830,"Ġref":1831,"abad":1832,"SRH":1833,"Ġslog":1834,"ĠAz":1835,"ĠHaz":1836,"ĠRoyals":1837,"Ġropes":1838,"Ġearly":1839,"Ġ141":1840,"pande":1841,"ĠDeshpande":1842,"oll":1843,"ĠNegi":1844,"ile":1845,"EN":1846,"lewood":1847,"Ġ145":1848,"MP":1849,"hom":1850,"asthan":1851,"ĠHazlewood":1852,"Ġtakes":1853,"len":1854,"ĠNortje":1855,"Ġ144":1856,"Ġ147":1857,"ĠNav":1858,"ĠShiv":1859,"oc":1860,"Ġdefle":1861,"Ġ143":1862,"alore":1863,"ohit":1864,"ĠBangalore":1865,"ĠEJG":1866,"eps":1867,"ricket":1868,"ĠTye":1869,"og":1870,"ĠSaini":1871,"ĠAhmad":1872,"rays":1873,"KXIP":1874,"ĠAaron":1875,"ĠDelhi":1876,"ĠHarpreet":1877,"ĠHyder":1878,"ĠHyderabad":1879,"ĠBrar":1880,"Ġclub":1881,"ĠTU":1882,"esan":1883,"Ġgiv":1884,"ĠVen":1885,"ies":1886,"ĠLa":1887,"anshi":1888,"ĠShahbaz":1889,"tham":1890,"owtham":1891,"ĠCon":1892,"ĠRao":1893,"Ġdrifts":1894,"ĠSO":1895,"ici":1896,"ĠJakat":1897,"ĠJakati":1898,"ĠKP":1899,"tone":1900,"ingstone":1901,"ivingstone":1902,"Ġclears":1903,"Ġ-":1904,"ĠLivingstone":1905,"ffort":1906,"ĠPV":1907,"Ġy":1908,"ĠMohammad":1909,"va":1910,"era":1911,"ĠNoor":1912,"ori":1913,"cks":1914,"ĠHead":1915,"ĠIndian":1916,"RCB":1917,"ugopal":1918,"ĠVenugopal":1919,"ig":1920,"ĠLH":1921,"Nile":1922,"Ġgone":1923,"ohra":1924,"oulter":1925,"ĠVohra":1926,"Ġ152":1927,"Ġumpires":1928,"ĠCR":1929,"Ġplayers":1930,"ĠHarris":1931,"Ġhave":1932,"ĠPre":1933,"Ġcrow":1934,"ĠCle":1935,"avi":1936,"ĠWhat":1937,"ĠRK":1938,"Ġfront":1939,"Ġ151":1940,"Ġ200":1941,"ashes":1942,"ĠBot":1943,"Ġ148":1944,"Ġrefer":1945,"all":1946,"ĠTV":1947,"erson":1948,"Ġchose":1949,"Ġcrowd":1950,"SU":1951,"ffici":1952,"This":1953,"Ġdeta":1954,"Ġdetails":1955,"ATE":1956,"ĠLeague":1957,"ĠPremier":1958,"Format":1959,"MEN":1960,"Offici":1961,"Toss":1962,"Ġnot":1963,"Ġhand":1964,"ĠSTATE":1965,"Playing":1966,"ĠXIs":1967,"Ġmale":1968,"ĠRESU":1969,"Ġreferee":1970,"MENT":1971,"Officials":1972,"ĠSTATEMENT":1973,"ĠRESULT":1974,"ip":1975,"uck":1976,"ora":1977,"ĠArora":1978,"Ġsw":1979,"erve":1980,"ĠKolkata":1981,"Ġreserve":1982,"ĠBotha":1983,"ĠGur":1984,"04":1985,"RR":1986,"Ġknee":1987,"idar":1988,"dhar":1989,"ĠPerera":1990,"bal":1991,"ĠPatidar":1992,"ĠTya":1993,"ĠTyagi":1994,"has":1995,"lor":1996,"05":1997,"Ġfl":1998,"qbal":1999,"umble":2000,"ĠRM":2001,"Ġresul":2002,"LTC":2003,"ĠTay":2004,"ĠTaylor":2005,"Ġ153":2006,"ĠClean":2007,"ĠLee":2008,"Ġ149":2009,"ĠMer":2010,"ĠKumble":2011,"Ġac":2012,"Ġ157":2013,"ony":2014,"Ġtime":2015,"ĠLS":2016,"Ġgiven":2017,"ĠChennai":2018,"ĠCoulter":2019,"ted":2020,"yas":2021,"Ġ160":2022,"unris":2023,"unrisers":2024,"Ġ154":2025,"ĠIPL":2026,"ank":2027,"ĠPow":2028,"ĠAnderson":2029,"Ġdro":2030,"ĠGony":2031,"ĠSre":2032,"amp":2033,"esanth":2034,"ĠSreesanth":2035,"ardik":2036,"pat":2037,"ĠPD":2038,"ĠIqbal":2039,"ĠGowtham":2040,"Ġmi":2041,"Ġ155":2042,"ĠBadoni":2043,"ĠSimmon":2044,"ĠSimmons":2045,"ĠSangwan":2046,"Ġacross":2047,"ĠNay":2048,"iet":2049,"atted":2050,"oa":2051,"ĠNLTC":2052,"ĠAgarkar":2053,"Ġright":2054,"ravind":2055,"ation":2056,"Ġ158":2057,"Ġbeautifully":2058,"Ġtr":2059,"ersen":2060,"ietersen":2061,"ĠPietersen":2062,"CSK":2063,"Ġpowerful":2064,"ody":2065,"ase":2066,"ithish":2067,"Ġway":2068,"utal":2069,"osit":2070,"batted":2071,"Ġ156":2072,"eroc":2073,"Ġferoc":2074,"Right":2075,"ĠSil":2076,"ĠSilva":2077,"aren":2078,"ĠMavi":2079,"abi":2080,"Ġdispat":2081,"22":2082,"ĠSW":2083,"Ġsail":2084,"ĠShivam":2085,"ĠEn":2086,"sw":2087,"uri":2088,"Ġloft":2089,"Ġferocity":2090,"ĠBrutal":2091,"poot":2092,"reyas":2093,"Ġsignalled":2094,"Ġbody":2095,"ĠDay":2096,"ffortless":2097,"ĠDayal":2098,"Ġ161":2099,"eks":2100,"hana":2101,"ĠTheeks":2102,"ĠTheekshana":2103,"ĠWh":2104,"ĠNM":2105,"ĠVG":2106,"ĠFlat":2107,"dain":2108,"run":2109,"ĠHarsh":2110,"Ġdisdain":2111,"ble":2112,"ĠAs":2113,"Ġmiles":2114,"ĠShuk":2115,"ĠMarkande":2116,"ĠAkash":2117,"ĠShukla":2118,"wa":2119,"ept":2120,"antner":2121,"Ġsmashes":2122,"Ġdispatched":2123,"idth":2124,"ĠVett":2125,"ormous":2126,"ĠVettori":2127,"Ġ159":2128,"ĠEnormous":2129,"WH":2130,"ĠNithish":2131,"Ġ166":2132,"cled":2133,"ĠRoyal":2134,"ĠAravind":2135,"lent":2136,"asuri":2137,"asuriya":2138,"Ġtier":2139,"ĠJayasuriya":2140,"ĠMassive":2141,"Ġwidth":2142,"ĠMalik":2143,"oakes":2144,"ĠGib":2145,"ĠGibbs":2146,"ĠLMP":2147,"ĠEffortless":2148,"ĠSuy":2149,"ĠPicks":2150,"inger":2151,"ĠSum":2152,"ĠNayar":2153,"Ġ162":2154,"ĠSantner":2155,"ordan":2156,"ruv":2157,"Ġdisdainful":2158,"ĠJur":2159,"ĠJurel":2160,"Ġposit":2161,"ĠSteps":2162,"Ġsailing":2163,"Ġvan":2164,"ĠInto":2165,"hamp":2166,"ĠDown":2167,"oudhar":2168,"ĠChoudhar":2169,"ĠWhite":2170,"ĠChoudhary":2171,"ĠLRPL":2172,"ĠHay":2173,"ĠLaunched":2174,"Ġposition":2175,"hm":2176,"ĠMahm":2177,"ĠMahmood":2178,"Ġresult":2179,"ĠHayden":2180,"ĠThamp":2181,"ĠThampi":2182,"ĠRS":2183,"ĠPWH":2184,"ki":2185,"ich":2186,"Ġbatting":2187,"so":2188,"ĠMuscled":2189,"ĠParn":2190,"ĠParnell":2191,"ĠNabi":2192,"emp":2193,"dle":2194,"se":2195,"swept":2196,"ĠRajasthan":2197,"ĠRas":2198,"Ġdeflect":2199,"ĠKam":2200,"Ġbel":2201,"other":2202,"ĠJordan":2203,"ĠSuman":2204,"aria":2205,"ĠDhruv":2206,"ĠPure":2207,"29":2208,"ĠRohit":2209,"ĠHop":2210,"ok":2211,"ĠML":2212,"AL":2213,"ĠDE":2214,"ĠDav":2215,"ould":2216,"Ġwere":2217,"ĠGC":2218,"Ġthree":2219,"24":2220,"ĠAzhar":2221,"Ġag":2222,"ewis":2223,"ĠLewis":2224,"asil":2225,"ĠSamad":2226,"ĠCL":2227,"89":2228,"Har":2229,"lin":2230,"Ġalso":2231,"ĠNavdeep":2232,"ĠBis":2233,"Ġbeen":2234,"ĠConway":2235,"ĠAm":2236,"ullah":2237,"ĠDavid":2238,"ĠWD":2239,"ĠBisla":2240,"ĠEx":2241,"ĠDe":2242,"ĠSalt":2243,"agar":2244,"Ġ164":2245,"cel":2246,"yan":2247,"ER":2248,"rand":2249,"cellent":2250,"Ġen":2251,"ĠTL":2252,"ĠPathir":2253,"ĠPathirana":2254,"com":2255,"Ġsignals":2256,"74":2257,"ĠGrand":2258,"homme":2259,"ĠGrandhomme":2260,"Ġ163":2261,"ĠAw":2262,"ĠSuyash":2263,"dev":2264,"ĠDare":2265,"ĠAwana":2266,"devils":2267,"ĠDaredevils":2268,"ĠThis":2269,"oun":2270,"idi":2271,"gidi":2272,"hank":2273,"ĠRagh":2274,"runal":2275,"ĠStub":2276,"ĠStubbs":2277,"oves":2278,"Ġhol":2279,"ian":2280,"tain":2281,"if":2282,"Ġagain":2283,"ht":2284,"ĠTH":2285,"Ġav":2286,"Ġslower":2287,"Ġfir":2288,"lights":2289,"Ġplayer":2290,"Match":2291,"Ġval":2292,"Ġavail":2293,"Ġinf":2294,"Ġisn":2295,"utting":2296,"Cha":2297,"ility":2298,"Ġgot":2299,"ĠNgidi":2300,"Ġshar":2301,"ĠAA":2302,"Ġdid":2303,"ably":2304,"Ġinside":2305,"Ġbackward":2306,"temp":2307,"ĠRyder":2308,"Ġder":2309,"Ġ165":2310,"Ġvs":2311,"Ġvalue":2312,"Ġsharp":2313,"ability":2314,"Ġhighlights":2315,"RL":2316,"ĠCricbuzz":2317,"ĠURL":2318,"ormation":2319,"Ġavailability":2320,"Ġinformation":2321,"ĠAbdul":2322,"Ġattemp":2323,"ĠRajpoot":2324,"44":2325,"ĠLB":2326,"ction":2327,"isted":2328,"wam":2329,"ann":2330,"ĠTamb":2331,"Ġlofted":2332,"ĠTambe":2333,"sin":2334,"Ġwides":2335,"mar":2336,"ohsin":2337,"ĠHarshit":2338,"Ġbelong":2339,"ĠBat":2340,"Ġbelongs":2341,"ĠJos":2342,"een":2343,"23":2344,"Ġ168":2345,"Ġlisted":2346,"ĠVijaykumar":2347,"Ġcap":2348,"ĠChand":2349,"ter":2350,"86":2351,"Ġli":2352,"wayne":2353,"uch":2354,"vs":2355,"score":2356,"//":2357,"://":2358,"cricbuzz":2359,"cricket":2360,"tps":2361,"league":2362,"Ġ167":2363,"indian":2364,"premier":2365,"www":2366,"https":2367,"scores":2368,"Ġcon":2369,"26":2370,"eeb":2371,"ĠMen":2372,"ĠNann":2373,"Ġ170":2374,"ĠShreyas":2375,"ĠNannes":2376,"ukh":2377,"ĠSunrisers":2378,"ĠNit":2379,"ashank":2380,"ĠShashank":2381,")\"":2382,"Ġwent":2383,"ĠBop":2384,"ĠHopes":2385,"ĠBopara":2386,"ting":2387,"Ġ171":2388,"ĠMahar":2389,"ĠTop":2390,"atters":2391,"Ġcaptain":2392,"ĠMohsin":2393,"ĠTh":2394,"ĠLBW":2395,"els":2396,"hun":2397,"hep":2398,"Ġstrikes":2399,"ĠCoo":2400,"ĠCooper":2401,"ĠWoakes":2402,"Ġtrou":2403,"Ġmiddle":2404,"Ġ175":2405,"69":2406,"Rashid":2407,"ĠHardik":2408,"kit":2409,"rukh":2410,"ĠShahrukh":2411,"ĠExcellent":2412,"match":2413,"ĠSurya":2414,"erat":2415,"yansh":2416,"ford":2417,"ĠStraight":2418,"Ġlets":2419,"uvanshi":2420,"ĠRaghuvanshi":2421,"73":2422,"ooks":2423,"ĠNagar":2424,"ipul":2425,"ect":2426,"ouches":2427,"ĠIng":2428,"Ġ169":2429,"adher":2430,"ĠWadher":2431,"Ġtrouble":2432,"ĠWadhera":2433,"Ġdives":2434,"aty":2435,"huv":2436,"ĠDB":2437,"cu":2438,"Ġswe":2439,"ikh":2440,"Ġcre":2441,"Ġne":2442,"ĠSuryakumar":2443,"ror":2444,"Ġare":2445,"half":2446,"xar":2447,"keerat":2448,"ĠBill":2449,"ĠBillings":2450,"ker":2451,"alit":2452,"Ġloses":2453,"Ġdrops":2454,"ĠBoll":2455,"Ġgl":2456,"ĠBollinger":2457,"leas":2458,"Ġ172":2459,"Ġhalf":2460,"ĠMay":2461,"Ġsett":2462,"line":2463,"Ġbatters":2464,"ĠMad":2465,"ĠAmla":2466,"ame":2467,"Ġcomfortably":2468,"cued":2469,"alth":2470,"Ġnow":2471,"ĠGar":2472,"Ġdeflects":2473,"Not":2474,"Ġholds":2475,"ailable":2476,"ĠAvailable":2477,"Ġattempt":2478,"orel":2479,"ĠPorel":2480,"ĠJacks":2481,"Ġstun":2482,"ĠValth":2483,"ĠValthaty":2484,"Raj":2485,"ĠCutting":2486,"aman":2487,"ĠDubey":2488,"leased":2489,"Ġpouches":2490,"ĠMerwe":2491,"ampa":2492,"27":2493,"oles":2494,"Ġtram":2495,"Ġstrays":2496,"udges":2497,"ĠGurkeerat":2498,"ert":2499,"lly":2500,"ĠCap":2501,"hind":2502,"ĠBai":2503,"ĠJE":2504,"ĠManhas":2505,"ĠBailey":2506,"ĠUr":2507,"Ġsignal":2508,"Ġtri":2509,"my":2510,"Ġtramline":2511,"SN":2512,"Ġboun":2513,"Ġend":2514,"meet":2515,"Ġoverc":2516,"Ġcrease":2517,"Ġpleased":2518,"eshwar":2519,"neshwar":2520,"huvneshwar":2521,"Ġsprays":2522,"thiv":2523,"78":2524,"ĠBasil":2525,"ishek":2526,"ĠAnkit":2527,"ĠSuch":2528,"ĠKish":2529,"omror":2530,"ĠMiscued":2531,"ĠAN":2532,"eph":2533,"ĠLalit":2534,"ĠJoseph":2535,"ĠCapit":2536,"Ġovercooks":2537,"ĠKishore":2538,"ĠCapitals":2539,"ach":2540,"ĠPC":2541,"ĠParthiv":2542,"Mc":2543,"ĠMistimed":2544,"JC":2545,"ĠLomror":2546,"Ġenough":2547,"hepher":2548,"ĠShepher":2549,"ĠShepherd":2550,"mat":2551,"Ġhands":2552,"Ġjudges":2553,"66":2554,"ott":2555,"ĠBipul":2556,"boj":2557,"ĠKamboj":2558,"anc":2559,"kied":2560,"ĠWG":2561,"ĠSalam":2562,"Ġsettles":2563,"ĠSho":2564,"NE":2565,"Ġtop":2566,"ĠVys":2567,"Ġ173":2568,"Ġstunner":2569,"ĠVyshak":2570,"Ġclings":2571,"09":2572,"ĠRathi":2573,"ĠKR":2574,"AB":2575,"reak":2576,"ĠHarmeet":2577,"athwa":2578,"athwaite":2579,"uther":2580,"oof":2581,"ĠTait":2582,"Ġ180":2583,"utherford":2584,"ĠMaharoof":2585,"had":2586,"53":2587,"arri":2588,"ĠHoles":2589,"ĠSkied":2590,"Laren":2591,"iant":2592,"ĠMcLaren":2593,"lton":2594,"ĠRicke":2595,"ĠAbishek":2596,"alse":2597,"ĠRickelton":2598,"ĠNaman":2599,"CJ":2600,"ĠSran":2601,"Ġ176":2602,"ĠGl":2603,"ĠRutherford":2604,"False":2605,"ĠGloves":2606,"shad":2607,"ĠPri":2608,"ĠDhir":2609,"Ġus":2610,"Ġonto":2611,"Ġ177":2612,"ĠSuchith":2613,"Ġbig":2614,"43":2615,"za":2616,"Sandeep":2617,"ĠZampa":2618,"ows":2619,"ĠRasikh":2620,"jeeb":2621,"ĠMujeeb":2622,"Ġsome":2623,"ĠMF":2624,"Ġfirst":2625,"ĠRic":2626,"ĠRichar":2627,"Ha":2628,"Ġbehind":2629,"Haq":2630,"ureet":2631,"ĠPowar":2632,"wami":2633,"dson":2634,"ĠRichardson":2635,"sel":2636,"Ġaround":2637,"ĠSammy":2638,"ĠArya":2639,"ĠMN":2640,"Ġlow":2641,"ĠUmran":2642,"eja":2643,"Ġ174":2644,"kari":2645,"03":2646,"ĠSakari":2647,"ĠSakariya":2648,"ĠOver":2649,"DJ":2650,"vir":2651,"ĠArshad":2652,"ĠMenaria":2653,"Ġbr":2654,"Ġwill":2655,"arat":2656,"ujarat":2657,"ĠNitish":2658,"Harbhajan":2659,"ĠAshish":2660,"ĠBre":2661,"ERS":2662,"ONE":2663,"Mumbai":2664,"vis":2665,"Ġgoing":2666,"hell":2667,"ĠBrathwaite":2668,"hip":2669,"Ġalert":2670,"RA":2671,"Bumrah":2672,"ĠPriyansh":2673,"yav":2674,"ince":2675,"ĠSuryav":2676,"ĠPowell":2677,"ĠSuryavanshi":2678,"ogg":2679,"azal":2680,"21":2681,"eng":2682,"ĠHogg":2683,"RP":2684,"Ġfoot":2685,"ĠAL":2686,"ĠSen":2687,"Ġ178":2688,"ĠDJG":2689,"oyal":2690,"ĠFran":2691,"pen":2692,"ĠIC":2693,"Ġanother":2694,"ĠMano":2695,"klin":2696,"ĠFranklin":2697,"..":2698,"ĠGH":2699,"ĠBrevis":2700,"ĠCham":2701,"ĠGD":2702,"ĠAP":2703,"ĠFazal":2704,"ĠAnureet":2705,"eera":2706,"ĠChameera":2707,"39":2708,"ĠMD":2709,"ĠOmar":2710,"zai":2711,"matullah":2712,"ĠOmarzai":2713,"ehr":2714,"36":2715,"ĠKrunal":2716,"Ġair":2717,"ally":2718,"Kul":2719,"ree":2720,"ops":2721,"Ch":2722,"Ġ181":2723,"Ġthen":2724,"Ġyou":2725,"ĠGB":2726,"uff":2727,"orff":2728,"Ġhere":2729,"Ġ184":2730,"endorff":2731,"homas":2732,"ehrendorff":2733,"Ġwa":2734,"act":2735,"ĠPrince":2736,"Ġsweep":2737,"Chennai":2738,"Royal":2739,"Ġ179":2740,"Kolkata":2741,"Ġ183":2742,"Ġmiss":2743,"ĠJEC":2744,"ger":2745,"uels":2746,"orker":2747,"ĠMend":2748,"ĠDoes":2749,"ĠSams":2750,"ĠMendis":2751,"Ġdo":2752,"94":2753,"its":2754,"ays":2755,"ĠAzmatullah":2756,"wat":2757,"ĠPVD":2758,"Bhuvneshwar":2759,"Unadkat":2760,"hari":2761,"ithvi":2762,"ĠPrithvi":2763,"ĠRawat":2764,"ĠSamuels":2765,"of":2766,"ĠBow":2767,"Ġstr":2768,"inder":2769,"age":2770,"Kuldeep":2771,"Delhi":2772,"ĠPuj":2773,"ĠPujara":2774,"Ġlook":2775,"oswami":2776,"ĠSath":2777,"Ġ185":2778,"ĠSathish":2779,"ĠGoswami":2780,"ift":2781,"indra":2782,"ĠAsn":2783,"ĠThomas":2784,"ah":2785,"itt":2786,"ĠCricket":2787,"PP":2788,"SP":2789,"Ġ(":2790,"56":2791,"osh":2792,"Ġhel":2793,"AD":2794,"hu":2795,"ĠJam":2796,"far":2797,"ĠBCJ":2798,"57":2799,"AN":2800,"Ġsk":2801,"Ġdidn":2802,"Sto":2803,"ĠWies":2804,"Ġ187":2805,"ĠEllis":2806,"ĠWiese":2807,"08":2808,"rack":2809,"self":2810,"edith":2811,"ĠVihari":2812,"ĠMeredith":2813,"Ġ182":2814,"ĠKW":2815,"ĠHa":2816,"ĠPune":2817,"ĠNaveen":2818,"Ġglanc":2819,"UN":2820,"ĠOA":2821,"ĠHM":2822,"Ġopen":2823,"ĠBri":2824,"ĠBhatt":2825,"hara":2826,"ĠDeep":2827,"ĠBur":2828,"ĠBurger":2829,"Sh":2830,"Ġhimself":2831,"ĠNig":2832,"ance":2833,"Rajasthan":2834,"ĠBehrendorff":2835,"ĠNigam":2836,"ĠPollock":2837,"ofra":2838,"ittle":2839,"54":2840,"ie":2841,"ĠGup":2842,"ĠNT":2843,"till":2844,"aks":2845,"Ġcould":2846,"Ġ186":2847,"ons":2848,"ĠAsif":2849,"fen":2850,"ĠMahe":2851,"ĠMV":2852,"haus":2853,"ĠHil":2854,"fenhaus":2855,"ĠHilfenhaus":2856,"caren":2857,"ĠWarri":2858,"ĠMascaren":2859,"ieson":2860,"Ġbounce":2861,"ĠJamieson":2862,"ĠMahesh":2863,"ĠMascarenhas":2864,"ĠMadh":2865,"ĠBut":2866,"ĠMadhwal":2867,"Ġbit":2868,"utosh":2869,"Ġ188":2870,"jap":2871,"Ġloo":2872,"Ġdeflection":2873,"now":2874,"Narine":2875,"GL":2876,"38":2877,"ĠTeja":2878,"Ġclo":2879,"itc":2880,"Ġflat":2881,"71":2882,"odkar":2883,"Chris":2884,"out":2885,"Ġwant":2886,"ails":2887,"98":2888,"Ġwhat":2889,"ĠBeng":2890,"ĠManish":2891,"Ġvery":2892,"ets":2893,"ĠAsnodkar":2894,"ĠGuptill":2895,"ĠBW":2896,"AR":2897,"Chahal":2898,"Ġlike":2899,"ĠSJ":2900,"ĠAxar":2901,"ĠOram":2902,"Chahar":2903,"ĠBou":2904,"RPS":2905,"ĠBoucher":2906,"77":2907,"ry":2908,"Dwayne":2909,"SM":2910,"Ġten":2911,"ĠVY":2912,"aka":2913,"ucknow":2914,"ĠDas":2915,"Boult":2916,"Chaw":2917,"Chawla":2918,"Ġ190":2919,"ĠSty":2920,"ushara":2921,"ĠThushara":2922,"aas":2923,"ĠVaas":2924,"ĠAshutosh":2925,"UJC":2926,"ost":2927,"ilne":2928,"ĠStyris":2929,"est":2930,"35":2931,"break":2932,"Ġpicked":2933,"wala":2934,"gers":2935,"lis":2936,"amich":2937,"irect":2938,"amichhane":2939,"BB":2940,"ĠTare":2941,"ĠRav":2942,"ccan":2943,"Ġdist":2944,"ĠChargers":2945,"ĠPaul":2946,"chate":2947,"ĠDoeschate":2948,"inson":2949,"Ġmuch":2950,"ĠVRV":2951,"Ġabo":2952,"Ġabout":2953,"ĠSriv":2954,"esham":2955,"ava":2956,"etz":2957,"astava":2958,"ĠInglis":2959,"ĠBowled":2960,"ĠSrivastava":2961,"ĠRoss":2962,"ĠMith":2963,"itchell":2964,"ĠMithun":2965,"itans":2966,"ĠTitans":2967,"ĠCo":2968,"ouw":2969,"ĠGo":2970,"McC":2971,"ĠRossouw":2972,"ĠSar":2973,"ĠGujarat":2974,"McClenaghan":2975,"Le":2976,"ack":2977,"ĠMitchell":2978,"ĠJDP":2979,"Moham":2980,"king":2981,"Hardik":2982,"ĠTan":2983,"Ġmakes":2984,"ĠBengal":2985,"BT":2986,"ĠTK":2987,"uru":2988,"Ġlate":2989,"ĠBadree":2990,"ĠRavindra":2991,"Ġim":2992,"ĠBengaluru":2993,"amandeep":2994,"Ġsli":2995,"ĠAG":2996,"ĠWPUJC":2997,"ĠGoel":2998,"ĠLA":2999,"jhun":3000,"ĠDwayne":3001,"ĠJhun":3002,"jhunwala":3003,"ĠJhunjhunwala":3004,"rath":3005,"ankaj":3006,"ĠMayers":3007,"Grath":3008,"rew":3009,"ĠMcGrath":3010,"Shami":3011,"ras":3012,"illey":3013,"ĠRiz":3014,"ĠKN":3015,"etzee":3016,"ĠCoetzee":3017,"ĠRizvi":3018,"ari":3019,"ĠRamp":3020,"ĠSohal":3021,"ĠNeesham":3022,"ĠGarg":3023,"Ġface":3024,"ĠRCB":3025,"Ġmove":3026,"ĠRampaul":3027,"06":3028,"Sunrisers":3029,"nolly":3030,"ĠConnolly":3031,"imum":3032,"ange":3033,"Ja":3034,"bw":3035,"Ġput":3036,"KD":3037,"NG":3038,"ifty":3039,"Jadeja":3040,"ĠMur":3041,"Ġmax":3042,"ĠRN":3043,"aib":3044,"ĠCK":3045,"Ġyorker":3046,"ĠMo":3047,"ĠUBT":3048,"ariappa":3049,"ĠManohar":3050,"Ġmaximum":3051,"!\"":3052,"edium":3053,"MS":3054,"Ta":3055,"Ġaw":3056,"Ġswing":3057,"ĠGurbaz":3058,"Tahir":3059,"ĠFH":3060,"ĠOverton":3061,"AS":3062,"Kings":3063,"VS":3064,"Ġmisses":3065,"ĠX":3066,"Ġwould":3067,"Ġ189":3068,"ĠMills":3069,"stump":3070,"ĠSameer":3071,"ĠPankaj":3072,"AI":3073,"ĠBart":3074,"ĠGiant":3075,"lett":3076,"ĠBartlett":3077,"ĠGiants":3078,"keya":3079,"ĠMilne":3080,"ĠVer":3081,"ĠKartikeya":3082,"oginder":3083,"Ġeven":3084,"Ġhits":3085,"Ġstart":3086,"Siraj":3087,"ĠRamandeep":3088,"ĠOff":3089,"eez":3090,"ark":3091,"hail":3092,"atter":3093,"ĠTanvir":3094,"97":3095,"MM":3096,"iket":3097,"ĠMun":3098,"Ġwork":3099,"ĠKINGS":3100,"Ġstill":3101,"augh":3102,"Ġpulls":3103,"Ġclean":3104,"28":3105,"DA":3106,"ĠWilley":3107,"ĠJag":3108,"ĠRahmanullah":3109,"hen":3110,"ĠKai":3111,"ĠWas":3112,"Ġ193":3113,"ĠJDS":3114,"Ġcompletely":3115,"ĠKaif":3116,"Ġpro":3117,"ĠNot":3118,"Ġcoming":3119,"ĠLax":3120,"Ġmom":3121,"ĠJust":3122,"Ġmoment":3123,"jesh":3124,"ĠLaxman":3125,"Krunal":3126,"rab":3127,"hil":3128,"Ġspot":3129,"OY":3130,"Ġ191":3131,"Ġang":3132,"ĠAnuj":3133,"ĠAllen":3134,"Ġslic":3135,"ĠXC":3136,"ĠChip":3137,"ĠChipli":3138,"Rab":3139,"ĠROY":3140,"ĠIngram":3141,"Rabada":3142,"ĠROYAL":3143,"ph":3144,"ĠSD":3145,"ĠLange":3146,"ĠJoginder":3147,"80":3148,"uge":3149,"Ġfifty":3150,"ĠNar":3151,"ĠSohail":3152,"Rah":3153,"kot":3154,"keen":3155,"Ġ194":3156,"ĠShokeen":3157,"ĠMunro":3158,"ĠAf":3159,"ald":3160,"Ġnic":3161,"Ġgetting":3162,"hap":3163,"ĠSod":3164,"onald":3165,"ĠSodhi":3166,"Ġfly":3167,"Ġwk":3168,"34":3169,"Donald":3170,"fore":3171,"uth":3172,"ĠFar":3173,"ĠMcDonald":3174,"aughlin":3175,"kward":3176,"mp":3177,"Ġsent":3178,"jeet":3179,"ĠBrijesh":3180,"Ġawkward":3181,"HH":3182,"Ġcor":3183,"arjeet":3184,"Ġcomes":3185,"taza":3186,"Ġlooking":3187,"ĠMurtaza":3188,"Ishan":3189,"Stokes":3190,"Mohammed":3191,"ĠVVS":3192,"ooq":3193,"Ġwkts":3194,"ĠFarooq":3195,"ĠSw":3196,"haq":3197,"Ġ192":3198,"Ġwhich":3199,"ĠFarooqi":3200,"Ġdone":3201,"KA":3202,"ĠSrinath":3203,"RG":3204,"ĠPK":3205,"ĠBar":3206,"Ġuse":3207,"DP":3208,"Gur":3209,"ĠHussain":3210,"ĠShivang":3211,"ĠShoaib":3212,"kph":3213,"ĠPom":3214,"tern":3215,"Rahul":3216,"bach":3217,"ĠSham":3218,"Ġwal":3219,"ĠCariappa":3220,"ersbach":3221,"ĠPomersbach":3222,"MA":3223,"hing":3224,"van":3225,"ational":3226,"di":3227,"ees":3228,"igh":3229,"ĠHR":3230,"Shakib":3231,"Ġme":3232,"ĠGets":3233,"ĠLucknow":3234,"ĠChavan":3235,"Ġ2013":3236,"Ġbefore":3237,"ĠNagarkot":3238,"ĠNagarkoti":3239,"ĠMayank":3240,"dana":3241,"ĠPhi":3242,"edar":3243,"Ġpun":3244,"Ġdirect":3245,"Jofra":3246,"MK":3247,"Ġtrack":3248,"99":3249,"Washington":3250,"tinson":3251,"ĠPattinson":3252,"ĠAkhil":3253,"Axar":3254,"ĠKedar":3255,"Ġ2012":3256,"Ġfe":3257,"ĠFazalhaq":3258,"Left":3259,"most":3260,"urney":3261,"Ġ195":3262,"olut":3263,"Ġmissed":3264,"kib":3265,"Ġcall":3266,"ĠSakib":3267,"ĠSimarjeet":3268,"Ġslot":3269,"ĠAF":3270,"ppe":3271,"Ġ2011":3272,"Ġvia":3273,"ĠKamran":3274,"ated":3275,"ĠIS":3276,"Ġ2009":3277,"Ġwhi":3278,"pper":3279,"AM":3280,"nand":3281,"ĠMhat":3282,"ĠMhatre":3283,"ushi":3284,"Ġcannons":3285,"Mal":3286,"Mishra":3287,"Malinga":3288,"Ġsee":3289,"Ġskid":3290,"Mohit":3291,"orey":3292,"ingwood":3293,"ĠRun":3294,"ĠColl":3295,"eeded":3296,"ĠCollingwood":3297,"Ab":3298,"ira":3299,"Ġthem":3300,"lun":3301,"Ġ196":3302,"Nav":3303,"co":3304,"ĠTher":3305,"Ġdec":3306,"ĠKKR":3307,"Ġagainst":3308,"ĠTheron":3309,"Ġfoll":3310,"reira":3311,"view":3312,"ĠFerreira":3313,"ternational":3314,"83":3315,"ila":3316,"ĠFernand":3317,"Ġneed":3318,"ĠFernando":3319,"Ash":3320,"42":3321,"46":3322,"nil":3323,"ĠBhar":3324,"ĠLamichhane":3325,"apnil":3326,"ĠChandila":3327,"ĠVerma":3328,"Ġmade":3329,"ĠGand":3330,"JP":3331,"jo":3332,"ĠSH":3333,"Ġwr":3334,"kett":3335,"ĠInternational":3336,"lunkett":3337,"ĠBharat":3338,"Ġgame":3339,"ĠNand":3340,"ĠVS":3341,"ridi":3342,"iljo":3343,"ĠAfridi":3344,"iljoen":3345,"Ġlast":3346,"Ġreview":3347,"tini":3348,"Ġabs":3349,"ĠBos":3350,"andar":3351,"Ġdra":3352,"ĠNtini":3353,"ĠRaza":3354,"ĠLittle":3355,"ikandar":3356,"ĠAnother":3357,"ĠAniket":3358,"ĠBosch":3359,"KH":3360,"ĠRaut":3361,"udh":3362,"ĠYV":3363,"45":3364,"anla":3365,"Ġadd":3366,"Ġabsolut":3367,"anlake":3368,"zan":3369,"Ġoverst":3370,"hazan":3371,"ĠGhazan":3372,"ĠGhazanfar":3373,"ĠApp":3374,"ĠBAW":3375,"ĠCRD":3376,"ĠDeccan":3377,"Ġsla":3378,"atches":3379,"Ġthigh":3380,"Shreyas":3381,"heer":3382,"ĠPR":3383,"Ġdive":3384,"Ġdropped":3385,"ool":3386,"anna":3387,"bed":3388,"Ġfin":3389,"ĠFras":3390,"ĠAppanna":3391,"ĠFraser":3392,"vesh":3393,"McGur":3394,"McGurk":3395,"Basil":3396,"Navdeep":3397,"ming":3398,"Ġreally":3399,"dc":3400,"veer":3401,"ĠSyed":3402,"An":3403,"ec":3404,"GJ":3405,"Ġwhere":3406,"lliant":3407,"ave":3408,"Ġreac":3409,"Ġheight":3410,"vez":3411,"ĠRasool":3412,"Ġcorner":3413,"Ġwhen":3414,"Ġwanted":3415,"Ġwrong":3416,"Shiv":3417,"ĠSikandar":3418,"Ġeffort":3419,"ĠUdana":3420,"ĠAnir":3421,"Ġnicely":3422,"SS":3423,"anveer":3424,"Ġsu":3425,"endon":3426,"Ġclose":3427,"jro":3428,"hejro":3429,"liya":3430,"ĠShahid":3431,"Ġslip":3432,"hejroliya":3433,"ors":3434,"ĠJL":3435,"ushes":3436,"Ġ2018":3437,"ĠArun":3438,"ĠBrendon":3439,"07":3440,"rd":3441,"oth":3442,"Ġfuller":3443,"Woakes":3444,"ĠTaka":3445,"wale":3446,"ĠTakawale":3447,"ĠMedium":3448,"Ġneeded":3449,"Ġ2019":3450,"Ġ199":3451,"ĠOn":3452,"RV":3453,"Ġpick":3454,"Ġ2017":3455,"agn":3456,"ĠBangar":3457,"oci":3458,"atap":3459,"ĠTS":3460,"ĠRajap":3461,"aksa":3462,"ĠRajapaksa":3463,"93":3464,"Ġgre":3465,"pping":3466,"ond":3467,"Ġnon":3468,"ĠLaughlin":3469,"ĠPratap":3470,"ions":3471,"Ġfollow":3472,"RE":3473,"ĠAt":3474,"Ġcontact":3475,"Ġstruck":3476,"ĠSwapnil":3477,"ĠSid":3478,"ĠAss":3479,"Ġmight":3480,"Ġpart":3481,"Ġ2016":3482,"ovely":3483,"Ġalmost":3484,"Ġlooks":3485,"ociation":3486,"ĠAssociation":3487,"51":3488,"ĠSl":3489,"Ġcame":3490,"Ġ2014":3491,"Ġ2015":3492,"umps":3493,"ake":3494,"Ġtouch":3495,"anay":3496,"ĠParvez":3497,"ĠHales":3498,"And":3499,"ĠMW":3500,"Ġcar":3501,"Ġthough":3502,"ĠKaranveer":3503,"ĠSenanay":3504,"Andrew":3505,"ĠSenanayake":3506,"LH":3507,"Pr":3508,"ĠLumb":3509,"Ġtries":3510,"Ġglances":3511,"Ġpri":3512,"Ġthose":3513,"ĠWade":3514,"ĠWank":3515,"Ġ204":3516,"Ġquickly":3517,"ĠKaushi":3518,"ĠKaushik":3519,"hede":3520,"hale":3521,"Ġscampered":3522,"ĠHenry":3523,"Prasidh":3524,"ĠWankhede":3525,"YK":3526,"ĠSU":3527,"Ġflight":3528,"Ġcow":3529,"ĠYA":3530,"Ġ205":3531,"Ġ2020":3532,"Ġdistance":3533,"sari":3534,"Ġbl":3535,"Ġgoog":3536,"etori":3537,"ĠPretori":3538,"ĠQu":3539,"ĠAnsari":3540,"Rajpoot":3541,"eeshan":3542,"haleel":3543,"ĠPretorius":3544,"Ġwait":3545,"Ġabsolutely":3546,"oges":3547,"Ġfinger":3548,"atich":3549,"ĠKatich":3550,"Ġpicks":3551,"ĠVoges":3552,"ĠWood":3553,"Ġmovement":3554,"ĠPBB":3555,"Ġbounc":3556,"Ashwin":3557,"Ġdrag":3558,"58":3559,"ips":3560,"Ġ198":3561,"Ġpoor":3562,"Ġdeflected":3563,"211":3564,"ĠChaudhar":3565,"Ġloops":3566,"wani":3567,"Ġgoogly":3568,"ĠChaudhary":3569,"ĠKhejroliya":3570,"Ġcaught":3571,"Ġthick":3572,"TH":3573,"ĠSRH":3574,"ĠAND":3575,"Ġprice":3576,"374":3577,"Ġboth":3578,"ĠCSK":3579,"Ġawkwardly":3580,"RD":3581,"harva":3582,"ĠTaide":3583,"64":3584,"82":3585,"ĠSMSM":3586,"Ġbrushes":3587,"Ġwaits":3588,"ĠWarriors":3589,"Ġuseful":3590,"ĠZeeshan":3591,"ĠKMA":3592,"88":3593,"ves":3594,"vel":3595,"60":3596,"ber":3597,"rell":3598,"Ġconce":3599,"Ġglanced":3600,"ĠGul":3601,"Ġ201":3602,"Ġ197":3603,"ottrell":3604,"Avesh":3605,"JJ":3606,"aswam":3607,"Ġ217":3608,"ĠWA":3609,"ĠYagn":3610,"innaswam":3611,"dharth":3612,"ĠSiddharth":3613,"ĠYagnik":3614,"innaswamy":3615,"Sam":3616,"Yuvraj":3617,"iff":3618,"Ġski":3619,"lls":3620,"ĠFY":3621,"ĠAshwani":3622,"Ġspin":3623,"IAN":3624,"Ġsur":3625,"ĠEden":3626,"bott":3627,"ĠBond":3628,"ĠAbbott":3629,"ying":3630,"Ġtheir":3631,"ĠFle":3632,"Ġmake":3633,"Ġconne":3634,"Ġimp":3635,"shal":3636,"Ġslight":3637,"ĠGurney":3638,"ĠLad":3639,"ĠAtharva":3640,"Ar":3641,"JD":3642,"Ġwrist":3643,"Ġring":3644,"Ġpre":3645,"ka":3646,"vol":3647,"ink":3648,"ĠHose":3649,"Ġhuge":3650,"umped":3651,"Ġcouldn":3652,"ĠHosein":3653,"59":3654,"ĠRI":3655,"issan":3656,"ĠNissan":3657,"ĠNissanka":3658,"verse":3659,"ĠPlunkett":3660,"Ġhitting":3661,"ĠWarrier":3662,"ĠOut":3663,"ĠMoeen":3664,"ĠFleming":3665,"aten":3666,"ĠRand":3667,"Ġstand":3668,"kk":3669,"Ġwasn":3670,"ĠMcCoy":3671,"ĠNitin":3672,"Shivam":3673,"ĠRandiv":3674,"lex":3675,"ĠMenon":3676,"play":3677,"inge":3678,"right":3679,"ames":3680,"ĠGaut":3681,"Ġswings":3682,"ĠGautam":3683,"ear":3684,"rr":3685,"ĠHinge":3686,"Ġevery":3687,"ĠViljoen":3688,"aby":3689,"faraz":3690,"UT":3691,"oint":3692,"ately":3693,"ĠMot":3694,"race":3695,"ĠLeft":3696,"Ġflick":3697,"01":3698,"68":3699,"rue":3700,"Ġonce":3701,"Ġresults":3702,"ĠGarden":3703,"ĠSarfaraz":3704,"YS":3705,"dt":3706,"mi":3707,"ĠDH":3708,"ĠBro":3709,"ĠBaby":3710,"ĠNath":3711,"Ġtrick":3712,"ĠLangevel":3713,"Ġskipper":3714,"ĠLangeveldt":3715,"True":3716,"ising":3717,"Ġlbw":3718,"Ġswiv":3719,"din":3720,"ĠSoni":3721,"ĠGardens":3722,"ĠBrook":3723,"Pun":3724,"PER":3725,"Ġfails":3726,"ala":3727,"ĠSUPER":3728,"foot":3729,"Ġfli":3730,"Ġcli":3731,"Ġlovely":3732,"ĠSalman":3733,"Ġcleanly":3734,"62":3735,"Ġmus":3736,"ĠOC":3737,"Ġchange":3738,"91":3739,"mal":3740,"Ġoh":3741,"Ġwe":3742,"ĠKO":3743,"Ġcatches":3744,"manab":3745,"Ġ203":3746,"ĠStanlake":3747,"ĠRaje":3748,"manabhan":3749,"ND":3750,"SA":3751,"llips":3752,"ĠThere":3753,"ĠAnant":3754,"ogra":3755,"ĠJagade":3756,"ĠPhillips":3757,"MJ":3758,"leb":3759,"ĠDhar":3760,"admanabhan":3761,"ther":3762,"hapadmanabhan":3763,"Ġgreat":3764,"ĠAnanthapadmanabhan":3765,"ĠJagadeesan":3766,"ĠWa":3767,"Ġreverse":3768,"Ġquite":3769,"Ġtried":3770,"MB":3771,"pt":3772,"ĠHend":3773,"ĠHendri":3774,"rapped":3775,"ĠMota":3776,"PJ":3777,"arke":3778,"Ġbott":3779,"ĠMU":3780,"Ġchar":3781,"ĠCM":3782,"ceiv":3783,"Ġperfect":3784,"ĠClarke":3785,"Ġlooked":3786,"Gowtham":3787,"cb":3788,"rcb":3789,"ĠIND":3790,"ĠGome":3791,"Ġcolle":3792,"udhvir":3793,"IANS":3794,"MBAI":3795,"Ġbottom":3796,"ĠMUMBAI":3797,"ĠINDIANS":3798,"ĠGomez":3799,"ST":3800,"ĠDogra":3801,"Ġthan":3802,"ĠHC":3803,"ĠRajan":3804,"kkr":3805,"SV":3806,"day":3807,"ms":3808,"ĠUmar":3809,"Ġ202":3810,"ĠParames":3811,"waran":3812,"Ishant":3813,"ĠParameswaran":3814,"70":3815,"839":3816,"IK":3817,"JH":3818,"Muj":3819,"chin":3820,"ages":3821,"neet":3822,"ĠBANG":3823,"japneet":3824,"Mujeeb":3825,"ED":3826,"ORE":3827,"ĠHF":3828,"ĠSachin":3829,"DL":3830,"IT":3831,"IGHT":3832,"aheer":3833,"aries":3834,"ĠCHAL":3835,"LENG":3836,"ALORE":3837,"Ġcollect":3838,"ĠBANGALORE":3839,"ĠCHALLENG":3840,"ĠCHALLENGERS":3841,"DERS":3842,"KAT":3843,"LKAT":3844,"Mark":3845,"kx":3846,"rer":3847,"Ġfast":3848,"ĠRoh":3849,"Ġ2010":3850,"Ġshould":3851,"ĠKNIGHT":3852,"ĠRIDERS":3853,"ĠKOLKAT":3854,"ĠHendricks":3855,"kxip":3856,"ĠRohrer":3857,"ĠKOLKATA":3858,"55":3859,"Gujarat":3860,"So":3861,"ving":3862,"Ġkept":3863,"Ġflying":3864,"lexes":3865,"316":3866,"da":3867,"Ġ211":3868,"Ġstays":3869,"Ġboundaries":3870,"Ġsweeper":3871,"ĠLadda":3872,"Ġra":3873,"ĠFast":3874,"ĠLions":3875,"Ġthrow":3876,"ĠManoj":3877,"PIT":3878,"feez":3879,"unk":3880,"udha":3881,"ĠCAPIT":3882,"ĠAnand":3883,"ALS":3884,"ĠDELH":3885,"ĠHafeez":3886,"ĠCAPITALS":3887,"ĠDELHI":3888,"30":3889,"ĠBrace":3890,"ĠSalvi":3891,"ĠAnirudha":3892,"Ġslightly":3893,"ĠBracewell":3894,"JAB":3895,"mis":3896,"Ġsma":3897,"Ġthese":3898,"ĠPUN":3899,"ĠDuff":3900,"Ġhow":3901,"Ġ2008":3902,"ĠGurjapneet":3903,"ĠPUNJAB":3904,"ĠDuffy":3905,"40":3906,"NO":3907,"UMP":3908,"sk":3909,"ĠRUN":3910,"Ġreach":3911,"ĠSTUMP":3912,"ĠEdwards":3913,"ĠBeaten":3914,"ĠSTUMPED":3915,"ple":3916,"ĠTim":3917,"ĠCottrell":3918,"ĠYudhvir":3919,"Ġlittle":3920,"Ġhelps":3921,"92":3922,"Khaleel":3923,"Ġpays":3924,"ĠBE":3925,"Ġdam":3926,"Ġthrows":3927,"Ġrem":3928,"KL":3929,"csk":3930,"ole":3931,"Ġopp":3932,"Ġdou":3933,"Ġstage":3934,"Ġtook":3935,"JA":3936,"Ġif":3937,"itation":3938,"Ġ216":3939,"autiful":3940,"Ġsmo":3941,"Ġreflexes":3942,"ĠGandhi":3943,"ceived":3944,"DR":3945,"Ġbest":3946,"ĠMid":3947,"askar":3948,"ĠTrapped":3949,"ray":3950,"Ġ300":3951,"ĠVK":3952,"ĠLE":3953,"Ġ206":3954,"WP":3955,"Ġstop":3956,"Ġ208":3957,"Ġwrists":3958,"ging":3959,"ld":3960,"ĠLbw":3961,"ĠOh":3962,"Ġ523":3963,"Ġknock":3964,"Mus":3965,"ĠMI":3966,"Ġpe":3967,"ĠCar":3968,"ĠBa":3969,"Ġmanages":3970,"Ġflies":3971,"HV":3972,"NAI":3973,"Ravi":3974,"aun":3975,"nis":3976,"ved":3977,"ĠBhuvneshwar":3978,"uddin":3979,"Ġ209":3980,"ĠCHEN":3981,"Markande":3982,"ĠCHENNAI":3983,"31":3984,"hand":3985,"erri":3986,"ĠDagar":3987,"idy":3988,"ĠWright":3989,"Ġlot":3990,"ĠVinod":3991,"Ġdismis":3992,"Ġnear":3993,"Ġpa":3994,"Ġcost":3995,"ĠSupergi":3996,"Ġtossed":3997,"Ġreaches":3998,"Southee":3999,"Mustafizur":4000,"ĠSupergiant":4001,"Ġtoday":4002,"aram":4003,"Ġform":4004,"Ġdep":4005,"eling":4006,"ĠVidy":4007,"shuddin":4008,"ĠJaff":4009,"Ġhapp":4010,"ĠHope":4011,"Ġspots":4012,"ĠNarwal":4013,"ĠShamshuddin":4014,"ĠVidyut":4015,"200":4016,"De":4017,"TA":4018,"Watson":4019,"ĠPont":4020,"ĠPrab":4021,"Ġche":4022,"Ġ207":4023,"ove":4024,"Ġslow":4025,"Ġdistur":4026,"Arshdeep":4027,"ĠJaffer":4028,"ĠPonting":4029,"Ġbreak":4030,"ĠPH":4031,"ĠAU":4032,"Ġcart":4033,"Ġshuff":4034,"Ġopens":4035,"Ġfeet":4036,"AJ":4037,"WO":4038,"medi":4039,"Ġnever":4040,"ily":4041,"ani":4042,"Ġcrack":4043,"itnis":4044,"ides":4045,"Ġinner":4046,"ĠAshok":4047,"ĠChitnis":4048,"Ġexp":4049,"Ġbetter":4050,"ipur":4051,"Ġimmedi":4052,"ĠPrabhu":4053,"TWO":4054,"ually":4055,"dess":4056,"chi":4057,"jab":4058,"Ġimmediately":4059,"ĠPrabhudess":4060,"ĠPrabhudessai":4061,"yk":4062,"Ġtoe":4063,"ĠWyk":4064,"ortun":4065,"Ġplaying":4066,"ĠOF":4067,"ĠCleaned":4068,"Ġsuper":4069,"ĠSlower":4070,"Ġhes":4071,"Ġbri":4072,"ice":4073,"roke":4074,"ĠChid":4075,"fection":4076,"Ġdamage":4077,"85":4078,"ambaram":4079,"Ġperfection":4080,"ĠRajiv":4081,"ĠChidambaram":4082,"ĠShed":4083,"Ġsure":4084,"Stoinis":4085,"Ġhesitation":4086,"ĠShedge":4087,"Ġu":4088,"ĠCom":4089,"Ġmoves":4090,"Harshal":4091,"Ġuses":4092,"Ġdoub":4093,"Ġdisturbed":4094,"itched":4095,"ĠJun":4096,"ĠLJ":4097,"Ġrest":4098,"Ġopportun":4099,"back":4100,"Ġround":4101,"ĠMohit":4102,"ĠBet":4103,"Ġdeceived":4104,"ĠHak":4105,"Ġbacks":4106,"ĠJuneja":4107,"Ġopportunity":4108,"ĠHakim":4109,"JAS":4110,"arnath":4111,"ĠRAJAS":4112,"utter":4113,"Ġexcellent":4114,"ĠAmarnath":4115,"ĠTopley":4116,"ĠROYALS":4117,"Ġwalks":4118,"THAN":4119,"ĠRAJASTHAN":4120,"Ne":4121,"St":4122,"si":4123,"whe":4124,"ened":4125,"epped":4126,"Ġ2023":4127,"Ġ2026":4128,"ĠPandit":4129,"Ġlost":4130,"ĠBethell":4131,"PA":4132,"ĠRT":4133,"ĠKXIP":4134,"Ġappe":4135,"ulled":4136,"Ġ2025":4137,"Ġ2022":4138,"antray":4139,"ĠSamantray":4140,"Abhishek":4141,"mol":4142,"Ġbad":4143,"aps":4144,"Ġtrying":4145,"ĠMiddle":4146,"askaran":4147,"Ġcartwhe":4148,"Ġdoubt":4149,"Ġsuch":4150,"ĠJofra":4151,"alk":4152,"ĠNK":4153,"864":4154,"ĠOffbreak":4155,"DS":4156,"ĠSan":4157,"ouple":4158,"Ġcracking":4159,"molpreet":4160,"Ġcartwheeling":4161,"iyan":4162,"ars":4163,"ĠGood":4164,"ĠSaw":4165,"ustr":4166,"SL":4167,"sed":4168,"Ġham":4169,"Ġwow":4170,"Ġ500":4171,"Ġkeeps":4172,"Ġ2024":4173,"thr":4174,"ĠJaipur":4175,"ĠShanaka":4176,"ĠJaggi":4177,"Ġslices":4178,"Ġrais":4179,"877":4180,"aja":4181,"sp":4182,"Ġfew":4183,"ist":4184,"Ġinst":4185,"iden":4186,"Ġreg":4187,"aking":4188,"ĠSuryansh":4189,"ĠShamsi":4190,"Ġmusc":4191,"Ġpaid":4192,"Ġsuperb":4193,"IM":4194,"vil":4195,"arg":4196,"Ġ210":4197,"ĠHIM":4198,"use":4199,"ĠYorker":4200,"Ġfrustr":4201,"Ġho":4202,"ĠRJW":4203,"Christian":4204,"attered":4205,"TM":4206,"kash":4207,"into":4208,"Ġseam":4209,"read":4210,"ĠFlinto":4211,"ugan":4212,"Ġconnect":4213,"ĠTimber":4214,"Ġcostly":4215,"ĠFlintoff":4216,"566":4217,"79":4218,"814":4219,"Karn":4220,"ced":4221,"jun":4222,"oop":4223,"Ġfall":4224,"ĠAman":4225,"ĠBack":4226,"Ġ214":4227,"Ġdrives":4228,"Ġnothing":4229,"Ġhold":4230,"SB":4231,"dul":4232,"Ġed":4233,"ĠJG":4234,"ire":4235,"neaks":4236,"aff":4237,"point":4238,"wn":4239,"ĠKarn":4240,"Ġcouple":4241,"ĠStr":4242,"Ġbrings":4243,"volley":4244,"Ġpulled":4245,"Ġbowls":4246,"Ġguard":4247,"ĠShaun":4248,"Ġconf":4249,"Ġoversteps":4250,"Ġhamm":4251,"VR":4252,"aged":4253,"aney":4254,"ĠJaskaran":4255,"Ġinches":4256,"ĠGaff":4257,"Ġluck":4258,"ĠDJM":4259,"ĠSahu":4260,"ĠJoshi":4261,"Ġskiddy":4262,"ĠGaffaney":4263,"Nadeem":4264,"masen":4265,"ĠSe":4266,"assive":4267,"Ġmassive":4268,"stri":4269,"ĠJaco":4270,"ĠMadan":4271,"ĠDharmasen":4272,"ĠWagh":4273,"ĠDharmasena":4274,".\"":4275,"47":4276,"Pat":4277,"ox":4278,"Ġel":4279,"Ġsits":4280,"Ġ212":4281,"Ġits":4282,"ĠHDP":4283,"Ġnight":4284,"Ġmanaged":4285,"ĠAnmolpreet":4286,"894":4287,"ĠRaghu":4288,"Ġputs":4289,"Ġremoves":4290,"Deccan":4291,"Ġappeal":4292,"ĠHDPK":4293,"af":4294,"bb":4295,"ied":4296,"opra":4297,"ĠKulase":4298,"Shubman":4299,"ĠKulasekara":4300,"066":4301,"ĠCB":4302,"ĠThey":4303,"eper":4304,"'ve":4305,"95":4306,"DW":4307,"Ġton":4308,"ining":4309,"Ġ213":4310,"ought":4311,"Ġsticks":4312,"Ġtall":4313,"iney":4314,"rive":4315,"Ġread":4316,"Ġheav":4317,"ĠArjun":4318,"ĠChopra":4319,"lays":4320,"MDN":4321,"ĠUrvil":4322,"ĠBrilliant":4323,"ĠNandan":4324,"ĠQuiney":4325,"Ġswivels":4326,"STR":4327,"ĠJacobs":4328,"921":4329,"cy":4330,"ces":4331,"ky":4332,"Ġsit":4333,"Ġshap":4334,"ĠAll":4335,"Ġmind":4336,"ayed":4337,"Ġleans":4338,"inally":4339,"ĠDubai":4340,"Ġ564":4341,"Ġflicks":4342,"293":4343,"730":4344,"Punjab":4345,"KV":4346,"eleb":4347,"Ġown":4348,"Ġfet":4349,"Ġtaking":4350,"Ġdeliver":4351,"ĠBeautiful":4352,"Ġsmart":4353,"Ġbrilliant":4354,"striker":4355,"AC":4356,"KM":4357,"Ġ..":4358,"Ġflo":4359,"ĠRe":4360,"thing":4361,"Ġhaving":4362,"letic":4363,"ĠMoha":4364,"cover":4365,"Ġoverstep":4366,"elebr":4367,"824":4368,"Zaheer":4369,"uf":4370,"ĠUm":4371,"679":4372,"ĠInside":4373,"Ġwhile":4374,"Ġwhips":4375,"Negi":4376,"ĠMohali":4377,"xen":4378,"Ġer":4379,"ĠKhaw":4380,"ĠFir":4381,"ways":4382,"Ġshattered":4383,"1727":4384,"Ġlifts":4385,"ength":4386,"Ġpunch":4387,"ĠStruck":4388,"ĠKhawaja":4389,"Johnson":4390,"Ġz":4391,"ĠKot":4392,"Ġcelebr":4393,"ayan":4394,"ĠJack":4395,"Ġwithout":4396,"749":4397,"earles":4398,"41":4399,"515":4400,"76":4401,"Aaron":4402,"IS":4403,"Lamichhane":4404,"MC":4405,"Ġset":4406,"ĠKMDN":4407,"Ġbails":4408,"Ġgate":4409,"Ġday":4410,"stepped":4411,"Ġshow":4412,"Ġallows":4413,"ĠChinnaswamy":4414,"vious":4415,"ĠExtra":4416,"ĠOverstepped":4417,"ĠNarayan":4418,"Ġpeach":4419,"ĠJackson":4420,")'.":4421,"face":4422,"swe":4423,"orn":4424,"ather":4425,"Ġbail":4426,"ĠIR":4427,"Ġleap":4428,"Ġhop":4429,"ailed":4430,"Ġflash":4431,"ĠSuyal":4432,"2968":4433,"Ġconcede":4434,"ĠPHKD":4435,"Ġfrustrated":4436,"ĠUmesh":4437,"JM":4438,"ĠPra":4439,"ĠNalk":4440,"Ġoutfield":4441,"Ġarc":4442,"Ġrolls":4443,"Ġshortish":4444,"ĠThorn":4445,"ĠNalkande":4446,"ĠThornely":4447,"ĠGot":4448,"Ġ2021":4449,"Ġcontro":4450,"Ġturning":4451,"Ġsmashed":4452,"Ġgives":4453,"ĠGarton":4454,"Ġslaps":4455,"Coulter":4456,"ĠSneaks":4457,"Ġtonight":4458,"ĠKJ":4459,"itley":4460,"Ġmark":4461,"ĠFA":4462,"Ġrema":4463,"ĠJaitley":4464,"Ġstumped":4465,"Ġ224":4466,"ĠAndrew":4467,"Ġhelp":4468,"Cutting":4469,"LR":4470,"yar":4471,"ĠSp":4472,"arts":4473,"ĠBli":4474,"zzard":4475,"ĠNayyar":4476,"ĠBlizzard":4477,"ten":4478,"Ġfound":4479,"ĠDid":4480,"ading":4481,"ĠVeer":4482,"Ġhur":4483,"Ġheave":4484,"Ġspr":4485,"playable":4486,"SE":4487,"chal":4488,"ĠDD":4489,"104":4490,"ansingh":4491,"Ġunplayable":4492,"Ġregion":4493,"61":4494,"BA":4495,"hit":4496,"rh":4497,"srh":4498,"Ġother":4499,"keeper":4500,"ĠMansingh":4501,"ĠToo":4502,"ury":4503,"Ġbeing":4504,"Ġmoved":4505,"astled":4506,"ĠSawai":4507,"48":4508,"Tom":4509,"Ġswo":4510,"ĠBails":4511,"Ġreal":4512,"32":4513,"kers":4514,"ung":4515,"Ġmaking":4516,"ĠCastled":4517,"ĠHow":4518,"ĠHuge":4519,"Ġearn":4520,"Ġcompleted":4521,"Ġyoun":4522,"Ġsweeps":4523,"Bar":4524,"NT":4525,"cutter":4526,"men":4527,"ual":4528,"Ġfielders":4529,"ĠUn":4530,"ills":4531,"Ġ233":4532,"gie":4533,"202":4534,"ugg":4535,"Ġflighted":4536,"Barinder":4537,"Nabi":4538,"Sha":4539,"bah":4540,"Ġmess":4541,"Ġmedium":4542,"Ġpie":4543,"ĠDG":4544,"ĠCorey":4545,"ĠVA":4546,"ĠSharp":4547,"Ġdrop":4548,"Harpreet":4549,"ĠGHS":4550,"Shah":4551,"422":4552,"ven":4553,"ĠBha":4554,"Ġstroke":4555,"Ġalways":4556,"Corey":4557,"DER":4558,"RIS":4559,"YDER":4560,"nu":4561,"red":4562,"ĠSUN":4563,"ĠDole":4564,"ĠBilak":4565,"Ġste":4566,"Ġsto":4567,"ĠHYDER":4568,"hia":4569,"Ġsimp":4570,"ishnu":4571,"utty":4572,"Ġ220":4573,"ABAD":4574,"ĠPhili":4575,"Ġfinish":4576,"Ġcontrol":4577,"RISERS":4578,"ĠSUNRISERS":4579,"ĠBilakhia":4580,"ĠHYDERABAD":4581,"CV":4582,"Mandeep":4583,"bably":4584,"qib":4585,"uqib":4586,"ĠKutty":4587,"ĠPet":4588,"ĠGoes":4589,"ppish":4590,"150":4591,"Ġ250":4592,"Ġcleared":4593,"Ġdismiss":4594,"Ġswoops":4595,"Ġearns":4596,"Ġpiece":4597,"JR":4598,"NJ":4599,"ause":4600,"Ġsend":4601,"Ġran":4602,"ĠKo":4603,"ĠBR":4604,"Ġleading":4605,"ĠLength":4606,"udge":4607,"ither":4608,"ĠUV":4609,"Ġplumb":4610,"Ġended":4611,"ĠGandhe":4612,"Ġsprint":4613,"Lucknow":4614,"ix":4615,"ny":4616,"pal":4617,"heed":4618,"Ġbother":4619,"ĠRiyan":4620,"Ġchee":4621,"Ġ713":4622,"ĠWath":4623,"cking":4624,"ĠAhmedabad":4625,"Ġskids":4626,"Ġprevious":4627,"hander":4628,"Ġact":4629,"Ġ218":4630,"handed":4631,"146":4632,"agopal":4633,"ĠTiwari":4634,"auk":4635,"ĠAkmal":4636,"hepauk":4637,"ĠMadanagopal":4638,"ĠChepauk":4639,"ute":4640,"ures":4641,"ĠYC":4642,"Ġbatsmen":4643,"ĠMore":4644,"ĠOr":4645,"neath":4646,"ĠBarde":4647,"Ġwaiting":4648,"Nehra":4649,"ball":4650,"cro":4651,"dar":4652,"Ġtick":4653,"Ġsn":4654,"ĠRising":4655,"Ġstuff":4656,"ĠOxen":4657,"Ġunderneath":4658,"Ġangle":4659,"Ġpunches":4660,"ĠFirst":4661,"ĠPhilippe":4662,"ĠOxenford":4663,"37":4664,"712":4665,"cket":4666,"pite":4667,"ycro":4668,"ĠMuth":4669,"ĠPycro":4670,"Ġinfield":4671,"ĠGF":4672,"uswami":4673,"ĠLight":4674,"ĠOne":4675,"Ġwhy":4676,"ĠMuthuswami":4677,"ĠPycroft":4678,"ĠLightning":4679,"ners":4680,"Ġsne":4681,"ĠCan":4682,"Ġ215":4683,"ĠVishnu":4684,"Ġ--":4685,"uckle":4686,"Ġeveryone":4687,"Ġsmokes":4688,"Ġuppish":4689,"ĠPeterson":4690,"65":4691,"Kar":4692,"gbreak":4693,"eri":4694,"ĠAuqib":4695,"ĠBNJ":4696,"ĠFaf":4697,"Ġlet":4698,"ired":4699,"Ġquicker":4700,"ĠYashpal":4701,"097":4702,"Ġbounces":4703,"Ġconceded":4704,"ready":4705,"Ġyoung":4706,"mus":4707,"Ġrep":4708,"Ġdiff":4709,"ĠGR":4710,"Ġbacking":4711,"Ġspills":4712,"Ġshorter":4713,"Ġdisa":4714,"Ġchase":4715,"Ġshape":4716,"87":4717,"BJ":4718,"Tye":4719,"kad":4720,"asy":4721,"Ġcricket":4722,"ĠDK":4723,"ĠBir":4724,"ĠIs":4725,"Ġ225":4726,"ĠMankad":4727,"ĠMisbah":4728,"Chinnaswamy":4729,"Ġraises":4730,"Ġremaining":4731,"CA":4732,"MR":4733,"Mur":4734,"dine":4735,"lish":4736,"Ġacc":4737,"agandeep":4738,"ially":4739,"oys":4740,"Ġsoft":4741,"seldine":4742,"SPD":4743,"Abdul":4744,"ĠCarseldine":4745,"errible":4746,"Ġdismissal":4747,"Murugan":4748,"52":4749,"MG":4750,"Searles":4751,"ead":4752,"oor":4753,"yes":4754,"Ġbang":4755,"rick":4756,"icketkeeper":4757,"ĠHarwood":4758,"Ġalready":4759,"Ġangling":4760,"KS":4761,"NV":4762,"ij":4763,"anged":4764,"Ġwin":4765,"ams":4766,"Ġnails":4767,"ĠNJ":4768,"119":4769,"immat":4770,"Ġdrills":4771,"ĠDev":4772,"Ġimpact":4773,"DT":4774,"Ma":4775,"oz":4776,"Ġraced":4777,"ĠSalunk":4778,"ĠLevi":4779,"Ġfinal":4780,"Ġedged":4781,"Maxwell":4782,"ĠSalunkhe":4783,"Faulkner":4784,"jum":4785,"pad":4786,"pitched":4787,"with":4788,"Ġtad":4789,"asan":4790,"hab":4791,"Ġdon":4792,"ashtra":4793,"ĠStumped":4794,"Ġmisc":4795,"Ġpitched":4796,"Ġdug":4797,"Ġjo":4798,"AK":4799,"JO":4800,"RS":4801,"ĠKling":4802,"Ġeyes":4803,"ĠGagandeep":4804,"Ġsight":4805,"Ġmany":4806,"Ġshots":4807,"Ġrocks":4808,"Ġcream":4809,"ucker":4810,"Ġdoing":4811,"Ġdragged":4812,"sweep":4813,"ĠKlinger":4814,"ĠKB":4815,"ĠPN":4816,"ĠDr":4817,"ĠDirect":4818,"Ġthumps":4819,"ĠGle":4820,"Ġeasily":4821,"ĠEras":4822,"Ġalong":4823,"ĠMajum":4824,"ĠRasheed":4825,"ĠSarwan":4826,"Ġangled":4827,"Ġpartners":4828,"Shahbaz":4829,"ĠErasmus":4830,"ĠMajumdar":4831,"Hen":4832,"Mo":4833,"RJ":4834,"hot":4835,"ĠMap":4836,"ĠTwo":4837,"Ġpac":4838,"ush":4839,"eturn":4840,"Ġhor":4841,"antly":4842,"haka":4843,"Ġtimes":4844,"ĠZoys":4845,"lenty":4846,"ĠDeepak":4847,"Ġexpect":4848,"Henriques":4849,"ĠMaphaka":4850,"ĠZoysa":4851,"478":4852,"LL":4853,"ĠKemp":4854,"omet":4855,"ision":4856,"elie":4857,"ĠHimmat":4858,"Ġele":4859,"ĠArcy":4860,"Legbreak":4861,"Moeen":4862,"be":4863,"sub":4864,"wor":4865,"Ġtarg":4866,"ĠSud":4867,"unny":4868,"ĠGee":4869,"Ġlegs":4870,"Ġsweet":4871,"2114":4872,"ĠBawa":4873,"Ġ5002114":4874,"through":4875,"Ġcheeky":4876,"SO":4877,"leij":4878,"ĠPuth":4879,"ĠAler":4880,"Ġcir":4881,"ĠBall":4882,"iding":4883,"ĠNaik":4884,"andekar":4885,"geleij":4886,"Ġ222":4887,"uggeleij":4888,"Ġyet":4889,"Ġmix":4890,"Ġmomentum":4891,"Ġsneak":4892,"ĠPuthur":4893,"ĠAlert":4894,"uggeleijn":4895,"Aravind":4896,"KC":4897,"dutt":4898,"ens":4899,"eson":4900,"ĠDos":4901,"ult":4902,"anger":4903,"Ġ221":4904,"umbled":4905,"Ġ49478":4906,"Ġswip":4907,"ified":4908,"ĠThird":4909,"ĠBarman":4910,"Ġreaction":4911,"Ġweight":4912,"Ġhappy":4913,"ĠComes":4914,"ĠDevdutt":4915,"ĠGleeson":4916,"ĠDoshi":4917,"Ġ4947883":4918,"Yash":4919,"ls":4920,"rant":4921,"trick":4922,"Ġes":4923,"ory":4924,"Ġthings":4925,"ĠYou":4926,"ook":4927,"Ġsaw":4928,"ĠKotla":4929,"Ġsnaps":4930,"omething":4931,"YBK":4932,"drive":4933,"hy":4934,"Ġfind":4935,"Ġfinally":4936,"Ġwhip":4937,"Ġchi":4938,"ise":4939,"ided":4940,"Ġ900":4941,"him":4942,"Ġscoop":4943,"Ġknuckle":4944,"olly":4945,"Ankit":4946,"Ġnonchal":4947,"Ġsurface":4948,"Ġpartnership":4949,"63":4950,"669":4951,"Wicketkeeper":4952,"ĠKT":4953,"ĠDNT":4954,"Ġthought":4955,"ĠSharja":4956,"Ġlaun":4957,"toss":4958,"ĠUmp":4959,"hindra":4960,"Ġswinging":4961,"ecified":4962,"ĠDidn":4963,"ĠSudhindra":4964,"ĠSharjah":4965,"Br":4966,"tent":4967,"Ġ,":4968,"ĠSc":4969,"ĠAth":4970,"Ġapp":4971,"ĠBindra":4972,"Ġgen":4973,"icy":4974,"Ġspo":4975,"Ġturned":4976,"2011":4977,"84":4978,"Bipul":4979,"SC":4980,"igar":4981,"low":4982,"Ġtou":4983,"ĠRight":4984,"ĠTucker":4985,"Ġab":4986,"Ġmay":4987,"ards":4988,"ivasan":4989,"Ġ2544":4990,"Ġ72669":4991,"rinivasan":4992,"ĠChandigar":4993,"Ġdecides":4994,"ĠAthletic":4995,"Ġ2544566":4996,"Ġ7266994":4997,"ĠChandigarh":4998,"953":4999,"Gurney":5000,"Nortje":5001,"ULL":5002,"Zampa":5003,"ikar":5004,"Ġtra":5005,"ĠSrinivasan":5006,"ertain":5007,"erala":5008,"Ġsha":5009,"ĠMix":5010,"lling":5011,"ĠKerala":5012,"ĠPaun":5013,"Ġplenty":5014,"ĠGiv":5015,"Ġhat":5016,"Ġstumping":5017,"ĠIshant":5018,"Bowled":5019,"Ġkne":5020,"Ġattempted":5021,"Ġbring":5022,"Ġprobably":5023,"DPMD":5024,"ĠQuick":5025,"Ġmuscles":5026,"Ġsimple":5027,"ĠUmpire":5028,"Brathwaite":5029,"ĠPaunikar":5030,"PC":5031,"uicy":5032,"wi":5033,"zen":5034,"ungi":5035,"ĠND":5036,"Ġdelight":5037,"thy":5038,"Ġdrift":5039,"Ġyour":5040,"Ġwants":5041,"358":5042,"Ġslips":5043,"ĠAnirudh":5044,"ĠAUK":5045,"Ġfetch":5046,"02":5047,"411":5048,"598":5049,"AA":5050,"NULL":5051,"cause":5052,"more":5053,"ty":5054,"Ġant":5055,"anth":5056,"ĠTP":5057,"Ġdanger":5058,"Ġdolly":5059,"ict":5060,"ama":5061,"Ġeither":5062,"hanama":5063,"ppal":5064,"ĠUpad":5065,"ĠUppal":5066,"Ġshows":5067,"006":5068,"ivrant":5069,"ĠMahanama":5070,"Ġperfectly":5071,"2012":5072,"ĠDoesn":5073,"Ġblow":5074,"Ġwaited":5075,"Ġconfiden":5076,"ĠPrakash":5077,"Ġelev":5078,"hyay":5079,"ĠUpadhyay":5080,"LS":5081,"ress":5082,"Ġbends":5083,"Ġbla":5084,"Ġbase":5085,"ĠPU":5086,"ĠTus":5087,"Ġam":5088,"ĠDC":5089,"raction":5090,"ĠHAS":5091,"tik":5092,"ĠAbu":5093,"Ġ2266":5094,"5080":5095,"Ġ455080":5096,"Ġ76211":5097,"Ġclass":5098,"etty":5099,"Ġsqueez":5100,"Ġlift":5101,"Ġhelped":5102,"Ġslap":5103,"Ġshuffles":5104,"Ġzone":5105,"Kartik":5106,"Ġcirc":5107,"Ġ2266358":5108,"Ġ4550802":5109,"Ġ7621139":5110,"CC":5111,"EJG":5112,"GERS":5113,"IO":5114,"Laughlin":5115,"Mu":5116,"PV":5117,"kanth":5118,"Ġsomething":5119,"ĠKhal":5120,"haps":5121,"eds":5122,"ĠDhab":5123,"Ġ219":5124,"ĠHis":5125,"alm":5126,"odox":5127,"thodox":5128,"Ġdespite":5129,"Ġallow":5130,"ĠCHAR":5131,"ĠViyas":5132,"Ġ57894":5133,"2013":5134,"Ġswung":5135,"ĠDECC":5136,"247":5137,"Ġfires":5138,"272":5139,"dcg":5140,"Ġconnection":5141,"inku":5142,"Ġfalls":5143,"Ġhammer":5144,"ĠBirt":5145,"Ġtarget":5146,"ĠPUNE":5147,"ĠTuskers":5148,"Mukesh":5149,"ĠKhalid":5150,"ĠDhabi":5151,"ĠCHARGERS":5152,"ĠViyaskanth":5153,"Ġ5789423":5154,"ĠDECCAN":5155,"'ll":5156,"212":5157,"803":5158,"Az":5159,"ingers":5160,"ĠAY":5161,"ĠTerrible":5162,"ĠDandekar":5163,"ishes":5164,"ical":5165,"Ġinvol":5166,"ĠPatil":5167,"orts":5168,"Ġ223":5169,"Ġ8703":5170,"288":5171,"Ġinvolved":5172,"5006":5173,"816":5174,"90":5175,"TG":5176,"fel":5177,"Ġsame":5178,"Ġfingers":5179,"Ġmost":5180,"Ġpumps":5181,"Ġgave":5182,"ĠHad":5183,"ĠVivrant":5184,"ĠWith":5185,"Ġunsp":5186,"Ġknow":5187,"Ġ1505006":5188,"lighted":5189,"Ġused":5190,"Ġsliced":5191,"Ġdeposit":5192,"Stanlake":5193,"Ġ8703679":5194,"Ġunspecified":5195,"933":5196,"Rour":5197,"aw":5198,"hin":5199,"iy":5200,"ymal":5201,"Ġide":5202,"ĠSri":5203,"Ġsay":5204,"alle":5205,"urner":5206,"ĠWell":5207,"19288":5208,"ĠEasy":5209,"Ġexec":5210,"ible":5211,"Ġ2619288":5212,"Ġ295":5213,"333":5214,"339":5215,"Ġ7436":5216,"Ġbelie":5217,"Ġfired":5218,"ĠMaharashtra":5219,"Ġstrugg":5220,"ĠVery":5221,"Aniket":5222,"ĠSupergiants":5223,"Ġerr":5224,"Ġcelebration":5225,"Rourke":5226,"Ġ7436247":5227,"Dh":5228,"Sang":5229,"Ġsub":5230,"ati":5231,"Ġbacked":5232,"Ġgrab":5233,"ĠFumbled":5234,"ĠFlighted":5235,"Ġthin":5236,"Ġstride":5237,"Ġ2608":5238,"Ġresp":5239,"Ġjump":5240,"Ġ9478":5241,"Ġ99877":5242,"5633":5243,"Ġbouncer":5244,"Ġ2245633":5245,"Sangwan":5246,"Ġ2608816":5247,"Ġ9478272":5248,"Ġ9987700":5249,"ĠRoa":5250,"ĠRinku":5251,"andan":5252,"Ġgive":5253,"Ġgift":5254,"Ġthink":5255,"ĠLin":5256,"Ġatta":5257,"Ġ5012":5258,"Ġ35333":5259,"Ġ36814":5260,"Ġ47933":5261,"Ġturns":5262,"Ġjuicy":5263,"Ġ98864":5264,"690":5265,"Ġglove":5266,"Ġwalk":5267,"MAJ":5268,"ĠOrthodox":5269,"hinandan":5270,"Ġbelieve":5271,"ĠRoach":5272,"Ġ3533313":5273,"Ġ3681433":5274,"Ġ4793375":5275,"Ġ9886489":5276,"52968":5277,"Bad":5278,"Behrendorff":5279,"Cad":5280,"Slow":5281,"Tilak":5282,"Viljoen":5283,"gs":5284,"gat":5285,"ial":5286,"ĠSind":5287,"arthy":5288,"ĠKal":5289,"ĠTR":5290,"Ġ71727":5291,"1189":5292,"160":5293,"ĠKohler":5294,"ravarthy":5295,"Ġ3552968":5296,"338":5297,"Ġ6274":5298,"Ġ14689":5299,"249":5300,"7324":5301,"Mohammad":5302,"Ġ2047324":5303,"Pune":5304,"Steyn":5305,"ĠLinde":5306,"Badree":5307,"Cadmore":5308,"ĠSindhu":5309,"Ġ7172727":5310,"Ġ6274749":5311,"Ġ1468999":5312,"475":5313,"603":5314,"RK":5315,"ĠSunny":5316,"Ġsays":5317,"Ġbon":5318,"ĠMul":5319,"Ġmatter":5320,"Ġintent":5321,"ĠHast":5322,"Ġ1415":5323,"138":5324,"1860":5325,"Ġ226":5326,"Ġ2373":5327,"Ġ3320":5328,"332":5329,"2010":5330,"753":5331,"rishna":5332,"Ġslogs":5333,"7424":5334,"781":5335,"ances":5336,"Ġseemed":5337,"Ġ5641860":5338,"Ġactually":5339,"ĠGiven":5340,"Ġ2957424":5341,"ĠHastings":5342,"Ġ1415953":5343,"Ġ2373690":5344,"Ġ3320338":5345,"499":5346,"569":5347,"Imran":5348,"KP":5349,"NLTC":5350,"cut":5351,"yank":5352,"ĠSut":5353,"held":5354,"Ġfat":5355,"ator":5356,"Ġmy":5357,"Ġsteps":5358,"Ġ425":5359,"ching":5360,"ĠWent":5361,"Ġlands":5362,"1444":5363,"15249":5364,"18332":5365,"Ġbecause":5366,"Ġpretty":5367,"Ġ2353":5368,"Ġ42814":5369,"Ġ5715249":5370,"Ġ9418332":5371,"Ġ8353":5372,"ĠShortish":5373,"Ġ90598":5374,"Ġ6844":5375,"Ġ58864":5376,"537":5377,"ĠNothing":5378,"Ġcarves":5379,"Ġ5231444":5380,"ĠBhagat":5381,"Ġuppishly":5382,"ĠKalyank":5383,"ĠSuthar":5384,"Ġ4281444":5385,"Ġ8353877":5386,"Ġ9059842":5387,"Ġ6844921":5388,"Ġ5886474":5389,"ĠKalyankrishna":5390,"324":5391,"818":5392,"978":5393,"954":5394,"Noor":5395,"gly":5396,"jee":5397,"ĠEnd":5398,"Ġwider":5399,"Ġmet":5400,"Ġ2038":5401,"Ġloop":5402,"ĠAbhinandan":5403,"Ġ85569":5404,"Ġhasn":5405,"057":5406,"444":5407,"...\"":5408,"Ġsky":5409,"Ġconnects":5410,"Ġ2353730":5411,"Ġ2038781":5412,"Ġ8556956":5413,"219":5414,"957":5415,"Kay":5416,"Plunkett":5417,"paw":5418,"Ġbis":5419,"ĠKhot":5420,"ĠDive":5421,"Ġ416":5422,"ĠGoo":5423,"Ġ''.":5424,"tim":5425,"Ġthrew":5426,"antleb":5427,"ĠMcKay":5428,"Ġmista":5429,"ĠKAJ":5430,"Ġ66499":5431,"Ġ63475":5432,"ĠRaju":5433,"Ġ9843":5434,"Ġ12069":5435,"ĠAkht":5436,"ously":5437,"737":5438,"reaky":5439,"Ġdecision":5440,"Ġinstin":5441,"Ġheaves":5442,"Ġleaping":5443,"ĠScantleb":5444,"Ġbisect":5445,"ĠKhote":5446,"Ġ6649951":5447,"Ġ6347542":5448,"Ġ9843066":5449,"Ġ1206999":5450,"ĠAkhtar":5451,"ĠScantlebury":5452,"303":5453,"767":5454,"844":5455,"CR":5456,"cent":5457,"met":5458,"pris":5459,"arm":5460,"ĠTom":5461,"ĠBMAJ":5462,"Ġstay":5463,"Ġeff":5464,"Ġ313":5465,"ĠNS":5466,"193":5467,"Ġ3529":5468,"Ġ39818":5469,"Ġ76803":5470,"Ġ83515":5471,"Ġ98844":5472,"Ġ7898":5473,"Ġfullish":5474,"0439":5475,"Ġtry":5476,"548":5477,"4522":5478,"587":5479,"Ġ2164522":5480,"Ġ3000439":5481,"Ġsitter":5482,"4114":5483,"ĠSriram":5484,"ĠGoogly":5485,"Ġ3529537":5486,"Ġ3981825":5487,"Ġ7680387":5488,"Ġ8351592":5489,"Ġ9884461":5490,"Ġ7898444":5491,"594":5492,"654":5493,"760":5494,"Lungi":5495,"TU":5496,"just":5497,"aring":5498,"asion":5499,"ĠTau":5500,"ĠJW":5501,"Ġ400":5502,"derson":5503,"ĠLooks":5504,"ppoint":5505,"17839":5506,"Ġupheld":5507,"aces":5508,"ĠSau":5509,"Ġ228":5510,"ĠMuk":5511,"Ġ23316":5512,"ĠZayed":5513,"Ġ266":5514,"Ġ36324":5515,"Ġ5436":5516,"Ġ49760":5517,"Ġ5554":5518,"Ġ8556":5519,"Ġ8517839":5520,"Ġdived":5521,"Ġsouth":5522,"Ġ88978":5523,"ĠHenderson":5524,"Ġ9873":5525,"Ġ9377":5526,"Ġ10440":5527,"Ġknows":5528,"Ġsmash":5529,"ĠMissed":5530,"896":5531,"ifert":5532,"2325":5533,"863":5534,"ĠSJA":5535,"ĠOnce":5536,"Ġcharge":5537,"ĠSeifert":5538,"0666":5539,"Ġ4162325":5540,"Ġ3130666":5541,"ĠTaufel":5542,"Ġ2331682":5543,"Ġ3632467":5544,"Ġ5436138":5545,"Ġ4976077":5546,"Ġ5554057":5547,"Ġ8556160":5548,"Ġ8897809":5549,"Ġ9873957":5550,"Ġ9377212":5551,"Ġ1044022":5552,"491":5553,"638":5554,"?\"":5555,"du":5556,"Ġtre":5557,"Ġfle":5558,"Ġbre":5559,"ĠKhaleel":5560,"ĠKuggeleijn":5561,"ĠTurner":5562,"Ġoverpitched":5563,"Ġstep":5564,"Ġleggie":5565,"14896":5566,"179":5567,"Ġ1894":5568,"Ġ2553":5569,"ĠPreez":5570,"Ġ2969":5571,"Ġ34293":5572,"Ġ763":5573,"Ġ7614896":5574,"Ġ8883":5575,"Ġkind":5576,"ĠAsnani":5577,"Ġseems":5578,"Ġcharges":5579,"Ġdisappoint":5580,"Ġchips":5581,"Ġcircle":5582,"Ġ4254114":5583,"9540":5584,"Ġmistake":5585,"Ġ1894737":5586,"Ġ2553863":5587,"Ġ2969824":5588,"Ġ3429315":5589,"Ġ8883211":5590,"315":5591,"49":5592,"429":5593,"426":5594,"573":5595,"553":5596,"975":5597,"974":5598,"Fer":5599,"Iqbal":5600,"Nithish":5601,"Patt":5602,"cess":5603,"km":5604,"Ġwha":5605,"ries":5606,"Ġbal":5607,"Ġland":5608,"135":5609,"apu":5610,"ĠHarshal":5611,"Ġadv":5612,"Ġ230":5613,"Ġ3434":5614,"334":5615,"Ġ6270":5616,"Ġ59374":5617,"Ġ88315":5618,"Ġ99587":5619,"Ġ1229540":5620,"Ġgloves":5621,"363":5622,"Ġnice":5623,"Ġsmacks":5624,"Ġstopping":5625,"Ġblade":5626,"Ġinstinct":5627,"Ferguson":5628,"Pattinson":5629,"Ġ3434824":5630,"Ġ6270193":5631,"Ġ5937426":5632,"Ġ8831525":5633,"Ġ9958794":5634,"498":5635,"544":5636,"586":5637,"6374":5638,"916":5639,"934":5640,"Vi":5641,"owers":5642,"ĠVir":5643,"Ġ5179":5644,"ĠWow":5645,"Ġworse":5646,"149":5647,"Ġ1927":5648,"ĠEven":5649,"Ġsees":5650,"Ġlose":5651,"track":5652,"Ġ100594":5653,"Ġ4053":5654,"Ġ39934":5655,"2019":5656,"Ġ5989":5657,"Ġ779":5658,"Ġ9236":5659,"Ġknew":5660,"Ġchas":5661,"7306":5662,"9797":5663,"ĠSanto":5664,"Ġtonks":5665,"Ġsouthpaw":5666,"Ġ7637306":5667,"Vijay":5668,"Ġ5179104":5669,"Ġ1927753":5670,"Ġ1005940":5671,"Ġ4053491":5672,"Ġ3993413":5673,"Ġ5989339":5674,"Ġ9236293":5675,"609":5676,"Rising":5677,"Ġhan":5678,"Ġwhipped":5679,"ĠRon":5680,"ĠKapu":5681,"ĠPG":5682,"Ġpowers":5683,"ĠBig":5684,"ĠBhuv":5685,"Ġdab":5686,"Ġ419":5687,"Ġ41189":5688,"Ġnew":5689,"ĠNow":5690,"ured":5691,"Ġ812":5692,"lier":5693,"ĠPathak":5694,"Ġcomm":5695,"Ġhome":5696,"gedera":5697,"Ġadjust":5698,"Ġ2326":5699,"Ġ25839":5700,"25921":5701,"25586":5702,"Ġ35548":5703,"Ġ4286":5704,"Ġ36573":5705,"Ġ44916":5706,"2014":5707,"2015":5708,"2016":5709,"2017":5710,"2018":5711,"7551":5712,"Ġ7225586":5713,"Ġ836374":5714,"Ġ7588":5715,"Ġ6728":5716,"Ġ8725921":5717,"ĠFeroz":5718,"Ġearlier":5719,"Ġpowerfully":5720,"Ġflatter":5721,"6986":5722,"ĠStraightened":5723,"3525":5724,"Ġmeat":5725,"ĠNanda":5726,"Ġ2173525":5727,"Ġeverything":5728,"2008":5729,"2009":5730,"Ġ5646986":5731,"ĠKochi":5732,"Ġ7139797":5733,"Ġcreams":5734,"Ġelevation":5735,"Ġexecut":5736,"ĠKapugedera":5737,"ĠBhuvi":5738,"Ġ4118946":5739,"Ġ8127551":5740,"Ġ2326553":5741,"Ġ2583918":5742,"Ġ3554829":5743,"Ġ4286363":5744,"Ġ3657322":5745,"Ġ4491659":5746,"Ġ8363749":5747,"Ġ7588426":5748,"Ġ6728730":5749,"MEK":5750,"sc":5751,"Ġshim":5752,"ared":5753,"ĠDo":5754,"ĠHang":5755,"Ġla":5756,"Ġlack":5757,"Ġhint":5758,"1285":5759,"16638":5760,"Ġdesper":5761,"ĠJPR":5762,"Ġ2525":5763,"Ġ50544":5764,"Ġpoun":5765,"Ġ47654":5766,"Ġ74202":5767,"Ġ7416638":5768,"Ġ72429":5769,"Ġ63603":5770,"Ġ7308":5771,"Ġ8026":5772,"Ġ90975":5773,"ugalle":5774,"ĠAkshdeep":5775,"Ġ2007":5776,"ĠAsad":5777,"ĠSumit":5778,"kie":5779,"Harsh":5780,"Ġens":5781,"ĠMadugalle":5782,"Ġheld":5783,"Ġopening":5784,"Ġslice":5785,"Ġslicing":5786,"Ġdrags":5787,"Ġsurpris":5788,"ĠSecond":5789,"Ġ7791285":5790,"ĠSantokie":5791,"Ġ2525767":5792,"Ġ5054401":5793,"Ġ4765480":5794,"Ġ7420225":5795,"Ġ7242907":5796,"Ġ6360325":5797,"Ġ7308498":5798,"Ġ8026316":5799,"Ġ9097534":5800,"600":5801,"689":5802,"874":5803,"TL":5804,"zarri":5805,"Ġlight":5806,"ĠShe":5807,"Ġtoll":5808,"inal":5809,"Ġfier":5810,"Ġbanged":5811,"Ġcare":5812,"amps":5813,"ĠNA":5814,"ĠNL":5815,"urther":5816,"ĠRauf":5817,"ilar":5818,"ster":5819,"147":5820,"176":5821,"Ġ3406":5822,"Ġperhaps":5823,"Ġ5594":5824,"Ġ8980":5825,"Ġnowhere":5826,"7835":5827,"Ġstret":5828,"Ġcollects":5829,"Ġ5237835":5830,"Ġhoick":5831,"Ġhammers":5832,"Ġdeliveries":5833,"Ġtickle":5834,"ĠGeeves":5835,"ĠRonchi":5836,"Ġ3406149":5837,"Ġ5594334":5838,"Ġ8980712":5839,"966":5840,"PWH":5841,"fic":5842,"gain":5843,"ĠSand":5844,"erves":5845,"Ġfurther":5846,"oned":5847,"ĠGone":5848,"Ġstriker":5849,"rove":5850,"1118":5851,"123":5852,"142":5853,"Ġcutter":5854,"Ġfreeb":5855,"ĠZaheer":5856,"Ġ4078":5857,"Ġ94974":5858,"Ġ84609":5859,"Ġ9370":5860,"Ġopened":5861,"Anureet":5862,"Ġmighty":5863,"Ġclips":5864,"Ġbreakthrough":5865,"LRPL":5866,"Ġjob":5867,"2197":5868,"ĠVirat":5869,"Ġ9497497":5870,"Ġ8460906":5871,"Ġ9370135":5872,"013":5873,"110":5874,"658":5875,"6316":5876,"Ish":5877,"eed":5878,"Ġwood":5879,"Ġris":5880,"ĠFor":5881,"Ġstreaky":5882,"Ġinter":5883,"Ġballo":5884,"Ġ1216":5885,"Ġseen":5886,"Ġ4398":5887,"Ġ94013":5888,"Ġ87150":5889,"Ġ7088":5890,"Ġ9969":5891,"Ġ1036316":5892,"ĠFuller":5893,"742":5894,"235":5895,"Ġwillow":5896,"064":5897,"Ġdiffer":5898,"Ġlaunches":5899,"Ġerrs":5900,"screen":5901,"ĠSheikh":5902,"ĠSandhu":5903,"Ġ4078176":5904,"Ġ9401301":5905,"Ġ8715023":5906,"Ġ7088566":5907,"Ġ9969874":5908,"613":5909,"775":5910,"71727":5911,"81":5912,"NM":5913,"PD":5914,"SW":5915,"nce":5916,"ream":5917,"xt":5918,"yp":5919,"Ġfav":5920,"Ġfraction":5921,"Ġbo":5922,"ĠAc":5923,"Ġcertain":5924,"ĠTot":5925,"Ġable":5926,"ĠDar":5927,"ished":5928,"Ġstayed":5929,"Ġ6119":5930,"12742":5931,"15142":5932,"ĠShorey":5933,"Ġmisfield":5934,"Ġpred":5935,"Ġ227":5936,"Ġ2412742":5937,"ĠPark":5938,"Ġvain":5939,"Ġ6071727":5940,"Ġ9498":5941,"Ġ69422":5942,"Ġ9515142":5943,"Ġflicked":5944,"ĠSumanth":5945,"787":5946,"362":5947,"Ġprocess":5948,"Ġ2172197":5949,"ĠSports":5950,"Ġpacy":5951,"Ġnonchalantly":5952,"Ġdangerous":5953,"ĠDoct":5954,"Ġ4398515":5955,"Ġ6119894":5956,"Ġ9498235":5957,"Ġ6942289":5958,"707":5959,"Cariappa":5960,"Tymal":5961,"VG":5962,"the":5963,"Ġte":5964,"anded":5965,"Ġsat":5966,"ĠPM":5967,"Ġpumm":5968,"ĠDY":5969,"Ġdeath":5970,"ĠVis":5971,"ushed":5972,"iring":5973,"133":5974,"14123":5975,"1817":5976,"olled":5977,"ĠAblish":5978,"Ġbeating":5979,"Ġext":5980,"Ġ235":5981,"Ġ45374":5982,"ĠWilliams":5983,"ademy":5984,"Ġ544":5985,"Ġ4967":5986,"Ġ55689":5987,"671":5988,"Ġ94613":5989,"Ġ9414123":5990,"Ġ6926":5991,"Ġ92839":5992,"Ġ92966":5993,"Ġgiving":5994,"Ġsails":5995,"095":5996,"Ġbludge":5997,"Ġswivel":5998,"Ġmuscled":5999,"Ġsightscreen":6000,"Ġhammered":6001,"times":6002,"ĠAcademy":6003,"ĠDoctrove":6004,"Ġ4537405":6005,"Ġ4967787":6006,"Ġ5568908":6007,"Ġ9461343":6008,"Ġ9283980":6009,"Ġ9296666":6010,"716":6011,"Akash":6012,"CL":6013,"Nit":6014,"RM":6015,"ever":6016,"long":6017,"Ġfair":6018,"ĠTar":6019,"Ġaim":6020,"ried":6021,"Ġmen":6022,"Ġpumped":6023,"ĠBhu":6024,"Ġdead":6025,"13362":6026,"Ġhence":6027,"Ġhips":6028,"Ġmisj":6029,"Ġanything":6030,"Ġspell":6031,"Ġ229":6032,"Ġ5013362":6033,"2051":6034,"Ġ8593":6035,"Ġ74422":6036,"Ġ8969":6037,"Ġ9316":6038,"Ġsmile":6039,"Ġarea":6040,"arried":6041,"Ġstarted":6042,"Ġwalking":6043,"Ġneeds":6044,"937":6045,"Ġstanding":6046,"Ġlucky":6047,"Ġ9002051":6048,"Ġflew":6049,"Ġ6926671":6050,"Nitish":6051,"ĠBhui":6052,"Ġ8593147":6053,"Ġ7442279":6054,"Ġ8969749":6055,"Milne":6056,"cap":6057,"Ġent":6058,"ĠShak":6059,"Ġob":6060,"anan":6061,"arge":6062,"Ġcue":6063,"Ġcalm":6064,"ĠTurn":6065,"essive":6066,"Ġ418":6067,"ĠHal":6068,"ĠGS":6069,"Ġkeeping":6070,"13937":6071,"17775":6072,"apore":6073,"ansf":6074,"ockie":6075,"Ġ2313937":6076,"jaya":6077,"676":6078,"Ġ7417775":6079,"Ġ9956":6080,"Ġ95707":6081,"Ġstrong":6082,"3825":6083,"Ġspotted":6084,"Ġpickings":6085,"Ġdeparts":6086,"ĠUniy":6087,"Ġappla":6088,"Ġconfidence":6089,"Dhruv":6090,"tracker":6091,"Ġ5442968":6092,"ĠTarapore":6093,"Ġ9316064":6094,"ananjaya":6095,"Ġ9956095":6096,"Ġ9570712":6097,"ĠUniyal":6098,"022":6099,"Binny":6100,"DB":6101,"Jordan":6102,"Shas":6103,"ness":6104,"Ġtell":6105,"ĠAgain":6106,"Ġcur":6107,"ĠDunk":6108,"Ġ619":6109,"Ġ715":6110,"ĠLlong":6111,"ppy":6112,"ĠUl":6113,"106":6114,"127":6115,"00146":6116,"Ġoccasion":6117,"ants":6118,"Ġlobs":6119,"endra":6120,"Ġ231":6121,"503":6122,"Ġ28374":6123,"Ġ42110":6124,"Ġ47022":6125,"Ġ6298":6126,"Ġ7200146":6127,"Ġ7374":6128,"Ġsliding":6129,"Ġ1304":6130,"Ġclearly":6131,"arted":6132,"048":6133,"Ġfire":6134,"Ġconv":6135,"ĠThr":6136,"..\"":6137,"ĠBarath":6138,"Ġclipped":6139,"Ġsmacked":6140,"Ġescap":6141,"Ġtough":6142,"Ġabove":6143,"Ġknees":6144,"ĠHangarge":6145,"Ġpredict":6146,"ĠShakti":6147,"Shashank":6148,"Ġ7153825":6149,"Ġ2837493":6150,"Ġ4211071":6151,"Ġ4702243":6152,"Ġ6298097":6153,"Ġ7374716":6154,"ĠHangargekar":6155,"823":6156,"bats":6157,"lic":6158,"zar":6159,"inan":6160,"Ġsets":6161,"Ġsink":6162,"ĠRB":6163,"omely":6164,"ĠCould":6165,"ĠBF":6166,"ĠBol":6167,"Ġdear":6168,"Ġstick":6169,"ament":6170,"Ġleast":6171,"Ġthing":6172,"ĠGough":6173,"ĠNinan":6174,"Ġ11202":6175,"Ġcoun":6176,"abani":6177,"ĠMuzar":6178,"Ġ240":6179,"25658":6180,"ooked":6181,"Ġ4969":6182,"Ġ4825658":6183,"ĠTakes":6184,"Ġ77104":6185,"Ġ9809":6186,"Ġunle":6187,"Ġ10826":6188,"Ġpowerplay":6189,"242":6190,"7357":6191,"ĠBowden":6192,"9775":6193,"Ġcalls":6194,"461":6195,"Ġsucc":6196,"Ġbounced":6197,"bbles":6198,"Ġbalance":6199,"ĠHalf":6200,"Ġ6197357":6201,"ĠUltra":6202,"Ġ1120275":6203,"ĠMuzarabani":6204,"Ġ7710423":6205,"903":6206,"DE":6207,"bit":6208,"how":6209,"Ġfact":6210,"Ġboy":6211,"Ġrolled":6212,"ĠRat":6213,"ĠReturn":6214,"ĠAtal":6215,"Ġain":6216,"idhar":6217,"Ġever":6218,"ĠLow":6219,"medit":6220,"109":6221,"16679":6222,"apan":6223,"Ġroll":6224,"Ġspect":6225,"Ġ2716679":6226,"Ġ4205":6227,"Ġjumps":6228,"Ġ1169775":6229,"Ġ14734":6230,"Ġtransf":6231,"ĠAmit":6232,"Ġhandsomely":6233,"395":6234,"3842":6235,"Ġdecided":6236,"Ġslapped":6237,"Ġpartner":6238,"errific":6239,"Ġcheck":6240,"Ġmuscle":6241,"Ġsteers":6242,"Ġmiscue":6243,"30354":6244,"Ġ4183842":6245,"ĠBoland":6246,"Ġ4969461":6247,"Ġ4205133":6248,"Cottrell":6249,"Udana":6250,"away":6251,"Ġtiring":6252,"Ġtourn":6253,"Ġfa":6254,"leem":6255,"ĠPitched":6256,"ĠAleem":6257,"itches":6258,"ĠTapan":6259,"Ġstuck":6260,"ĠIf":6261,"Ġmidwicket":6262,"Ġlanded":6263,"Ġoffers":6264,"Ġword":6265,"Ġeventually":6266,"ffin":6267,"ĠSaidhar":6268,"Ġ26048":6269,"Ġ3930354":6270,"Ġ47823":6271,"warded":6272,"Ġyes":6273,"Ġswept":6274,"swinger":6275,"mark":6276,"Ġbiggie":6277,"Ġdecent":6278,"11184":6279,"Ġtournament":6280,"ĠSaidharshan":6281,"Ġ2604889":6282,"Ġ4782326":6283,"2150":6284,"9097":6285,"Lockie":6286,"WD":6287,"Ġye":6288,"Ġtw":6289,"ĠSes":6290,"Ġsound":6291,"ating":6292,"Ġwel":6293,"Ġcushi":6294,"Ġdrilled":6295,"ĠIlling":6296,"Ġeye":6297,"ĠNew":6298,"ots":6299,"Ġ9676":6300,"ĠWat":6301,"Ġlin":6302,"Ġath":6303,"ĠMakes":6304,"Ġrocket":6305,"Ġpres":6306,"Ġblock":6307,"Ġ4077":6308,"Ġ4811184":6309,"Ġcomplete":6310,"ĠNever":6311,"ĠMaharaj":6312,"ertzen":6313,"Ġsomehow":6314,"ĠOnly":6315,"Ġfollowed":6316,"Ġspinner":6317,"Ġ2112150":6318,"Ġ5009097":6319,"Ġinstead":6320,"Ġfloated":6321,"Ġhurt":6322,"ĠKoertzen":6323,"worth":6324,"ĠSeshan":6325,"ĠIllingworth":6326,"Ġ9676395":6327,"Ġ4077127":6328,"4503":6329,"622":6330,"913":6331,"WG":6332,"ba":6333,"ious":6334,"pwi":6335,"rom":6336,"sing":6337,"ĠSol":6338,"arag":6339,"Ġfailed":6340,"ĠMag":6341,"ĠAfter":6342,"Ġmile":6343,"ĠClo":6344,"Ġstance":6345,"ads":6346,"ĠNap":6347,"Ġ913":6348,"ĠLovely":6349,"Ġrewarded":6350,"154":6351,"1694":6352,"Ġbowlers":6353,"Ġarrive":6354,"akh":6355,"Ġduck":6356,"Ġspan":6357,"Ġ4297":6358,"Ġ47242":6359,"Ġ1044503":6360,"Ġcrashes":6361,"Ġclubs":6362,"ĠClears":6363,"RRIO":6364,"ĠWARRIO":6365,"Ġupper":6366,"Ġgener":6367,"ĠTotre":6368,"Ġpredictable":6369,"9030":6370,"Ġathletic":6371,"ĠNapier":6372,"Ġ9131817":6373,"Ġ4297600":6374,"Ġ4724289":6375,"ĠWARRIORS":6376,"0109":6377,"939":6378,"Dinda":6379,"Ġshe":6380,"Ġrid":6381,"Ġcamp":6382,"ĠToss":6383,"Ġap":6384,"Ġpay":6385,"Ġpal":6386,"Ġgra":6387,"ayne":6388,"Ġdeck":6389,"icult":6390,"ĠGL":6391,"105":6392,"009":6393,"Ġexper":6394,"Ġexact":6395,"ĠMuch":6396,"Ġ69913":6397,"Ġ67939":6398,"Ġunus":6399,"Ġ861694":6400,"ĠFullish":6401,"Ġflow":6402,"Ġneat":6403,"...":6404,"Ġ1849030":6405,"Ġspinning":6406,"Ġ7130109":6407,"Ġdrifting":6408,"Azhar":6409,"Ġstruggling":6410,"Ġ6991308":6411,"Ġ6793964":6412,"Ġ8616942":6413,"Al":6414,"Chak":6415,"but":6416,"belie":6417,"min":6418,"mies":6419,"want":6420,"Ġtrav":6421,"ĠKn":6422,"Ġpar":6423,"Ġpump":6424,"ulous":6425,"ĠLooked":6426,"aves":6427,"odi":6428,"though":6429,"astic":6430,"layed":6431,"ĠParakh":6432,"Ġ5483":6433,"Ġ59622":6434,"Ġclearing":6435,"Ġcrun":6436,"ancing":6437,"arrier":6438,"Ġmissing":6439,"Ġproper":6440,"rabh":6441,"Ġcameo":6442,"Ġblast":6443,"Ġfalling":6444,"Ġhope":6445,"Ġmiscues":6446,"Ġrespon":6447,"Ġeffect":6448,"ĠSaurabh":6449,"Ġfreebie":6450,"Ġinteres":6451,"Ġfaint":6452,"ĠWatto":6453,"ĠMagala":6454,"Alzarri":6455,"Chakravarthy":6456,"Ġ5962210":6457,"Cummins":6458,"JE":6459,"Ras":6460,"dge":6461,"milar":6462,"paul":6463,"erpaul":6464,"ĠPa":6465,"ĠPayne":6466,"Ġcra":6467,"Ġeffortless":6468,"epts":6469,"Ġsimilar":6470,"Ġsixer":6471,"Ġbeautiful":6472,"ĠHari":6473,"acant":6474,"Ġsec":6475,"Ġmiscued":6476,"ĠTiffin":6477,"Ġvacant":6478,"Ġ94712":6479,"ĠRPS":6480,"ĠSouth":6481,"Ġ78154":6482,"Ġcrouches":6483,"Ġcho":6484,"anki":6485,"ĠChanderpaul":6486,"277":6487,"ĠMurugan":6488,"Ġconfir":6489,"Ġdifficult":6490,"Ġdugout":6491,"Ġantici":6492,"Ġallowed":6493,"ĠMulani":6494,"Harshit":6495,"ĠSolanki":6496,"Ġunusual":6497,"Rasikh":6498,"Ġ9471259":6499,"Ġ7815415":6500,"cred":6501,"dled":6502,"ji":6503,"jji":6504,"pace":6505,"town":6506,"uy":6507,"ĠSome":6508,"ĠSlight":6509,"ĠSees":6510,"hest":6511,"Ġfun":6512,"vers":6513,"Ġbroke":6514,"Ġret":6515,"Ġemp":6516,"ĠNoff":6517,"ĠWal":6518,"ĠPatward":6519,"Ġthro":6520,"ild":6521,"str":6522,"1019":6523,"urry":6524,"Ġstraightaway":6525,"rajith":6526,"ĠIndrajith":6527,"Ġsaf":6528,"ifier":6529,"239":6530,"pensive":6531,"ĠNarendra":6532,"Ġpunished":6533,"462":6534,"ĠBhajji":6535,"Ġsweetly":6536,"ĠHariharan":6537,"ĠNoffke":6538,"ĠPatwardhan":6539,"AP":6540,"Lalit":6541,"WA":6542,"cing":6543,"may":6544,"pull":6545,"uis":6546,"yam":6547,"orge":6548,"Ġfans":6549,"Ġreturn":6550,"ĠModi":6551,"ĠPicked":6552,"Ġoverthr":6553,"Ġdi":6554,"elig":6555,"Ġinv":6556,"Ġinit":6557,"otion":6558,"ĠWould":6559,"ĠYelig":6560,"ĠShardul":6561,"Ġworld":6562,"Ġdowntown":6563,"antastic":6564,"Ġadds":6565,"Ġcontinue":6566,"Ġ238":6567,"Ġperishes":6568,"ĠAlmost":6569,"Ġ5386":6570,"Ġclever":6571,"Ġ1254":6572,"Ġdispatches":6573,"Ġcons":6574,"Ġsomeone":6575,"Ġwaist":6576,"Ġskier":6577,"359":6578,"ĠSarvesh":6579,"Ġmeant":6580,"Ġmeans":6581,"ĠBharatan":6582,"iffy":6583,"Ġsmoked":6584,"Ġ5231019":6585,"ĠSanjay":6586,"Ġswipe":6587,"Ġattack":6588,"Ġbones":6589,"ypical":6590,"Ġexactly":6591,"Ġsecures":6592,"ĠYeligati":6593,"Ġ5386462":6594,"DJG":6595,"GC":6596,"Suy":6597,"Warrier":6598,"don":6599,"nam":6600,"heba":6601,"Ġsen":6602,"aran":6603,"Ġbent":6604,"Ġrow":6605,"Ġrather":6606,"ĠPro":6607,"Ġmow":6608,"Ġmarg":6609,"Ġpark":6610,"ĠGh":6611,"Ġnail":6612,"ĠLab":6613,"ĠLPC":6614,"Ġthre":6615,"ete":6616,"eth":6617,"rooy":6618,"Ġhut":6619,"ĠSaheba":6620,"Ġmistimes":6621,"ĠSSB":6622,"Ġ46009":6623,"Ġ67277":6624,"Ġlife":6625,"Ġconver":6626,"anced":6627,"ĠBowls":6628,"Ġmean":6629,"iffel":6630,"Arshad":6631,"Ġprec":6632,"ears":6633,"Ġelse":6634,"ĠReiffel":6635,"work":6636,"ĠEnds":6637,"Ġfavour":6638,"Ġcertainly":6639,"Ġthroat":6640,"Ġoverthrow":6641,"Suyash":6642,"ĠLabrooy":6643,"Ġ4600914":6644,"Ġ6727718":6645,"Edge":6646,"Naman":6647,"hole":6648,"nan":6649,"oin":6650,"Ġop":6651,"head":6652,"ingly":6653,"ĠRo":6654,"Ġchip":6655,"Ġmo":6656,"oud":6657,"Ġdeal":6658,"Ġdebut":6659,"Ġinch":6660,"Ġnailed":6661,"10359":6662,"Ġrequ":6663,"ĠEng":6664,"ĠEoin":6665,"ĠSmaran":6666,"katarag":6667,"cts":6668,"Ġwonder":6669,"Ġ3210359":6670,"Ġtosses":6671,"Ġ46239":6672,"Ġslam":6673,"Ġslides":6674,"havan":6675,"ĠVenkatarag":6676,"ĠHaw":6677,"Ġproble":6678,"Gurkeerat":6679,"ĠCarey":6680,"Ġsitting":6681,"Ġstopped":6682,"Ġhorri":6683,"Ġswipes":6684,"Ġdisappointed":6685,"Ġdesperate":6686,"Ġblockhole":6687,"Ġ4623967":6688,"ĠVenkataraghavan":6689,"Mohsin":6690,"Riyan":6691,"Thomas":6692,"Vin":6693,"dles":6694,"gl":6695,"get":6696,"ĠSZ":6697,"ĠSad":6698,"Ġfell":6699,"ater":6700,"lee":6701,"Ġwild":6702,"Ġrub":6703,"ĠRoot":6704,"ashiv":6705,"Ġmust":6706,"ĠDananjaya":6707,"ĠBrab":6708,"Ġdeft":6709,"Ġorder":6710,"ourne":6711,"Ġfourth":6712,"Ġplan":6713,"Ġguess":6714,"ĠDAJ":6715,"Ġalthough":6716,"Ġclue":6717,"Ġslams":6718,"Ġswats":6719,"Ġsharply":6720,"Ġliked":6721,"694":6722,"ĠPriyam":6723,"Ġopeners":6724,"Ġfeel":6725,"Ġseeing":6726,"Ġimport":6727,"ĠDharams":6728,"Ġnearly":6729,"Ġhappened":6730,"spin":6731,"ĠKotian":6732,"Ġaccepts":6733,"Ġbreaks":6734,"ĠTurned":6735,"ĠCloete":6736,"ĠPaine":6737,"Ġbroken":6738,"ĠGhosh":6739,"ĠHawk":6740,"Vinay":6741,"ĠSadashiv":6742,"ĠBrabourne":6743,"ĠDharamsala":6744,"412":6745,"96":6746,"kay":6747,"ĠSub":6748,"Ġfab":6749,"lease":6750,"ĠKus":6751,"Ġcour":6752,"ited":6753,"Ġoften":6754,"Ġmur":6755,"Ġmood":6756,"Ġglee":6757,"Ġdig":6758,"ically":6759,"lime":6760,"Ġholes":6761,"Ġhurry":6762,"Ġreason":6763,"Ġreact":6764,"ĠDhull":6765,"Ġ232":6766,"nadas":6767,"Ġsoon":6768,"Ġ9944":6769,"ĠKrishnadas":6770,"Ġslashes":6771,"ĠHolds":6772,"ucky":6773,"arries":6774,"Ġskies":6775,"ĠBengeri":6776,"ĠAfric":6777,"Ġcordon":6778,"Ġfollows":6779,"ecially":6780,"ecial":6781,"tended":6782,"Ġreplays":6783,"Ġbangs":6784,"Ġdeposits":6785,"ĠUltraEdge":6786,"Ġlines":6787,"Ġpalms":6788,"ĠSlightly":6789,"Ġrequired":6790,"Ġ9944694":6791,"'d":6792,"'re":6793,"Eye":6794,"Ngidi":6795,"Shan":6796,"ached":6797,"body":6798,"gra":6799,"ima":6800,"jit":6801,"oops":6802,"erved":6803,"Ġsheer":6804,"Ġbatter":6805,"Ġrelie":6806,"ĠMort":6807,"Ġpops":6808,"ĠBanged":6809,"rafe":6810,"ĠFifty":6811,"usuf":6812,"ĠYusuf":6813,"Ġouter":6814,"atching":6815,"ashrafe":6816,"oved":6817,"Ġguy":6818,"Ġpaddle":6819,"Ġexc":6820,"Ġspun":6821,"Ġhacks":6822,"airs":6823,"aza":6824,"ĠZol":6825,"Ġ242":6826,"fortun":6827,"Ġ598":6828,"Ġslider":6829,"Ġkitc":6830,"Ġcrashed":6831,"Ġcrashing":6832,"Ġyards":6833,"pens":6834,"Kulwant":6835,"ĠTanush":6836,"Ġclim":6837,"Ġshuffled":6838,"Ġheaved":6839,"Ġfetches":6840,"Ġdisappe":6841,"Ġshack":6842,"Ġpummels":6843,"Ġcount":6844,"credible":6845,"Shankar":6846,"ĠMortaza":6847,"Ġkitchen":6848,"BCJ":6849,"GD":6850,"MF":6851,"NS":6852,"Ra":6853,"Russell":6854,"Willey":6855,"rit":6856,"wara":6857,"Ġ.":6858,"Ġterrific":6859,"inks":6860,"Ġske":6861,"Ġsna":6862,"Ġri":6863,"ĠTai":6864,"hagra":6865,"eswara":6866,"ĠDuss":6867,"uts":6868,"ract":6869,"Ġstarts":6870,"ĠHit":6871,"ality":6872,"ĠGov":6873,"ĠGnan":6874,"ĠWe":6875,"Ġkey":6876,"Ġmanage":6877,"arnage":6878,"ĠShuff":6879,"anted":6880,"ĠHarper":6881,"Ġalright":6882,"indjee":6883,"Ġdue":6884,"Ġspeed":6885,"Ġasking":6886,"Ġvol":6887,"ormal":6888,"Ġsoaring":6889,"Ġcomeback":6890,"Ġ1426":6891,"ount":6892,"ĠThree":6893,"Ġstunning":6894,"Ġopener":6895,"Ġabsolute":6896,"ĠWaits":6897,"ĠBacks":6898,"Ġelu":6899,"bbers":6900,"Ġlifted":6901,"Ġidea":6902,"ĠMukund":6903,"Ġexecution":6904,"Ġbludgeons":6905,"ĠKushagra":6906,"Ġmurder":6907,"ĠAfrican":6908,"ĠTaibu":6909,"ĠDussen":6910,"ĠGovindjee":6911,"ĠGnaneswara":6912,"IC":6913,"KR":6914,"ML":6915,"Pri":6916,"Sw":6917,"Santner":6918,"dd":6919,"dinson":6920,"for":6921,"wanshi":6922,"zes":6923,"Ġseri":6924,"Ġflays":6925,"Ġbur":6926,"Ġrank":6927,"ĠMin":6928,"Ġcup":6929,"Ġcarried":6930,"ĠTD":6931,"ĠTries":6932,"hapat":6933,"Ġpou":6934,"Ġputting":6935,"ĠDala":6936,"ĠHigh":6937,"oted":6938,"ushank":6939,"live":6940,"ĠRaces":6941,"ĠYes":6942,"ullet":6943,"hile":6944,"ĠLong":6945,"shat":6946,"elling":6947,"stairs":6948,"Ġreck":6949,"Ġploy":6950,"ives":6951,"Ġstraighter":6952,"Ġupstairs":6953,"akhapat":6954,"Ġexpensive":6955,"Ġspace":6956,"ĠAny":6957,"Ġpulling":6958,"nocked":6959,"ĠJaddu":6960,"ĠHazare":6961,"Ġswat":6962,"secut":6963,"ĠMaddinson":6964,"Ġclobbers":6965,"Ġprov":6966,"Abishek":6967,"Ġfingerti":6968,"Ġsurv":6969,"ĠRaghuwanshi":6970,"Ġcommit":6971,"ĠVisakhapat":6972,"Ġcushions":6973,"Ġpresent":6974,"ĠTossed":6975,"Ġgrabs":6976,"Ġcracks":6977,"Swapnil":6978,"ushanka":6979,"secutive":6980,"ĠVisakhapatnam":6981,"Poll":6982,"Ramandeep":6983,"aded":6984,"ban":6985,"bbed":6986,"cely":6987,"ghest":6988,"mukh":6989,"ĠSwe":6990,"iness":6991,"inmay":6992,"Ġfri":6993,"Ġbus":6994,"des":6995,"Ġru":6996,"ĠMashrafe":6997,"Ġdancing":6998,"Ġgobbles":6999,"Ġhook":7000,"boun":7001,"Ġscoops":7002,"ĠShast":7003,"ĠABD":7004,"Ġhighest":7005,"ĠAbhi":7006,"Ġpitching":7007,"ĠChinmay":7008,"Ġspl":7009,"Ġspecial":7010,"tains":7011,"Ġ237":7012,"Ġpopped":7013,"aining":7014,"Ġ78412":7015,"Ġslide":7016,"ĠDeshmukh":7017,"Ġaction":7018,"224":7019,"Harmeet":7020,"Ġnext":7021,"ĠMadushanka":7022,"Ġfinding":7023,"ĠArunkumar":7024,"Ġpicking":7025,"ĠComing":7026,"ĠSanvir":7027,"Ġsublime":7028,"Ġmisjudged":7029,"Ġobli":7030,"Ġsafely":7031,"Ġshackles":7032,"Ġvolley":7033,"Pollard":7034,"ĠShastri":7035,"Ġ7841262":7036,"MN":7037,"RN":7038,"Umran":7039,"iwi":7040,"ping":7041,"ressive":7042,"Ġtur":7043,"Ġold":7044,"Ġsort":7045,"Ġfist":7046,"Ġblin":7047,"demark":7048,"Ġwhis":7049,"ĠRis":7050,"ĠKe":7051,"Ġchipped":7052,"Ġmar":7053,"Ġpract":7054,"ĠDur":7055,"ĠBen":7056,"ĠFlo":7057,"ĠGe":7058,"ĠVH":7059,"like":7060,"undred":7061,"Ġbeg":7062,"ĠShri":7063,"ĠMade":7064,"ĠMalan":7065,"oses":7066,"ional":7067,"Ġven":7068,"Ġpocket":7069,"Ġcatching":7070,"Ġjiffy":7071,"ĠBeats":7072,"ĠAkshat":7073,"ĠPVSN":7074,"Ġswir":7075,"Ġdropping":7076,"Ġbrought":7077,"Ġcaress":7078,"Ġsuperbly":7079,"Ġtonk":7080,"ufact":7081,"Ġyoungster":7082,"PVD":7083,"Vijaykumar":7084,"Ġfiercely":7085,"Ġballoons":7086,"Ġneatly":7087,"JEC":7088,"Ġinitially":7089,"Priyansh":7090,"Ġsplice":7091,"LMP":7092,"bing":7093,"ike":7094,"Ġund":7095,"Ġscor":7096,"Ġsens":7097,"Ġfinis":7098,"Ġbiff":7099,"Ġcent":7100,"Ġcarnage":7101,"Ġones":7102,"ĠDra":7103,"ĠCr":7104,"ĠBant":7105,"umper":7106,"harya":7107,"Ġhundred":7108,"Ġplaces":7109,"eeee":7110,"Ġarriv":7111,"ĠStays":7112,"acharya":7113,"ĠMax":7114,"Ġloose":7115,"Ġlosing":7116,"attle":7117,"Ġpitches":7118,"endly":7119,"Ġduo":7120,"ewor":7121,"Ġ275":7122,"ĠBrings":7123,"Ġ3922":7124,"ĠTake":7125,"ĠKingsme":7126,"ĠRajase":7127,"ĠLeg":7128,"Ġconsecutive":7129,"Ġbrute":7130,"365":7131,"Ġdozen":7132,"ĠSarkar":7133,"Ġslipped":7134,"ĠWasn":7135,"Ġsmack":7136,"Ġerror":7137,"Ġexpecting":7138,"Ġsqueezes":7139,"Ġloopy":7140,"Ġdifferent":7141,"Ġspectator":7142,"ĠWalks":7143,"Ġthreaten":7144,"Ġfabulous":7145,"Ġburst":7146,"ĠAbhijit":7147,"Ġturf":7148,"ĠDurban":7149,"ĠBanton":7150,"ĠKingsmead":7151,"GIAN":7152,"JAR":7153,"SING":7154,"UJAR":7155,"VDC":7156,"bber":7157,"khara":7158,"ned":7159,"pecially":7160,"rps":7161,"ser":7162,"uc":7163,"arra":7164,"Ġbumper":7165,"Ġwins":7166,"ĠKiwi":7167,"Ġamp":7168,"Ġpers":7169,"ĠBK":7170,"ists":7171,"ĠJer":7172,"Ġdart":7173,"Ġstood":7174,"ĠHE":7175,"ĠGUJAR":7176,"Ġname":7177,"ĠYuv":7178,"tock":7179,"ĠLIO":7180,"tive":7181,"Ġbackwards":7182,"aved":7183,"Ġshy":7184,"Ġreached":7185,"Ġmanufact":7186,"ĠEk":7187,"ĠKarun":7188,"ĠMarty":7189,"Ġprom":7190,"Ġ234":7191,"umber":7192,"umbles":7193,"Ġ245":7194,"Ġposs":7195,"Ġdisp":7196,"Ġ548":7197,"Ġ5980":7198,"ĠACA":7199,"inners":7200,"Ġ1529":7201,"ĠBoth":7202,"swing":7203,"Ġfirm":7204,"ĠBhattacharya":7205,"ĠRISING":7206,"ĠSUPERGIAN":7207,"Ġbrilliantly":7208,"Ġ..\"":7209,"Ġshowing":7210,"Ġespecially":7211,"Azmatullah":7212,"ĠThrows":7213,"Ġapart":7214,"believ":7215,"ĠHoldstock":7216,"ĠMinz":7217,"Ġfriendly":7218,"ĠMaxi":7219,"ĠRajasekhara":7220,"VDCA":7221,"ĠGUJARAT":7222,"ĠYuvi":7223,"ĠLIONS":7224,"ĠMartyn":7225,"ĠSUPERGIANT":7226,"bad":7227,"hh":7228,"iled":7229,"ihari":7230,"mely":7231,"pay":7232,"tly":7233,"while":7234,"Ġja":7235,"hew":7236,"Ġfla":7237,"Ġrace":7238,"Ġramps":7239,"ĠRuss":7240,"ĠAd":7241,"Ġcause":7242,"ĠTe":7243,"ĠTo":7244,"Ġahead":7245,"eser":7246,"edges":7247,"Ġmin":7248,"ĠDro":7249,"ĠDre":7250,"ĠDwar":7251,"ĠBihari":7252,"Ġdip":7253,"elt":7254,"Ġequ":7255,"Ġ350":7256,"ĠGoyal":7257,"Ġnormal":7258,"ĠNeser":7259,"ĠVaj":7260,"Ġlap":7261,"ĠLook":7262,"ĠShould":7263,"Ġrock":7264,"Ġrocked":7265,"ĠAbs":7266,"ĠSalil":7267,"Ġslogged":7268,"urion":7269,"Ġglov":7270,"ĠOverpitched":7271,"Ġwalked":7272,"Ġseem":7273,"Ġcarry":7274,"Ġsurely":7275,"Ġpremedit":7276,"Ġclip":7277,"Ġcharging":7278,"Ġsmoke":7279,"Ġdismissed":7280,"7667":7281,"sweeps":7282,"Ġ9007667":7283,"Ġcelebrations":7284,"Ġchasing":7285,"Ġlaunched":7286,"ĠRatna":7287,"ĠGeorge":7288,"ĠEkana":7289,"believable":7290,"payee":7291,"ĠVajpayee":7292,"72":7293,"KJ":7294,"Matt":7295,"aked":7296,"appa":7297,"needed":7298,"prit":7299,"rat":7300,"seam":7301,"ĠSearles":7302,"Ġsince":7303,"Ġfantastic":7304,"verappa":7305,"desh":7306,"ĠMidh":7307,"under":7308,"ener":7309,"itch":7310,"itely":7311,"Ġmer":7312,"ĠBG":7313,"Ġdelays":7314,"Ġintended":7315,"Ġthumped":7316,"ĠHima":7317,"epak":7318,"ĠNB":7319,"ĠNaib":7320,"shuis":7321,"Ġworking":7322,"Ġplu":7323,"ishing":7324,"Ġ1922":7325,"herjee":7326,"ĠKaverappa":7327,"Ġtucks":7328,"Ġ260":7329,"Ġ241":7330,"Ġdishes":7331,"Ġclatters":7332,"Ġwhats":7333,"Ġ11784":7334,"allops":7335,"Ġhander":7336,"290":7337,"oking":7338,"Ġattempts":7339,"Ġglance":7340,"Ġangles":7341,"Shivil":7342,"Ġfollowthrough":7343,"ĠSlic":7344,"Ġdragging":7345,"Ġknocks":7346,"Ġhappen":7347,"Deepak":7348,"Ġraise":7349,"oxed":7350,"Ġelb":7351,"Ġready":7352,"ĠPradesh":7353,"Ġexpected":7354,"Ġmaybe":7355,"Ġtrademark":7356,"Ġante":7357,"Ġideal":7358,"ĠMukherjee":7359,"Ġchases":7360,"Ġshimmy":7361,"Ġteas":7362,"Ġpractice":7363,"ĠJerling":7364,"badin":7365,"ĠDwarshuis":7366,"ĠAbsolut":7367,"ĠMidhun":7368,"ĠHimachal":7369,"Ġ1922365":7370,",\"":7371,"oaib":7372,"oever":7373,"ura":7374,"Ġjab":7375,"Ġtypical":7376,"ĠSwar":7377,"anand":7378,"Ġfanc":7379,"Ġrushed":7380,"ĠMight":7381,"ĠKel":7382,"ĠAus":7383,"Ġcul":7384,"Ġpier":7385,"Ġpavi":7386,"ĠDon":7387,"Ġgee":7388,"Ġgather":7389,"Ġdream":7390,"Ġden":7391,"ĠFinally":7392,"Ġsteer":7393,"Ġstation":7394,"ĠHits":7395,"Ġem":7396,"lion":7397,"ĠWide":7398,"ĠWhen":7399,"Ġlad":7400,"ĠLo":7401,"Ġshout":7402,"164":7403,"Ġplants":7404,"Ġquality":7405,"rave":7406,"aches":7407,"Ġprod":7408,"osener":7409,"urnoor":7410,"Ġ3495":7411,"Ġclubbed":7412,"Ġagg":7413,"ific":7414,"Ġsettle":7415,"Shoaib":7416,"Ġcloser":7417,"Ashutosh":7418,"oopanand":7419,"Ġsmartly":7420,"Ġhurried":7421,"erial":7422,"Ġhangs":7423,"Ġshimmies":7424,"Ġconvin":7425,"Ġmilest":7426,"Ġcrunches":7427,"Ġempty":7428,"Ġdipping":7429,"ĠProbably":7430,"spinner":7431,"forward":7432,"Ġsurvives":7433,"ework":7434,"Ġglovework":7435,"Ġwhatsoever":7436,"ĠSwaroopanand":7437,"ĠKelkar":7438,"ĠAustra":7439,"Ġpavilion":7440,"GB":7441,"JDP":7442,"Ko":7443,"bble":7444,"jas":7445,"kravarthy":7446,"vent":7447,"Ġtemp":7448,"arly":7449,"Ġbull":7450,"Ġbullet":7451,"Ġwhe":7452,"Ġramp":7453,"Ġrise":7454,"ĠAng":7455,"Ġchal":7456,"Ġcling":7457,"Ġaerial":7458,"Ġoverp":7459,"ĠDri":7460,"ĠCent":7461,"ises":7462,"idish":7463,"Ġless":7464,"Ġthank":7465,"Ġtail":7466,"Ġmiddled":7467,"Ġlone":7468,"ĠLeh":7469,"time":7470,"mann":7471,"stand":7472,"ĠChakravarthy":7473,"Ġshov":7474,"Ġeasier":7475,"Ġevade":7476,"remely":7477,"ĠStands":7478,"opter":7479,"imming":7480,"Ġlobbed":7481,"Ġexten":7482,"Ġspins":7483,"Ġ244":7484,"Ġ246":7485,"Ġvari":7486,"Ġdisg":7487,"Ġ8297":7488,"Ġhardly":7489,"ĠMisses":7490,"oka":7491,"comes":7492,"Ġliv":7493,"ĠPrithviraj":7494,"ĠGupta":7495,"Ġbites":7496,"Ġclobber":7497,"ĠBaroka":7498,"agnific":7499,"Ġcarve":7500,"Ġcharged":7501,"Ġreaching":7502,"Ġshuffle":7503,"ĠMulder":7504,"metre":7505,"Ġsurprise":7506,"Ġrisk":7507,"Ġextends":7508,"Ġparry":7509,"Ġanticipat":7510,"Ġretired":7511,"Raina":7512,"Ġsnaff":7513,"Ġserious":7514,"bounce":7515,"Ġfinishes":7516,"Ġculprit":7517,"Ġ3495290":7518,"Ġmilestone":7519,"ĠAustrali":7520,"Kochi":7521,"ĠLehmann":7522,"agnificent":7523,"Duminy":7524,"Prin":7525,"bat":7526,"gy":7527,"lucky":7528,"port":7529,"sion":7530,"uraj":7531,"wiv":7532,"Ġtoying":7533,"initely":7534,"Ġsave":7535,"Ġsailed":7536,"Ġsaved":7537,"Ġfram":7538,"Ġbar":7539,"Ġboot":7540,"Ġbattle":7541,"ital":7542,"edit":7543,"Ġmere":7544,"Ġmatters":7545,"ĠDa":7546,"ĠDwiv":7547,"ĠBhav":7548,"ĠFour":7549,"elled":7550,"Ġlearn":7551,"Ġthump":7552,"ĠGurnoor":7553,"Ġnick":7554,"ĠNel":7555,"lift":7556,"ĠRaced":7557,"Ġgol":7558,"que":7559,"ively":7560,"Ġaren":7561,"Ġheart":7562,"Ġmiser":7563,"Ġspinners":7564,"ocks":7565,"Ġchann":7566,"Ġ236":7567,"ĠShaikh":7568,"gest":7569,"Ġslash":7570,"Ġ13594":7571,"Ġ13595":7572,"Ġsquir":7573,"lence":7574,"oah":7575,"Ġlofting":7576,"ĠWho":7577,"Ġtroub":7578,"Ġglori":7579,"Ġhandsome":7580,"Ġbrutal":7581,"ĠJames":7582,"ĠSwings":7583,"ĠRuns":7584,"ĠGulbadin":7585,"WPUJC":7586,"Ġchecked":7587,"Ġslowly":7588,"Ġbadly":7589,"Ġjoins":7590,"Ġensured":7591,"Ġsurprised":7592,"Ġdifference":7593,"Ġapplause":7594,"Ġtransfers":7595,"Ġwelcome":7596,"Ġgenerate":7597,"ĠHawkEye":7598,"ĠShuffles":7599,"Ġblinder":7600,"Ġample":7601,"Ġstationed":7602,"ĠCenturion":7603,"Ġlivid":7604,"Prince":7605,"Ġframe":7606,"ĠDwivedi":7607,"ĠBhavesh":7608,"Head":7609,"Khejroliya":7610,"Kuggeleijn":7611,"LA":7612,"MV":7613,"Sport":7614,"TK":7615,"form":7616,"iwala":7617,"oom":7618,"pur":7619,"uhan":7620,"zing":7621,"Ġ@":7622,"ĠSard":7623,"ĠSee":7624,"Ġsud":7625,"Ġfight":7626,"Ġboss":7627,"ĠRimming":7628,"Ġcam":7629,"Ġcards":7630,"Ġpop":7631,"Ġpain":7632,"Ġpose":7633,"ĠChat":7634,"Ġgr":7635,"Ġgon":7636,"Ġdust":7637,"icopter":7638,"Ġindu":7639,"Ġlean":7640,"Ġleaves":7641,"alifier":7642,"Ġelegant":7643,"Ġetern":7644,"ĠGu":7645,"ĠGre":7646,"ĠNic":7647,"ĠWay":7648,"ĠWicket":7649,"ĠYe":7650,"Ġlit":7651,"Ġoffie":7652,"ĠChauhan":7653,"Ġhung":7654,"136":7655,"ĠEas":7656,"Ġscal":7657,"ĠMSD":7658,"Ġloosener":7659,"Ġcutting":7660,"Ġroars":7661,"Ġracing":7662,"tracking":7663,"ĠSuperSport":7664,"Ġ243":7665,"ĠFlatter":7666,"2020":7667,"Ġjumped":7668,"Ġjugg":7669,"Ġmaiden":7670,"Ġkis":7671,"Ġkick":7672,"Ġcredit":7673,"Ġflashes":7674,"ĠMeriwala":7675,"Ġairrr":7676,"Ġwouldn":7677,"Ġfeather":7678,"Ġcarrom":7679,"Ġblame":7680,"JDS":7681,"Ġsmall":7682,"ĠComp":7683,"bbled":7684,"Ġsimply":7685,"Ġsqueeze":7686,"theless":7687,"Ġunleashes":7688,"Ġcaresses":7689,"ĠTejas":7690,"Ġextension":7691,"Ġvariation":7692,"ĠSardar":7693,"Ġsudden":7694,"ĠRimmington":7695,"OA":7696,"Par":7697,"Pankaj":7698,"SD":7699,"VY":7700,"gun":7701,"imed":7702,"tes":7703,"turn":7704,"Ġtill":7705,"ĠSk":7706,"Ġbrave":7707,"Ġrare":7708,"Ġrange":7709,"Ġraining":7710,"ashi":7711,"ĠPower":7712,"Ġcas":7713,"ĠTha":7714,"Ġaf":7715,"Ġaff":7716,"Ġmish":7717,"Ġforeh":7718,"ĠJo":7719,"Ġgrip":7720,"Ġdays":7721,"ics":7722,"Ġinswinger":7723,"Ġthwa":7724,"ĠGav":7725,"Ġnor":7726,"Ġnerves":7727,"eption":7728,"ĠVM":7729,"Ġfrees":7730,"hiya":7731,"ĠLoop":7732,"Ġbackfoot":7733,"mani":7734,"Ġhops":7735,"Ġbeaut":7736,"Ġquiet":7737,"rects":7738,"old":7739,"imin":7740,"ĠSKY":7741,"ĠSmart":7742,"Ġupro":7743,"tally":7744,"Ġ239":7745,"umbling":7746,"Ġasked":7747,"ĠPress":7748,"ĠParmar":7749,"ember":7750,"Ġknocked":7751,"Ġstylish":7752,"Ġchops":7753,"coming":7754,"Ġhalfway":7755,"Ġstrate":7756,"Ġhelmet":7757,"Ġhelicopter":7758,"Ġfeeds":7759,"Ġdismisses":7760,"Ġchest":7761,"Ġchecks":7762,"Ġreads":7763,"Ġsteal":7764,"Ġpacer":7765,"Ġhorror":7766,"Ġconfident":7767,"Ġrisky":7768,"Ġblasts":7769,"Ġinteresting":7770,"Ġcleverly":7771,"Ġfingertips":7772,"Ġpresents":7773,"Ġbusiness":7774,"ĠFloated":7775,"Ġfancy":7776,"ĠDahiya":7777,"Ġchannel":7778,"Ġeternity":7779,"ĠThala":7780,"ĠGavaskar":7781,"AG":7782,"cer":7783,"gged":7784,"ipped":7785,"Ġterrible":7786,"ĠSlog":7787,"Ġtow":7788,"Ġtotally":7789,"ero":7790,"Ġfive":7791,"ative":7792,"Ġwoah":7793,"onest":7794,"ĠPWA":7795,"Ġah":7796,"Ġmotion":7797,"Ġpalm":7798,"Ġforced":7799,"ĠDis":7800,"ĠFine":7801,"ĠFraction":7802,"Ġincredible":7803,"Ġleaps":7804,"Ġleather":7805,"hardi":7806,"Ġnudge":7807,"Ġnumber":7808,"ĠNice":7809,"Ġlaz":7810,"Ġloves":7811,"Ġlatches":7812,"Ġthrashes":7813,"Ġcovered":7814,"Ġrecover":7815,"Ġlonger":7816,"ivan":7817,"ĠStun":7818,"Ġscream":7819,"risp":7820,"ĠOkay":7821,"ĠSaxen":7822,"Ġroar":7823,"Ġroof":7824,"Ġwatching":7825,"Ġshortened":7826,"ĠIndore":7827,"ĠRajkot":7828,"Ġuns":7829,"izes":7830,"ĠBehardi":7831,"Ġ11366":7832,"Ġslogging":7833,"Ġhandy":7834,"ĠWhy":7835,"Ġneither":7836,"ĠPrice":7837,"Ġusual":7838,"Ġfootwork":7839,"Ġsweeping":7840,"ĠSargun":7841,"Ġevening":7842,"Ġstarting":7843,"uthor":7844,"Naveen":7845,"Anuj":7846,"Ġclipping":7847,"ĠDharmani":7848,"Ġfastest":7849,"ĠReaches":7850,"Ġconcedes":7851,"Ġtickles":7852,"ĠBirla":7853,"Ġaccount":7854,"Ġscooped":7855,"Ġspoons":7856,"Ġtrap":7857,"Ġdelighted":7858,"Ġtreat":7859,"Ġwhacks":7860,"Ġdabs":7861,"Ġ12165":7862,"Ġcurtains":7863,"Ġescapes":7864,"Ġexperi":7865,"minous":7866,"Ġeffortlessly":7867,"stret":7868,"Ġproblem":7869,"Ġhorrible":7870,"Ġpossible":7871,"Ġdispatch":7872,"ĠAustralian":7873,"Ġglorious":7874,"ĠThalaivan":7875,"ĠSaxena":7876,"ĠBehardien":7877,"ĠSargunam":7878,"FH":7879,"Joginder":7880,"Sim":7881,"UBT":7882,"VVS":7883,"VRV":7884,"cl":7885,"driv":7886,"doz":7887,"fan":7888,"ior":7889,"iles":7890,"Ġtal":7891,"Ġtraj":7892,"Ġominous":7893,"Ġfam":7894,"ature":7895,"Ġrel":7896,"Ġrad":7897,"ĠMon":7898,"Ġcase":7899,"Ġaimed":7900,"Ġauthor":7901,"Ġmagnificent":7902,"Ġping":7903,"Ġforces":7904,"ander":7905,"ums":7906,"ĠHands":7907,"ĠRazz":7908,"ĠWest":7909,"ĠLI":7910,"Ġsilence":7911,"Ġcool":7912,"Ġhonest":7913,"Ġshoes":7914,"Ġarr":7915,"Ġquest":7916,"ĠER":7917,"antage":7918,"acy":7919,"Ġloads":7920,"aster":7921,"Ġtuck":7922,"Ġshortens":7923,"Ġass":7924,"Ġ3360":7925,"Ġpoints":7926,"Ġunfortun":7927,"Ġunlucky":7928,"Ġslid":7929,"Ġsaid":7930,"Ġcrunched":7931,"Ġsquar":7932,"Ġ1473":7933,"Ġyor":7934,"ĠClever":7935,"Ġswatted":7936,"ectory":7937,"Ġusing":7938,"selves":7939,"Ġclosed":7940,"Ġtracker":7941,"Ġthemselves":7942,"ective":7943,"ĠSlow":7944,"Ġcarved":7945,"Ġimpress":7946,"Ġthrowing":7947,"Neesham":7948,"Ġedges":7949,"Ġcelebrate":7950,"Ġsprints":7951,"Ġwinning":7952,"Ġcreamed":7953,"Ġkneels":7954,"Ġthinks":7955,"Ġlooped":7956,"Ġboom":7957,"Ġcalmly":7958,"Ġsuccess":7959,"Ġspanks":7960,"Ġexpertly":7961,"Ġinterested":7962,"Ġprecision":7963,"Ġslammed":7964,"gether":7965,"Ġreckon":7966,"ĠKeeps":7967,"Ġbegin":7968,"Ġoverpitches":7969,"ĠNicely":7970,"tesy":7971,"ĠJohan":7972,"Simarjeet":7973,"Ġtrajectory":7974,"Ġradar":7975,"ĠRazzak":7976,"AF":7977,"Jay":7978,"KW":7979,"PK":7980,"Yarra":7981,"bly":7982,"nes":7983,"pe":7984,"qullah":7985,"rfan":7986,"te":7987,"vedi":7988,"ĠSits":7989,"ĠShim":7990,"ĠSeth":7991,"ined":7992,"Ġshi":7993,"Ġslo":7994,"Ġsug":7995,"Ġfig":7996,"Ġwatches":7997,"Ġwallops":7998,"ĠMB":7999,"ĠMr":8000,"ĠMoves":8001,"ĠRem":8002,"ĠPlayed":8003,"Ġcamps":8004,"edy":8005,"ĠDanced":8006,"ĠCame":8007,"raid":8008,"ĠJalaj":8009,"Ġgri":8010,"Ġgutt":8011,"Ġstro":8012,"Ġstory":8013,"ĠImp":8014,"Ġlevers":8015,"ĠThese":8016,"uring":8017,"urashtra":8018,"urvedi":8019,"Ġlaugh":8020,"Ġcombo":8021,"aving":8022,"udhe":8023,"ĠUA":8024,"jacent":8025,"Ġsele":8026,"Ġadjacent":8027,"ĠSahas":8028,"ĠSaurashtra":8029,"Ġbucket":8030,"Ġ262":8031,"Ġvo":8032,"ĠAnish":8033,"ĠAlso":8034,"Ġunbelievable":8035,"ediqullah":8036,"Ġclai":8037,"Ġcrou":8038,"Ġdrill":8039,"wanath":8040,"Ġdrove":8041,"Ġtrust":8042,"ĠDeceived":8043,"Ġsetting":8044,"ĠBreetz":8045,"ifth":8046,"Ġcloses":8047,"Ġproving":8048,"rabudhe":8049,"Ġreviews":8050,"Shivang":8051,"Ġsupp":8052,"Ġimpressive":8053,"Ġflier":8054,"Ġdepart":8055,"Ġchecking":8056,"Ġshuffling":8057,"Ġfloaty":8058,"Ġleapt":8059,"Shahid":8060,"Ġchipping":8061,"Ġlaunch":8062,"Dhoni":8063,"Ġthinking":8064,"ĠSaurav":8065,"Ġadvantage":8066,"Ġstretch":8067,"ĠViswanath":8068,"Ġextremely":8069,"Ġresponse":8070,"Ġconfirms":8071,"Ġmode":8072,"Ġdigs":8073,"Ġpouch":8074,"Ġvenom":8075,"ucial":8076,"Ġfirmly":8077,"ĠDropped":8078,"Ġwhether":8079,"ĠChaturvedi":8080,"Ġafraid":8081,"Ġbeauty":8082,"ĠPressure":8083,"Jayant":8084,"Ġgutted":8085,"ĠSahasrabudhe":8086,"ĠBreetzke":8087,"HR":8088,"Kam":8089,"SH":8090,"SJ":8091,"ef":8092,"eat":8093,"pect":8094,"wne":8095,"Ġutter":8096,"ĠStill":8097,"ĠSix":8098,"Ġsped":8099,"Ġsneaks":8100,"Ġfuss":8101,"Ġben":8102,"Ġred":8103,"ĠRW":8104,"ĠKan":8105,"Ġcrisp":8106,"ĠTymal":8107,"Ġack":8108,"Ġalive":8109,"eding":8110,"Ġmates":8111,"Ġpack":8112,"Ġparried":8113,"Ġbam":8114,"Ġdips":8115,"Ġdances":8116,"Ġdelic":8117,"Ġstran":8118,"ĠIsh":8119,"Ġinj":8120,"Ġtaps":8121,"ote":8122,"Ġlegbreak":8123,"ĠWill":8124,"ĠWidth":8125,"Ġnobody":8126,"ular":8127,"Ġlun":8128,"Ġlays":8129,"manullah":8130,"137":8131,"Ġrelease":8132,"qualifier":8133,"Ġstraightened":8134,"Ġstraightforward":8135,"Ġarches":8136,"Ġdefinitely":8137,"ubham":8138,"Ġsear":8139,"Ġadm":8140,"Ġpaddles":8141,"cted":8142,"Ġhack":8143,"Ġ257":8144,"ĠBhatkal":8145,"Ġsigns":8146,"izont":8147,"Ġ1136":8148,"ĠHolkar":8149,"Ġcrucial":8150,"legance":8151,"Ġpowered":8152,"Ġhandle":8153,"Ġswall":8154,"ĠEnough":8155,"Ġholding":8156,"Ġcreates":8157,"nowled":8158,"Rahmanullah":8159,"Ġwhippy":8160,"Ġparty":8161,"Sameer":8162,"Ġdouble":8163,"ĠBawne":8164,"Ġformer":8165,"Ġexplo":8166,"ĠReally":8167,"Ġhorizont":8168,"beat":8169,"Ġtouched":8170,"Ġshall":8171,"ĠQuicker":8172,"Ġrespect":8173,"Ġintentions":8174,"Ġbisecting":8175,"century":8176,"Ġeffective":8177,"Ġhang":8178,"Ġaiming":8179,"Ġsuccessive":8180,"ĠRathee":8181,"Ġtransfer":8182,"Ġchopped":8183,"Ġinvit":8184,"Ġimportant":8185,"Ġrelief":8186,"Ġeludes":8187,"Ġwhist":8188,"Ġundone":8189,"Ġsensational":8190,"Ġmanufacture":8191,"ĠAbsolutely":8192,"ĠGreat":8193,"ĠEasily":8194,"Ġscalp":8195,"iminator":8196,"Ġlazy":8197,"ĠJohannes":8198,"Kamran":8199,"Ġacknowled":8200,"Ġstranded":8201,"BW":8202,"DH":8203,"Final":8204,"Pra":8205,"Qual":8206,"WI":8207,"XC":8208,"final":8209,"gal":8210,"hod":8211,"paced":8212,"ught":8213,"upped":8214,"zi":8215,"zed":8216,"Ġug":8217,"Ġtumbling":8218,"ĠSediqullah":8219,"Ġserves":8220,"arr":8221,"Ġfaces":8222,"Ġfashi":8223,"Ġwings":8224,"Ġrows":8225,"Ġrushes":8226,"Ġreds":8227,"ĠRan":8228,"enal":8229,"Ġchat":8230,"Ġmon":8231,"Ġpair":8232,"Ġforg":8233,"ĠDes":8234,"raful":8235,"Ġgig":8236,"Ġgames":8237,"Ġdire":8238,"Ġstate":8239,"Ġstepped":8240,"ĠIL":8241,"ĠGA":8242,"Ġnut":8243,"Ġnone":8244,"ĠNik":8245,"Ġstriking":8246,"hik":8247,"Ġcomb":8248,"fting":8249,"ivels":8250,"eemp":8251,"Ġscy":8252,"ope":8253,"ĠAshraful":8254,"Ġlengths":8255,"ĠArgal":8256,"ĠOpens":8257,"endous":8258,"Ġoffered":8259,"Ġ254":8260,"Ġ255":8261,"Ġ247":8262,"Ġpole":8263,"Ġdisplay":8264,"ĠPerhaps":8265,"Ġjoy":8266,"ĠSoft":8267,"ĠMust":8268,"ĠAbdur":8269,"Ġbelow":8270,"Ġbelted":8271,"Ġenj":8272,"iance":8273,"Ġlikes":8274,"Ġstrength":8275,"Ġclouts":8276,"Ġawful":8277,"Ġcleaners":8278,"ĠBarinder":8279,"Ġmeet":8280,"Ġslowed":8281,"Ġconnected":8282,"Ġshowed":8283,"ĠHowell":8284,"Ġnonchalance":8285,"Ġmethod":8286,"Ġbisected":8287,"Ġdisappointment":8288,"Ġwhack":8289,"Ġwhacked":8290,"Ġfierce":8291,"Ġstretched":8292,"Ġescaped":8293,"pulls":8294,"Ġmeanwhile":8295,"Ġoption":8296,"Ġimportantly":8297,"Ġcourse":8298,"Ġcourtesy":8299,"Ġgleefully":8300,"Ġcommitted":8301,"ĠSweet":8302,"ĠBenson":8303,"Ġcentury":8304,"Ġarrived":8305,"Ġpremeditated":8306,"rata":8307,"Ġhappening":8308,"Ġclobbered":8309,"Ġheartbeat":8310,"Ġmisery":8311,"Ġforehand":8312,"Ġtalking":8313,"ĠMonu":8314,"Ġpinged":8315,"Ġyorkers":8316,"Ġsloppy":8317,"Prayas":8318,"Qualifier":8319,"Ġugly":8320,"Ġfashion":8321,"ĠNikhil":8322,"AU":8323,"CK":8324,"DG":8325,"HM":8326,"PR":8327,"Sikandar":8328,"cce":8329,"fied":8330,"kt":8331,"uds":8332,"upp":8333,"Ġtrapped":8334,"Ġser":8335,"Ġfol":8336,"Ġfail":8337,"Ġbatted":8338,"Ġratt":8339,"ĠRep":8340,"ĠRoc":8341,"ĠRocks":8342,"lliance":8343,"ĠPl":8344,"ĠPiy":8345,"Ġcupped":8346,"ĠTough":8347,"Ġoverturn":8348,"Ġpiv":8349,"Ġpass":8350,"Ġparries":8351,"Ġfort":8352,"isely":8353,"ĠJon":8354,"Ġstadium":8355,"Ġwasted":8356,"Ġlevel":8357,"Ġthus":8358,"Ġelegance":8359,"ĠGG":8360,"Ġ600":8361,"Ġordin":8362,"Ġlaps":8363,"Ġloud":8364,"Ġlater":8365,"hips":8366,"tie":8367,"Ġbacklift":8368,"illed":8369,"Ġcoll":8370,"room":8371,"quis":8372,"fted":8373,"ĠYadavindra":8374,"oving":8375,"Ġdeserved":8376,"Ġdots":8377,"Ġdefence":8378,"antic":8379,"acing":8380,"Ġwithin":8381,"ĠDhok":8382,"osed":8383,"Ġ258":8384,"Ġvis":8385,"ricult":8386,"Ġ392":8387,"ĠSimple":8388,"ĠMusheer":8389,"Ġsplitting":8390,"Ġkid":8391,"ĠNeed":8392,"Ġcrash":8393,"Ġbelts":8394,"Ġagricult":8395,"comb":8396,"ĠMaharaja":8397,"Ġsettled":8398,"Ġdrama":8399,"REE":8400,"THREE":8401,"Sohail":8402,"Ġlots":8403,"Ġnevertheless":8404,"Ġraised":8405,"Ġfrustration":8406,"Ġshaping":8407,"Ġfloor":8408,"Ġerup":8409,"Ġtickled":8410,"habh":8411,"Ġappro":8412,"Ġspoils":8413,"Ġattacking":8414,"Ġadjusts":8415,"Ġswivelled":8416,"Ġyear":8417,"Ġyears":8418,"Ġrockets":8419,"Ġspanked":8420,"Ġflowing":8421,"Ġanticip":8422,"Ġconsum":8423,"Ġmargin":8424,"ĠEnglish":8425,"Ġproblems":8426,"ĠSubrata":8427,"Ġdisappears":8428,"Ġskew":8429,"Ġskews":8430,"ĠRishabh":8431,"Ġswirling":8432,"ĠLoopy":8433,"Ġtreatment":8434,"stretched":8435,"ĠHandscomb":8436,"ĠShimmies":8437,"Ġfigures":8438,"Ġselection":8439,"WIDE":8440,"Ġgigantic":8441,"Ġscyt":8442,"ĠRocket":8443,"ĠPiyush":8444,"Ġordinary":8445,"ĠDhokre":8446,"Ġagricultura":8447,"'m":8448,"Bri":8449,"Fazal":8450,"TS":8451,"bur":8452,"bish":8453,"go":8454,"ifts":8455,"iverse":8456,"ters":8457,"vation":8458,"Ġter":8459,"Ġtiny":8460,"corrects":8461,"ination":8462,"Ġsin":8463,"Ġskied":8464,"Ġfumbles":8465,"Ġfoxed":8466,"Ġfifth":8467,"Ġbroom":8468,"Ġwo":8469,"Ġwidish":8470,"ĠMe":8471,"ĠMish":8472,"unil":8473,"ĠKupp":8474,"ĠAuss":8475,"Ġcust":8476,"ition":8477,"itching":8478,"ĠTalk":8479,"Ġaud":8480,"Ġplease":8481,"ĠDances":8482,"ĠCatching":8483,"ĠBit":8484,"ĠBose":8485,"Ġgem":8486,"Ġglor":8487,"Ġgras":8488,"Ġgears":8489,"Ġdishing":8490,"ourish":8491,"Ġdelayed":8492,"Ġins":8493,"Ġinde":8494,"ĠHur":8495,"uses":8496,"lies":8497,"lips":8498,"ardings":8499,"ĠRaipur":8500,"ĠWhere":8501,"ĠWander":8502,"mazing":8503,"Ġlower":8504,"ĠLands":8505,"rounder":8506,"Ġhero":8507,"118":8508,"Ġplon":8509,"ople":8510,"ĠDhawal":8511,"hati":8512,"ĠKazi":8513,"Ġsea":8514,"ĠMaiden":8515,"ĠSahara":8516,"Ġproud":8517,"Ġanyway":8518,"Ġspe":8519,"Ġ253":8520,"Ġjams":8521,"Ġsmashing":8522,"erally":8523,"Ġswift":8524,"Ġflatt":8525,"Ġflourish":8526,"wahati":8527,"lined":8528,"compens":8529,"ĠMaybe":8530,"Ġbiggest":8531,"ĠMDKJ":8532,"uffed":8533,"itten":8534,"ĠMunaf":8535,"Ġmeal":8536,"Ġskidded":8537,"Ġdecide":8538,"Ġgreet":8539,"Ġgreedy":8540,"Ġfloater":8541,"ĠFired":8542,"Ġdrifted":8543,"ressing":8544,"Ġgrabbed":8545,"Ġbisects":8546,"Ġstepping":8547,"Ġpounce":8548,"Ġpounces":8549,"Ġensure":8550,"ĠCouldn":8551,"Ġtwice":8552,"Ġresponds":8553,"Ġcountry":8554,"Ġruins":8555,"Ġplucks":8556,"Ġelbow":8557,"Ġconvincing":8558,"Ġevades":8559,"Ġlearning":8560,"Ġcamer":8561,"Ġleaning":8562,"ĠGuwahati":8563,"Parvez":8564,"Ġmishit":8565,"Ġauthority":8566,"Ġsquarer":8567,"Ġvoice":8568,"Ġhorizontal":8569,"ĠJohannesbur":8570,"Ġdirection":8571,"Ġenjoy":8572,"Ġfolks":8573,"Brijesh":8574,"Fazalhaq":8575,"ĠKuppuraj":8576,"Ġcustom":8577,"Ġglory":8578,"ĠWanderers":8579,"ĠJohannesburg":8580,"JL":8581,"MW":8582,"May":8583,"YA":8584,"YV":8585,"aa":8586,"blo":8587,"ex":8588,"fall":8589,"iously":8590,"lands":8591,"mo":8592,"over":8593,"pole":8594,"tory":8595,"wide":8596,"yy":8597,"Ġut":8598,"Ġvi":8599,"Ġtent":8600,"ĠSeam":8601,"ĠSunil":8602,"Ġtoes":8603,"Ġokay":8604,"hearted":8605,"Ġsal":8606,"Ġshell":8607,"Ġboo":8608,"Ġbits":8609,"Ġbrace":8610,"ĠPacy":8611,"Ġcracked":8612,"itting":8613,"ĠTown":8614,"ĠTest":8615,"ĠTried":8616,"Ġmain":8617,"Ġpur":8618,"Ġpats":8619,"ĠCred":8620,"raying":8621,"ĠJohn":8622,"Ġdance":8623,"Ġdarts":8624,"Ġdressing":8625,"Ġwaste":8626,"ĠThen":8627,"entional":8628,"liz":8629,"ĠWrist":8630,"Ġoutstretched":8631,"ĠLungi":8632,"til":8633,"Ġthread":8634,"Ġgobbled":8635,"Ġreleas":8636,"Ġdesired":8637,"Ġgently":8638,"anting":8639,"loy":8640,"Ġseal":8641,"Ġhistory":8642,"Ġloss":8643,"Ġroute":8644,"Ġcontest":8645,"ĠMalhot":8646,"Ġpresses":8647,"Ġcramps":8648,"Ġbloke":8649,"Ġspike":8650,"ibly":8651,"Ġchanged":8652,"Ġ252":8653,"ĠQd":8654,"Ġjig":8655,"Ġ734":8656,"Ġharm":8657,"Ġclassy":8658,"Ġ11365":8659,"oche":8660,"Ġswitch":8661,"Ġways":8662,"runt":8663,"ĠCape":8664,"ĠSwivels":8665,"Ġpunishes":8666,"Ġwritten":8667,"Ġreviewed":8668,"Ġsucce":8669,"Ġswivelling":8670,"Ġdamn":8671,"Ġexpress":8672,"Ġexposes":8673,"Ġluckily":8674,"Ġtonking":8675,"Ġdelivered":8676,"Ġhopes":8677,"Ġhurls":8678,"BAW":8679,"ĠUnfortun":8680,"Ġsprinted":8681,"Ġbringing":8682,"Ġambit":8683,"Ġsqueezed":8684,"ĠHaddin":8685,"Ġstaying":8686,"Ġlightning":8687,"Ġfavor":8688,"Ġentire":8689,"Ġapplaud":8690,"ĠThrough":8691,"Ġtwist":8692,"ĠNewlands":8693,"ĠKnuckle":8694,"Ġcrunch":8695,"Ġconfirm":8696,"Ġmarginally":8697,"Ġconverts":8698,"Ġdealing":8699,"Ġclueless":8700,"Ġripper":8701,"Ġcups":8702,"ĠAnyway":8703,"ĠDrags":8704,"Ġthreatening":8705,"ĠSliced":8706,"Ġaggress":8707,"Ġanticipated":8708,"dozen":8709,"Ġsugges":8710,"Ġcrouched":8711,"Ġpacking":8712,"Ġinsult":8713,"Mayank":8714,"ĠCredit":8715,"ĠMalhotra":8716,"),":8717,"CM":8718,"DK":8719,"Dananjaya":8720,"FY":8721,"KMA":8722,"PBB":8723,"Rutherford":8724,"Sur":8725,"Sach":8726,"SCA":8727,"Yudhvir":8728,"down":8729,"ext":8730,"ney":8731,"oded":8732,"res":8733,"uel":8734,"watching":8735,"Ġlights":8736,"Ġtor":8737,"ering":8738,"Ġsinks":8739,"Ġfiz":8740,"Ġfunk":8741,"ataka":8742,"leng":8743,"Ġbend":8744,"Ġbox":8745,"Ġwry":8746,"Ġrising":8747,"ĠKee":8748,"ĠKER":8749,"ĠPort":8750,"ĠPSP":8751,"ĠPlays":8752,"ĠPhew":8753,"Ġca":8754,"Ġcat":8755,"Ġcheer":8756,"Ġcarries":8757,"ites":8758,"itts":8759,"ĠTre":8760,"ĠTerrific":8761,"ĠTypical":8762,"edged":8763,"Ġmows":8764,"Ġmerri":8765,"Ġmitts":8766,"Ġpin":8767,"Ġpep":8768,"Ġfore":8769,"ĠChan":8770,"ĠCol":8771,"ĠCutt":8772,"ĠCann":8773,"uted":8774,"rage":8775,"ĠJSCA":8776,"Ġdying":8777,"ication":8778,"owed":8779,"Ġleant":8780,"usion":8781,"ushing":8782,"Ġorbit":8783,"Ġoutswinger":8784,"ties":8785,"Ġthrown":8786,"Ġgobble":8787,"Ġhun":8788,"Ġhug":8789,"Ġwords":8790,"ments":8791,"Ġrecord":8792,"ĠStand":8793,"ĠEliz":8794,"Ġdefend":8795,"ups":8796,"abati":8797,"abeth":8798,"esse":8799,"Ġpreemp":8800,"Ġanyone":8801,"Ġcramping":8802,"Ġspare":8803,"athers":8804,"CHI":8805,"Ġchances":8806,"Ġ263":8807,"ĠQDK":8808,"ĠShaheed":8809,"intage":8810,"ĠSimilar":8811,"ĠAlzarri":8812,"Ġhigher":8813,"Ġrespite":8814,"Ġjudged":8815,"Ġcompla":8816,"ized":8817,"Ġunderway":8818,"SKERS":8819,"year":8820,"ĠIncredible":8821,"Ġchunk":8822,"ĠTUSKERS":8823,"Ġ15293":8824,"ĠPremedit":8825,"Ġrightly":8826,"ALA":8827,"Ġgotten":8828,"alities":8829,"Shubham":8830,"ĠAfghan":8831,"ĠBarabati":8832,"Ġwhipping":8833,"Ġskips":8834,"footed":8835,"ĠKOCHI":8836,"Ġthanks":8837,"Ġrapped":8838,"Ġformalities":8839,"Ġbrilliance":8840,"ĠKarnataka":8841,"bbie":8842,"Ġhurries":8843,"Ġsteep":8844,"Ġfinishing":8845,"Karanveer":8846,"Ġletting":8847,"Ġspoil":8848,"Ġamong":8849,"Ġstruggle":8850,"Ġjumping":8851,"Ġbonus":8852,"Ġbonkers":8853,"ĠTomar":8854,"Ġhanging":8855,"Ġexecuted":8856,"Ġensures":8857,"Ġballoon":8858,"Ġbludgeoned":8859,"Ġobvious":8860,"Ġconventional":8861,"Ġridic":8862,"Ġblasted":8863,"Ġchoice":8864,"Ġsending":8865,"ĠRobbie":8866,"Ġhorribly":8867,"Ġrubbish":8868,"Ġexcited":8869,"Ġclimbs":8870,"Ġmurders":8871,"Ġprovided":8872,"ĠBKG":8873,"Ġequation":8874,"Ġmercy":8875,"Ġchalleng":8876,"Ġgolden":8877,"Ġsquirts":8878,"Ġgoner":8879,"ĠComplex":8880,"Ġcasual":8881,"Ġafford":8882,"Ġarrow":8883,"Ġunfortunately":8884,"ĠRanchi":8885,"hikhar":8886,"ktk":8887,"ĠReplays":8888,"ĠJonny":8889,"quisite":8890,"ĠEnglishman":8891,"ĠAussie":8892,"Ġcameras":8893,"blooded":8894,"Ġvio":8895,"ĠQdK":8896,"Sachin":8897,"ĠKeemo":8898,"ĠKERALA":8899,"Ġmerrily":8900,"ĠCuttack":8901,"ĠCannot":8902,"ĠElizabeth":8903,"CRD":8904,"Irfan":8905,"OF":8906,"Occ":8907,"PH":8908,"Sak":8909,"cious":8910,"ili":8911,"kne":8912,"mendous":8913,"pin":8914,"set":8915,"Ġtired":8916,"ĠSheer":8917,"ĠSlips":8918,"ĠShikhar":8919,"Ġsy":8920,"Ġsup":8921,"Ġsme":8922,"Ġsorts":8923,"Ġfully":8924,"Ġflay":8925,"Ġfoo":8926,"atic":8927,"Ġble":8928,"Ġbra":8929,"Ġbrunt":8930,"Ġwind":8931,"Ġrap":8932,"ĠMic":8933,"ended":8934,"eness":8935,"Ġcla":8936,"itors":8937,"ĠTal":8938,"Ġages":8939,"Ġovercompens":8940,"hael":8941,"esque":8942,"Ġpan":8943,"Ġpat":8944,"Ġformat":8945,"Ġforear":8946,"Ġforget":8947,"ĠChir":8948,"Ġdarted":8949,"Ġdest":8950,"ĠFantastic":8951,"Ġsteered":8952,"Ġincoming":8953,"amm":8954,"Ġthrilled":8955,"ĠHel":8956,"ĠHard":8957,"Ġeach":8958,"ĠNope":8959,"otions":8960,"using":8961,"ĠWicketkeeper":8962,"Ġoutta":8963,"ulation":8964,"top":8965,"topp":8966,"ĠLuck":8967,"ĠLike":8968,"atever":8969,"Ġscored":8970,"Ġhost":8971,"Ġworry":8972,"112":8973,"Ġreven":8974,"Ġpluck":8975,"ĠSte":8976,"ĠEvent":8977,"Ġheard":8978,"eye":8979,"Ġsever":8980,"Ġrole":8981,"Ġrooted":8982,"Ġprote":8983,"Ġspank":8984,"cting":8985,"Ġ251":8986,"Ġ261":8987,"ĠPerfect":8988,"Ġuntil":8989,"Ġharsh":8990,"Ġslashed":8991,"Ġslanted":8992,"Ġtied":8993,"ukul":8994,"Ġknown":8995,"Ġdrilling":8996,"iest":8997,"ĠConne":8998,"allop":8999,"Ġdisdainfully":9000,"ĠDavis":9001,"ounis":9002,"ounds":9003,"Ġattempting":9004,"ĠThose":9005,"Ġcreated":9006,"Ġairy":9007,"SMSM":9008,"Ġangry":9009,"Ġmeets":9010,"Ġpunish":9011,"Ġfinesse":9012,"Ġfollowing":9013,"Ġblind":9014,"ĠQuite":9015,"ĠWaited":9016,"Ġraising":9017,"rayed":9018,"Ġpeople":9019,"ĠBacked":9020,"istent":9021,"Ġhoicks":9022,"Ġshapes":9023,"Ġfetched":9024,"Ġdelivers":9025,"Ġzoom":9026,"Ġhelping":9027,"udgement":9028,"Ġreplay":9029,"Ġamount":9030,"Ġdeposited":9031,"Ġexecute":9032,"asional":9033,"Ġadvances":9034,"Ġstretches":9035,"Ġfreebies":9036,"Ġcounter":9037,"Ġcushion":9038,"Ġpresence":9039,"Ġproperly":9040,"uised":9041,"Ġinvitation":9042,"Ġconsider":9043,"Ġsense":9044,"Ġwonderful":9045,"Ġrelieved":9046,"Ġdisappeared":9047,"Ġbiffs":9048,"ĠDragged":9049,"Ġsnaffle":9050,"Ġbarely":9051,"Ġfighting":9052,"ĠYea":9053,"ĠSlogs":9054,"ĠRemember":9055,"Ġgripped":9056,"Ġstrokes":9057,"Ġsearching":9058,"Ġvisitors":9059,"Ġapproach":9060,"Ġscythes":9061,"Ġutmost":9062,"Ġfunky":9063,"Ġchallenge":9064,"Occasional":9065,"Sakib":9066,"kneed":9067,"Ġfooled":9068,"ĠMichael":9069,"ĠTalat":9070,"ĠLuckily":9071,"Ġhosts":9072,"Ġrevenge":9073,"Ġprotection":9074,").":9075,"At":9076,"Aman":9077,"Gony":9078,"HC":9079,"Haz":9080,"Jaskaran":9081,"LJ":9082,"Mun":9083,"Mathews":9084,"Shad":9085,"by":9086,"gic":9087,"ign":9088,"judged":9089,"mile":9090,"ua":9091,"uous":9092,"uation":9093,"uced":9094,"xter":9095,"Ġtam":9096,"Ġtee":9097,"Ġtyp":9098,"ĠSki":9099,"orry":9100,"ered":9101,"Ġovation":9102,"anthr":9103,"Ġsans":9104,"ares":9105,"atched":9106,"atory":9107,"Ġbashes":9108,"Ġwee":9109,"unior":9110,"ĠTr":9111,"Ġovercorrects":9112,"Ġmate":9113,"ĠDan":9114,"omin":9115,"ĠBoy":9116,"ĠBandekar":9117,"andy":9118,"Ġgeez":9119,"ĠFair":9120,"Ġstops":9121,"ices":9122,"iction":9123,"Ġleaving":9124,"ĠHere":9125,"Ġnur":9126,"Ġnudges":9127,"Ġnaked":9128,"ĠRaises":9129,"ĠYep":9130,"Ġmiddles":9131,"Ġlove":9132,"high":9133,"hibit":9134,"ĠLet":9135,"ĠLucky":9136,"ourney":9137,"ulls":9138,"roll":9139,"iller":9140,"Ġshock":9141,"Ġreleased":9142,"Ġlongest":9143,"Ġinnoc":9144,"Ġeases":9145,"Ġbecomes":9146,"Ġstraighten":9147,"Ġeviden":9148,"rews":9149,"Ġbutter":9150,"Ġscrews":9151,"Ġupwards":9152,"Ġmisfiel":9153,"Ġcute":9154,"Ġrocking":9155,"Ġtimber":9156,"ikanthr":9157,"Ġcontext":9158,"Ġoffering":9159,"Ġducking":9160,"ĠCho":9161,"athy":9162,"Ġchanging":9163,"Ġ256":9164,"Ġ264":9165,"Ġ333":9166,"Ġ271":9167,"Ġ278":9168,"Ġvital":9169,"Ġpoke":9170,"Ġpost":9171,"emi":9172,"ĠIndia":9173,"Ġdisbelie":9174,"Ġresist":9175,"Ġjourney":9176,"Ġ8298":9177,"Ġunf":9178,"Ġunlike":9179,"ĠClass":9180,"Ġ13040":9181,"ĠNobody":9182,"Ġdribbles":9183,"ĠInst":9184,"Ġchuffed":9185,"Ġearth":9186,"Ġflown":9187,"Ġpositive":9188,"Ġago":9189,"ĠDec":9190,"Ġcaptaincy":9191,"cupped":9192,"Ġcreate":9193,"althy":9194,"Ġstunned":9195,"Ġbigger":9196,"Ġsomewhere":9197,"Shorey":9198,"ĠRavikanthr":9199,"Ġprods":9200,"Ġmeaty":9201,"Ġfeast":9202,"Ashwani":9203,"Ġdraw":9204,"Ġslapping":9205,"Anmolpreet":9206,"ĠSiddar":9207,"Ġtouching":9208,"Samuels":9209,"ĠMotera":9210,"ceives":9211,"Ġshouldn":9212,"Ġhowever":9213,"Ġpacked":9214,"Ġregulation":9215,"Ġheavy":9216,"Ġsituation":9217,"ĠSpots":9218,"ĠTook":9219,"ĠHowever":9220,"Ġgenerat":9221,"Ġmeters":9222,"Ġtreks":9223,"Ġdabbed":9224,"Ġadjusted":9225,"Ġadjustment":9226,"Ġdesperately":9227,"Ġaims":9228,"Ġentertain":9229,"Ġtells":9230,"Ġrocketed":9231,"Ġtravels":9232,"Ġtravelling":9233,"Ġprecisely":9234,"Ġfavourite":9235,"ĠEngine":9236,"ĠSubra":9237,"ĠSweeper":9238,"Ġscoring":9239,"Ġpersists":9240,"Ġpromotion":9241,"Ġplucked":9242,"Ġelbows":9243,"Ġaggressive":9244,"ĠAngled":9245,"ĠDrifting":9246,"Ġshovel":9247,"Ġtroubling":9248,"Ġinduced":9249,"eptional":9250,"Ġstrategy":9251,"drives":9252,"umsy":9253,"Ġsupport":9254,"Ġinjury":9255,"Ġagricultural":9256,"Ġaudac":9257,"Ġindeed":9258,"Ġcustomary":9259,"Ġharmless":9260,"Suryansh":9261,"ĠChirra":9262,"toppable":9263,"Atharva":9264,"Hazlewood":9265,"Munaf":9266,"Shadab":9267,"Ġdisbelief":9268,"ĠRavikanthreddy":9269,"ĠSiddarth":9270,"CN":9271,"Ur":9272,"Umar":9273,"Zeeshan":9274,"bled":9275,"dG":9276,"ius":9277,"iped":9278,"land":9279,"mate":9280,"part":9281,"ratch":9282,"rate":9283,"rong":9284,"val":9285,"Ġvers":9286,"Ġtrip":9287,"Ġtame":9288,"Ġtumbles":9289,"ĠSqu":9290,"ĠSla":9291,"ĠShane":9292,"anat":9293,"anwhile":9294,"Ġfal":9295,"Ġfish":9296,"Ġfox":9297,"ators":9298,"verses":9299,"lewar":9300,"Ġric":9301,"Ġram":9302,"Ġrib":9303,"Ġrush":9304,"ĠMy":9305,"ĠMund":9306,"unds":9307,"unication":9308,"ĠKnocked":9309,"ĠPitches":9310,"ench":9311,"enly":9312,"Ġcher":9313,"Ġchamp":9314,"ĠTad":9315,"Ġawar":9316,"Ġamazing":9317,"ested":9318,"Ġonfield":9319,"Ġmag":9320,"Ġpati":9321,"Ġpants":9322,"ĠDone":9323,"ĠCdG":9324,"ised":9325,"utes":9326,"raw":9327,"Ġgorge":9328,"Ġgifts":9329,"Ġgathers":9330,"Ġdrew":9331,"Ġdel":9332,"Ġdevi":9333,"ĠFM":9334,"ĠFrom":9335,"Ġstab":9336,"elf":9337,"Ġleague":9338,"Ġleaking":9339,"ĠHat":9340,"chn":9341,"Ġnipped":9342,"ĠNO":9343,"ĠNCN":9344,"Ġtable":9345,"Ġtalent":9346,"Ġtally":9347,"ĠWon":9348,"ĠYounis":9349,"Ġnoise":9350,"Ġlashes":9351,"Ġlured":9352,"Ġlarr":9353,"Ġloving":9354,"together":9355,"iling":9356,"manian":9357,"ells":9358,"udging":9359,"ĠUsed":9360,"Ġdownfall":9361,"Ġbeast":9362,"reme":9363,"readed":9364,"bound":9365,"olog":9366,"Ġscoot":9367,"Ġscreen":9368,"Ġcrossed":9369,"Ġgoodness":9370,"imet":9371,"atest":9372,"Ġpushing":9373,"Ġiss":9374,"Ġhealthy":9375,"loft":9376,"Ġaltogether":9377,"Ġgaps":9378,"ĠMalewar":9379,"ĠRanade":9380,"Ġspears":9381,"Ġhacked":9382,"umbs":9383,"ĠPrasan":9384,"Ġ265":9385,"Ġ248":9386,"ĠBrute":9387,"Ġdished":9388,"Ġjam":9389,"Ġ729":9390,"Ġ7340":9391,"Ġ12540":9392,"Ġknelt":9393,"Ġsmoking":9394,"Ġsmiles":9395,"ĠLeans":9396,"ĠLegbreak":9397,"ouse":9398,"ĠSurely":9399,"Ġswishes":9400,"Ġswitches":9401,"Ġflings":9402,"Ġflush":9403,"Ġavo":9404,"Ġfiring":9405,"Ġliking":9406,"ected":9407,"Ġwafts":9408,"Ġwanting":9409,"Ġfeeling":9410,"coop":9411,"Ġwristy":9412,"Ġstandards":9413,"ĠTime":9414,"Ġremoved":9415,"Ġpeasy":9416,"Ġinstantly":9417,"Ġhoardings":9418,"reads":9419,"Ġtonked":9420,"Ġfloats":9421,"Ġcelebratory":9422,"Ġhoping":9423,"Ġflashy":9424,"Ġsteadi":9425,"Ġsprinting":9426,"Ġnonchalant":9427,"Ġspoon":9428,"Ġtouches":9429,"Ġshakes":9430,"ĠGives":9431,"Ġgifted":9432,"meter":9433,"Ġlanding":9434,"Ġunleashed":9435,"Ġwelcomes":9436,"ĠTosses":9437,"stru":9438,"Ġdipped":9439,"Ġnailing":9440,"ĠRob":9441,"Ġclimbing":9442,"Ġpouched":9443,"ĠAnything":9444,"Ġprovides":9445,"Ġfingertip":9446,"Ġobliged":9447,"Ġobliges":9448,"Ġmarmal":9449,"ĠTaken":9450,"swinging":9451,"Ġminute":9452,"Ġcarrying":9453,"ĠSlices":9454,"Ġpierce":9455,"Ġemotions":9456,"ĠLoads":9457,"Ġconvinced":9458,"Ġtempting":9459,"standing":9460,"Ġgolf":9461,"ĠSeemed":9462,"ĠYeah":9463,"ĠSkies":9464,"Ġthwack":9465,"Ġstylishly":9466,"Ġrecovered":9467,"ĠStunning":9468,"Ġunstoppable":9469,"ĠImpact":9470,"Ġdelicate":9471,"Ġmonster":9472,"AUK":9473,"Ġfortun":9474,"ĠRocketed":9475,"ĠMeanwhile":9476,"ĠMishy":9477,"Ġswiftly":9478,"Ġgreeted":9479,"Ġreleases":9480,"ĠUnfortunate":9481,"Ġfavorite":9482,"Ġpepper":9483,"ĠColin":9484,"Ġviolent":9485,"Ġrapid":9486,"ĠEventually":9487,"Ġtamely":9488,"hibition":9489,"ĠEngineer":9490,"ĠSubramanian":9491,"Urvil":9492,"Ġricoche":9493,"ĠMundhe":9494,"Ġawareness":9495,"ĠPrasanth":9496,"BE":9497,"HF":9498,"Junior":9499,"OC":9500,"RT":9501,"Sal":9502,"bar":9503,"cha":9504,"daman":9505,"might":9506,"ĠSke":9507,"Ġtogether":9508,"anap":9509,"anpur":9510,"Ġself":9511,"Ġfaced":9512,"Ġfuri":9513,"Ġflexes":9514,"Ġbes":9515,"Ġbid":9516,"Ġrash":9517,"Ġraps":9518,"ĠMull":9519,"ĠMatt":9520,"ĠMoved":9521,"ĠPla":9522,"ĠPulled":9523,"ĠPushed":9524,"ĠPulls":9525,"ĠAV":9526,"ĠAct":9527,"itute":9528,"Ġaer":9529,"Ġaloft":9530,"estion":9531,"rie":9532,"Ġment":9533,"Ġminds":9534,"Ġmaul":9535,"Ġmass":9536,"Ġmaster":9537,"Ġpings":9538,"Ġpure":9539,"ĠDel":9540,"ĠDug":9541,"ĠDenly":9542,"ĠChee":9543,"ĠCertain":9544,"ĠBl":9545,"ĠBoss":9546,"ĠBoun":9547,"ĠBhand":9548,"ĠJumps":9549,"ĠJanat":9550,"Ġgrace":9551,"Ġduring":9552,"ĠFr":9553,"ĠFree":9554,"icially":9555,"elcome":9556,"eliminator":9557,"Ġleave":9558,"Ġ325":9559,"ĠGould":9560,"ĠGanap":9561,"Ġnip":9562,"ĠNehr":9563,"ĠNdaman":9564,"ently":9565,"limin":9566,"ĠWanted":9567,"ĠWrong":9568,"Ġfreed":9569,"Ġ1175":9570,"ulously":9571,"ĠSharath":9572,"Ġlur":9573,"Ġlatch":9574,"Ġofficially":9575,"ĠLG":9576,"ĠLloy":9577,"Ġsigh":9578,"eting":9579,"rovis":9580,"Ġquestion":9581,"Ġdeserves":9582,"rees":9583,"booz":9584,"ĠEarly":9585,"Ġcanter":9586,"Ġscratch":9587,"risk":9588,"aging":9589,"ĠPathania":9590,"ĠOval":9591,"angle":9592,"looking":9593,"Ġalmight":9594,"lessly":9595,"Ġblood":9596,"Ġexquisite":9597,"Ġexhibition":9598,"Ġ259":9599,"ĠZTA":9600,"Ġgroove":9601,"Ġ280":9602,"Ġ285":9603,"Ġvintage":9604,"ĠDRS":9605,"Ġpercent":9606,"Ġ360":9607,"Ġtossing":9608,"!!\"":9609,"ained":9610,"Ġcompul":9611,"Ġclumsy":9612,"ĠBecause":9613,"Ġslanting":9614,"Ġsquared":9615,"Ġ1422":9616,"Ġ142212":9617,"Ġwhole":9618,"ĠShivram":9619,"ogs":9620,"icious":9621,"osition":9622,"Ġferociously":9623,"runs":9624,"kily":9625,"ĠExpect":9626,"Ġcapital":9627,"Ġlifel":9628,"ottle":9629,"DJM":9630,"itters":9631,"Ġskim":9632,"Ġslipping":9633,"Ġmeas":9634,"Ġskidding":9635,"ĠAttemp":9636,"Ġcares":9637,"Ġprevent":9638,"Ġremember":9639,"Ġopposition":9640,"Ġpeg":9641,"Ġdepth":9642,"Ġinstant":9643,"Ġappealing":9644,"Ġreading":9645,"Ġcontrolled":9646,"ĠUniverse":9647,"Ġmesses":9648,"Ġaccur":9649,"Ġwhipl":9650,"Ġspooned":9651,"Ġaband":9652,"Ġelevates":9653,"Ġclassic":9654,"Ġallowing":9655,"Ġknowing":9656,"Ġsubst":9657,"Ġmetre":9658,"Ġtremendous":9659,"Ġinstincts":9660,"Ġlapped":9661,"Ġpounced":9662,"Ġballooned":9663,"Ġescape":9664,"Ġunleash":9665,"Ġyeah":9666,"ĠKnew":9667,"ĠEngland":9668,"ĠShuffled":9669,"Ġvenue":9670,"Ġarrives":9671,"ĠLegal":9672,"ĠAdv":9673,"Ġteasing":9674,"Ġpierces":9675,"Ġtailing":9676,"Ġshovels":9677,"Ġparrying":9678,"Ġgrass":9679,"Ġsuddenly":9680,"ĠPowerplay":9681,"Ġgrips":9682,"Ġuprooted":9683,"Ġtowering":9684,"ĠFractionally":9685,"Ġimpressed":9686,"peasy":9687,"Ġinviting":9688,"Ġforgets":9689,"Ġstatement":9690,"Ġfailure":9691,"Ġerupts":9692,"Ġgrasp":9693,"ĠHurter":9694,"Ġenjoyed":9695,"Ġmaintains":9696,"Ġthreads":9697,"Ġambitious":9698,"Ġtorso":9699,"PHKD":9700,"Ġovercompensates":9701,"Ġforearms":9702,"Ġtypically":9703,"Ġmisfields":9704,"Ġcherry":9705,"Ġgorgeous":9706,"Ġlarrups":9707,"ĠMullanpur":9708,"ĠActually":9709,"ĠBhandage":9710,"ĠGanapathy":9711,"ĠNehru":9712,"ĠNdamane":9713,"liminator":9714,"ĠLloyd":9715,"Ġalmighty":9716,"Ġlifeline":9717,"Anand":9718,"Eliminator":9719,"Hooda":9720,"IR":9721,"KB":9722,"Mis":9723,"Mac":9724,"Pant":9725,"Sunny":9726,"cr":9727,"cues":9728,"dit":9729,"fer":9730,"fle":9731,"gine":9732,"gaj":9733,"iam":9734,"lod":9735,"ocked":9736,"sla":9737,"ski":9738,"sively":9739,"turner":9740,"uu":9741,"uce":9742,"vin":9743,"wen":9744,"yond":9745,"zy":9746,"Ġya":9747,"Ġhanded":9748,"ĠSends":9749,"ortion":9750,"Ġtold":9751,"height":9752,"inesh":9753,"inton":9754,"Ġsorry":9755,"Ġfil":9756,"Ġfumble":9757,"Ġfif":9758,"Ġfacing":9759,"length":9760,"Ġbas":9761,"demp":9762,"Ġrip":9763,"ĠRath":9764,"ĠPast":9765,"ĠPlenty":9766,"ĠPitching":9767,"enced":9768,"Ġcong":9769,"Ġcashes":9770,"Ġoverhit":9771,"Ġmatches":9772,"Ġpinch":9773,"ĠDinesh":9774,"omb":9775,"ĠBy":9776,"isc":9777,"uturaj":9778,"rakash":9779,"Ġgest":9780,"Ġgear":9781,"Ġdoles":9782,"Ġdumped":9783,"Ġdew":9784,"Ġdeter":9785,"Ġstutter":9786,"ĠIJ":9787,"nder":9788,"ĠHave":9789,"chang":9790,"Ġna":9791,"Ġnest":9792,"ĠNeeded":9793,"Ġtailed":9794,"used":9795,"Ġ733":9796,"lima":9797,"Ġorig":9798,"ĠRaf":9799,"ĠWatches":9800,"ĠWhips":9801,"ĠWelcome":9802,"mally":9803,"Ġlatter":9804,"Ġloved":9805,"Ġsilly":9806,"Ġgold":9807,"Ġsixth":9808,"Ġcol":9809,"Ġkeen":9810,"ety":9811,"round":9812,"illing":9813,"1050":9814,"1066":9815,"1119":9816,"1644":9817,"1643":9818,"1639":9819,"Ġplot":9820,"Ġeasiest":9821,"Ġmanner":9822,"Ġbeyond":9823,"Ġevaded":9824,"Ġdesp":9825,"ĠStreaky":9826,"Ġdefeat":9827,"Ġscram":9828,"ĠShows":9829,"aprakash":9830,"Ġanger":9831,"Ġhear":9832,"Ġhell":9833,"angles":9834,"Ġseven":9835,"Ġloc":9836,"Ġmisti":9837,"Ġroaring":9838,"ehind":9839,"osp":9840,"Ġspecified":9841,"Ġsplic":9842,"Ġhaven":9843,"Ġchants":9844,"oodwin":9845,"Ġ249":9846,"Ġ335":9847,"Ġ33600":9848,"Ġ276":9849,"Ġ283":9850,"ĠBrown":9851,"Ġvict":9852,"Ġpokes":9853,"ĠAlas":9854,"ĠJayant":9855,"ĠJayaprakash":9856,"Ġpointing":9857,"Ġ59803":9858,"Ġsignature":9859,"Ġhadn":9860,"Ġ7293":9861,"ĠRajesh":9862,"Ġ9810":9863,"ĠChristop":9864,"Ġ829":9865,"Ġclattered":9866,"Ġ10825":9867,"inned":9868,"Ġslug":9869,"Ġwhite":9870,"Ġkicks":9871,"ĠAndre":9872,"Ġ1359":9873,"Ġ135953":9874,"ĠNogaj":9875,"Ġ14263":9876,"ĠMiscues":9877,"Ġrefuses":9878,"ĠNavi":9879,"Ġ1527":9880,"ĠClearly":9881,"ample":9882,"Ġtruly":9883,"ĠWhoa":9884,"Ġdeflecting":9885,"ĠDead":9886,"comed":9887,"Ġvaliant":9888,"Ġconced":9889,"ĠThings":9890,"erately":9891,"Ġglide":9892,"Ġglides":9893,"leasing":9894,"Ġbrother":9895,"Ġairly":9896,"Ġawry":9897,"Ġprove":9898,"Ġcorre":9899,"Gurjapneet":9900,"Ġfeeding":9901,"Ashok":9902,"Ġdraws":9903,"Ġgreets":9904,"Ġgreatest":9905,"ĠPratapkumar":9906,"Arjun":9907,"Ġcollected":9908,"ĠBaxter":9909,"Ġcheap":9910,"Ġbrief":9911,"speed":9912,"Ġeliminator":9913,"Ġcelebrates":9914,"Ġcelebrating":9915,"ĠSplit":9916,"hitting":9917,"Ġyounger":9918,"ĠUnbelievable":9919,"Ġcheekily":9920,"Ġsneaked":9921,"Ġreplic":9922,"Ġrepeat":9923,"Ġgenius":9924,"Ġamid":9925,"allel":9926,"Ġstrides":9927,"Ġgifting":9928,"Ġintentional":9929,"cuts":9930,"Ġfleeting":9931,"Ġbreath":9932,"Ġcommits":9933,"Ġpounds":9934,"Ġcareer":9935,"Ġtechn":9936,"Ġmisjudgement":9937,"Ġapplauds":9938,"Ġconviction":9939,"ĠUltraedge":9940,"Ġfactor":9941,"Ġspectators":9942,"Ġwelcomed":9943,"Ġlined":9944,"Ġcampai":9945,"Ġparallel":9946,"Ġconverging":9947,"Ġmeaning":9948,"Ġopts":9949,"Ġdebutant":9950,"Ġ59804":9951,"Ġ142626":9952,"Ġeluded":9953,"Ġbusy":9954,"Ġmarks":9955,"ĠCrashes":9956,"Ġdarting":9957,"Ġjabs":9958,"Ġminutes":9959,"ratul":9960,"ĠAbsolute":9961,"ĠDrifts":9962,"Ġdisgust":9963,"Ġdisguised":9964,"Ġtroubled":9965,"Ġgonna":9966,"Ġelegantly":9967,"ĠWickets":9968,"Ġjuggles":9969,"ĠSkid":9970,"Ġcasually":9971,"Ġthwacks":9972,"Ġstrategic":9973,"Ġtowers":9974,"Ġscreams":9975,"Ġexperience":9976,"Ġfamili":9977,"Ġ147344":9978,"Ġbenef":9979,"ĠKane":9980,"Ġcrisply":9981,"Ġbambooz":9982,"Ġlunges":9983,"Ġadmire":9984,"Ġswallowed":9985,"Ġacknowledges":9986,"ĠGAV":9987,"Ġoverturned":9988,"Ġpivots":9989,"Ġanticipates":9990,"Ġskewed":9991,"Ġspeeds":9992,"existent":9993,"Ġcatcha":9994,"rageous":9995,"Ġpreempted":9996,"Ġsyn":9997,"Ġsmears":9998,"Ġbleeding":9999,"ammoth":10000,"Ġevidence":10001,"ĠChopped":10002,"ĠInstead":10003,"Ġgenerated":10004,"Ġentertaining":10005,"Ġversion":10006,"ĠNOT":10007,"Ġfurious":10008,"Ġbeside":10009,"ĠMatthew":10010,"ĠCertainly":10011,"Ġscratchy":10012,"Ġaccurate":10013,"Ġsubstitute":10014,"Misbah":10015,"Ġfifties":10016,"demption":10017,"ĠRathore":10018,"Ġcongratul":10019,"changing":10020,"Ġvictory":10021,"ĠChristopher":10022,"ĠNogajski":10023,"Ġconceding":10024,"Ġfamiliar":10025,"Ġcatchable":10026,"304":10027,"994":10028,"Auqib":10029,"FA":10030,"Nair":10031,"UU":10032,"Vishnu":10033,"bles":10034,"berately":10035,"catch":10036,"cti":10037,"cup":10038,"came":10039,"ecc":10040,"ho":10041,"iw":10042,"mer":10043,"oing":10044,"pet":10045,"rod":10046,"ration":10047,"sl":10048,"sap":10049,"tzes":10050,"ued":10051,"uise":10052,"Ġhaw":10053,"Ġiffy":10054,"Ġima":10055,"Ġtumm":10056,"Ġtast":10057,"Ġteen":10058,"Ġtalk":10059,"Ġtangle":10060,"ĠSomething":10061,"erk":10062,"erv":10063,"heless":10064,"inary":10065,"anum":10066,"Ġsine":10067,"Ġsham":10068,"Ġswag":10069,"Ġshav":10070,"Ġsucker":10071,"Ġsaves":10072,"around":10073,"ardene":10074,"Ġflog":10075,"Ġfalse":10076,"Ġflayed":10077,"Ġban":10078,"Ġbers":10079,"Ġbump":10080,"Ġbol":10081,"Ġblun":10082,"Ġbrisk":10083,"ken":10084,"Ġwhil":10085,"Ġwounds":10086,"ĠRes":10087,"ĠRuturaj":10088,"unch":10089,"ĠKG":10090,"ĠKrip":10091,"ĠPrav":10092,"ender":10093,"Ġcard":10094,"iton":10095,"ĠTra":10096,"Ġala":10097,"Ġaback":10098,"Ġoverbal":10099,"Ġoverruns":10100,"edging":10101,"Ġmee":10102,"Ġmini":10103,"Ġph":10104,"Ġphot":10105,"Ġpenal":10106,"Ġforcing":10107,"ĠDou":10108,"ĠDarted":10109,"ĠDua":10110,"ĠChe":10111,"ĠCra":10112,"ĠCross":10113,"ĠCouple":10114,"ĠCDG":10115,"ĠBand":10116,"ĠBound":10117,"ĠBaz":10118,"ĠJason":10119,"ĠJuicy":10120,"Ġgun":10121,"Ġgully":10122,"Ġgaining":10123,"Ġduly":10124,"Ġdashes":10125,"Ġdumps":10126,"Ġdanced":10127,"ĠFound":10128,"ĠFive":10129,"ĠFiz":10130,"ĠFry":10131,"ĠFlies":10132,"Ġwasting":10133,"umn":10134,"Ġind":10135,"Ġint":10136,"Ġinsan":10137,"Ġthud":10138,"Ġthuds":10139,"ĠHo":10140,"ĠHill":10141,"chor":10142,"Ġep":10143,"ĠGame":10144,"Ġnine":10145,"ĠNon":10146,"Ġtact":10147,"ires":10148,"ĠWij":10149,"ĠYet":10150,"Ġfrench":10151,"Ġlay":10152,"Ġlining":10153,"Ġlaces":10154,"ĠLots":10155,"tif":10156,"tily":10157,"Ġthrottle":10158,"Ġscores":10159,"ilty":10160,"conds":10161,"Ġdeliber":10162,"Ġdeliberately":10163,"etheless":10164,"rocious":10165,"Ġhole":10166,"Ġhouse":10167,"Ġworst":10168,"Ġworried":10169,"1053":10170,"1120":10171,"1369":10172,"Ġrebound":10173,"qui":10174,"Ġplacing":10175,"kse":10176,"1815":10177,"1816":10178,"Ġinnov":10179,"Ġteammate":10180,"Ġeased":10181,"Ġbecoming":10182,"Ġbecame":10183,"icky":10184,"Ġstraightens":10185,"Ġguilty":10186,"ĠStayed":10187,"boy":10188,"ĠEC":10189,"ĠEm":10190,"ĠEvery":10191,"Ġcrosses":10192,"ĠShot":10193,"Ġdefending":10194,"sided":10195,"ager":10196,"ĠKarim":10197,"Ġanti":10198,"Ġanchor":10199,"haking":10200,"ĠMohamad":10201,"ĠOwen":10202,"Ġseconds":10203,"Ġrolling":10204,"Ġpaddled":10205,"aker":10206,"Ġcramp":10207,"Ġducks":10208,"GHS":10209,"osure":10210,"Ġspear":10211,"Ġspilled":10212,"Ġsprayed":10213,"ibbe":10214,"ewardene":10215,"Ġchanges":10216,"Ġshorten":10217,"ĠPretty":10218,"ĠZak":10219,"Ġ33603":10220,"ĠAnil":10221,"Ġ340":10222,"orms":10223,"Ġperisc":10224,"Ġ39219":10225,"Ġdisaster":10226,"ault":10227,"Ġturnaround":10228,"ĠFlicks":10229,"Ġpasting":10230,"Ġsoars":10231,"Ġjogs":10232,"Ġunc":10233,"Ġcomposure":10234,"Ġclas":10235,"Ġclou":10236,"izing":10237,"usts":10238,"Ġwhatever":10239,"Ġkilled":10240,"ĠNeeds":10241,"ĠManages":10242,"megs":10243,"Ġwhoa":10244,"Ġcrowded":10245,"Ġcrowds":10246,"ĠWhatta":10247,"alls":10248,"Ġswish":10249,"Ġswitched":10250,"Ġswiped":10251,"Ġflu":10252,"Ġtrot":10253,"Ġtrue":10254,"Ġbelter":10255,"Ġagree":10256,"ĠExpensive":10257,"Ġener":10258,"terday":10259,"Ġliving":10260,"Ġconcent":10261,"ĠThick":10262,"Ġovercook":10263,"Ġusually":10264,"Ġbrushed":10265,"Ġclouted":10266,"outh":10267,"phs":10268,"Ġnicety":10269,"ĠBarsap":10270,"diqui":10271,"Ġdirects":10272,"Ġdirected":10273,"others":10274,"ĠSiddiqui":10275,"Ġcarpet":10276,"ĠQuinton":10277,"Ġthickish":10278,"Ġimpart":10279,"Ġimprovis":10280,"Ġimpecc":10281,"Ġwristed":10282,"Ġflicking":10283,"ĠHendrikse":10284,"DLS":10285,"Ġremove":10286,"ĠCarrom":10287,"ĠCaribbe":10288,"Ġpacks":10289,"Ġexposed":10290,"Ġhoists":10291,"readful":10292,"Ġconfusion":10293,"ĠPrayas":10294,"Ġremains":10295,"Ġhelpless":10296,"Ġhurting":10297,"Ġrealizes":10298,"Ġmessed":10299,"Ġcheek":10300,"Ġsoftly":10301,"RJW":10302,"Ġelements":10303,"Ġability":10304,"Ġshaped":10305,"Ġamends":10306,"Ġhammering":10307,"Ġstruggled":10308,"Ġlandmark":10309,"Ġadvent":10310,"Ġadvance":10311,"Ġ41912":10312,"Ġ41915":10313,"Ġlacked":10314,"Ġdesperation":10315,"Ġwoodwork":10316,"Ġ121650":10317,"Ġ121653":10318,"Ġboards":10319,"ĠTurns":10320,"Ġ130405":10321,"Ġ130409":10322,"Ġ130408":10323,"Ġsticker":10324,"Ġsuccumbs":10325,"Ġspectac":10326,"Ġyesterday":10327,"Ġtwir":10328,"Ġgenerous":10329,"Ġtravelled":10330,"ĠKnelt":10331,"Ġresponded":10332,"ĠWalked":10333,"Ġsafest":10334,"Ġ125409":10335,"Ġ125408":10336,"Ġmowed":10337,"Ġrubs":10338,"Ġ59800":10339,"Ġ59805":10340,"Ġclimb":10341,"Ġ142629":10342,"Ġmurderous":10343,"dddd":10344,"Ġseriously":10345,"Ġcommitting":10346,"Ġwhisker":10347,"Ġbiffed":10348,"Ġbursts":10349,"Ġ152929":10350,"Ġpremeditates":10351,"Ġtempted":10352,"Ġdisguise":10353,"Ġpainful":10354,"Ġliterally":10355,"Ġkissed":10356,"Ġairrrr":10357,"Ġmotionless":10358,"Ġexperienced":10359,"driven":10360,"Ġassum":10361,"Ġ147350":10362,"Ġbeginning":10363,"Ġclaims":10364,"ĠKanpur":10365,"Ġswallows":10366,"Ġwhistle":10367,"Ġacknowledge":10368,"ĠDespite":10369,"Ġcombination":10370,"Ġstrengths":10371,"Ġrattled":10372,"Ġcollap":10373,"Ġ39218":10374,"Ġ39220":10375,"Ġanticipate":10376,"Ġheroics":10377,"Ġplonks":10378,"Ġsalt":10379,"Ġshells":10380,"Ġboost":10381,"Ġsucceeds":10382,"ĠTreks":10383,"ĠChange":10384,"Ġhunt":10385,"ĠPremeditates":10386,"Ġsupreme":10387,"Ġpanic":10388,"Ġdestro":10389,"Ġplucking":10390,"ĠSteven":10391,"ĠConnects":10392,"Ġconsidering":10393,"Ġinnocuous":10394,"Ġunfur":10395,"Ġsupporters":10396,"Ġfallen":10397,"Ġavoid":10398,"structing":10399,"Salman":10400,"ĠSkews":10401,"Ġaerially":10402,"ĠCheeky":10403,"Ġabandoned":10404,"ĠAdvances":10405,"ĠRafi":10406,"Ġdespair":10407,"Ġmistiming":10408,"Ġ135950":10409,"Ġamidst":10410,"Ġhawk":10411,"Ġtummy":10412,"anuma":10413,"Ġberserk":10414,"Ġblunder":10415,"Ġwhilst":10416,"ĠKripal":10417,"Ġpenalty":10418,"ĠWijewardene":10419,"Ġconcentration":10420,"ĠBarsapara":10421,"Ġimpeccable":10422,"ĠCaribbean":10423,"GF":10424,"KMDN":10425,"NK":10426,"That":10427,"William":10428,"__":10429,"aled":10430,"abo":10431,"barr":10432,"ci":10433,"clima":10434,"does":10435,"fl":10436,"flow":10437,"gger":10438,"gical":10439,"grees":10440,"ground":10441,"iri":10442,"ipping":10443,"ique":10444,"ju":10445,"mare":10446,"ring":10447,"ron":10448,"ren":10449,"rous":10450,"sm":10451,"sidish":10452,"tle":10453,"uing":10454,"uit":10455,"uine":10456,"uction":10457,"what":10458,"yed":10459,"ze":10460,"Ġ#":10461,"Ġver":10462,"Ġill":10463,"Ġtumbled":10464,"Ġtested":10465,"ĠSma":10466,"ĠSets":10467,"ĠSinks":10468,"order":10469,"Ġtops":10470,"eren":10471,"cording":10472,"Ġsle":10473,"Ġsac":10474,"Ġsums":10475,"arely":10476,"arms":10477,"Ġfo":10478,"Ġfut":10479,"Ġfurn":10480,"Ġfoc":10481,"Ġfists":10482,"Ġfitting":10483,"verage":10484,"Ġbic":10485,"Ġbir":10486,"Ġbless":10487,"Ġwar":10488,"Ġwily":10489,"Ġweren":10490,"Ġriding":10491,"ĠRam":10492,"ĠRelie":10493,"asses":10494,"asions":10495,"unches":10496,"ĠKept":10497,"ĠKann":10498,"ĠPuts":10499,"ense":10500,"Ġcri":10501,"iture":10502,"Ġage":10503,"Ġoverhead":10504,"rid":10505,"Ġmammoth":10506,"Ġmouth":10507,"Ġped":10508,"Ġpile":10509,"Ġphas":10510,"Ġpiles":10511,"Ġportion":10512,"Ġpinned":10513,"ĠDM":10514,"ĠDV":10515,"ĠBends":10516,"ĠBoom":10517,"Ġbait":10518,"ĠJinks":10519,"Ġgas":10520,"Ġgamb":10521,"Ġgrand":10522,"Ġgiant":10523,"Ġgallops":10524,"Ġdram":10525,"Ġdie":10526,"Ġdomin":10527,"Ġdreaded":10528,"ĠFails":10529,"Ġsteam":10530,"Ġstraying":10531,"ĠIrfan":10532,"Ġinc":10533,"Ġinswinging":10534,"ĠHor":10535,"Ġ312":10536,"Ġnicks":10537,"Ġnips":10538,"ĠNag":10539,"lim":10540,"lip":10541,"arding":10542,"irely":10543,"ĠWor":10544,"ĠWast":10545,"ĠYarra":10546,"Ġoutf":10547,"Ġfre":10548,"Ġnope":10549,"Ġ11753":10550,"ults":10551,"Ġfields":10552,"Ġlas":10553,"Ġlang":10554,"ĠLast":10555,"ĠLets":10556,"ĠLatches":10557,"ĠLond":10558,"Ġbacktracking":10559,"Ġthrashed":10560,"Ġgosh":10561,"Ġthroughout":10562,"ours":10563,"Ġcompre":10564,"etit":10565,"etches":10566,"Ġhoodwin":10567,"nnnn":10568,"Ġworth":10569,"1056":10570,"1054":10571,"1122":10572,"1124":10573,"1123":10574,"134":10575,"145":10576,"Ġreverses":10577,"Ġplans":10578,"thday":10579,"owness":10580,"1812":10581,"ledge":10582,"Ġbecome":10583,"Ġdeserve":10584,"Ġoccasions":10585,"ĠStrays":10586,"Ġdefends":10587,"book":10588,"ristily":10589,"Ġansw":10590,"Ġupon":10591,"Ġupto":10592,"abbar":10593,"ummoxed":10594,"Ġally":10595,"ffet":10596,"angler":10597,"los":10598,"loys":10599,"ĠMSS":10600,"ĠMake":10601,"ĠSafe":10602,"Ġmistime":10603,"ĠPolly":10604,"atty":10605,"Ġanymore":10606,"llision":10607,"Ġbuffet":10608,"Ġbuilt":10609,"ĠRanawat":10610,"Ġextent":10611,"Ġextended":10612,"Ġexults":10613,"Ġhabit":10614,"ĠTimed":10615,"Ġ287":10616,"Ġ320":10617,"Ġdistra":10618,"Ġdislod":10619,"ĠAlways":10620,"Ġjudge":10621,"Ġheading":10622,"Ġunne":10623,"Ġclin":10624,"Ġclut":10625,"Ġcompleting":10626,"Ġslugg":10627,"Ġslowness":10628,"Ġkicked":10629,"Ġkabo":10630,"Ġ117839":10631,"etting":10632,"ĠMann":10633,"legged":10634,"ĠBangs":10635,"Ġsmites":10636,"ĠCuts":10637,"lenged":10638,"Ġ15276":10639,"Ġflashed":10640,"Ġflummoxed":10641,"Ġtrudges":10642,"Ġwayward":10643,"Ġferocious":10644,"ĠEnded":10645,"ĠDavey":10646,"Ġgotta":10647,"tering":10648,"Ġconcer":10649,"ĠThink":10650,"Ġtriangles":10651,"Ġtrigger":10652,"Ġsometimes":10653,"Ġbrothers":10654,"Ġskates":10655,"irected":10656,"Ġaware":10657,"ĠOffers":10658,"Ġcorrects":10659,"Ġskidder":10660,"Ġdecis":10661,"Ġdeception":10662,"Ġslaught":10663,"Ġfiner":10664,"Ġcarving":10665,"Ġbouncing":10666,"Ġwristwork":10667,"kkkk":10668,"Ġtrickles":10669,"Ġflir":10670,"Ġweird":10671,"ographs":10672,"ĠTiming":10673,"Ġcheers":10674,"Ġslowish":10675,"Ġdisturb":10676,"Ġbreaking":10677,"Ġcarted":10678,"ĠSanju":10679,"Ġwowww":10680,"Ġinstance":10681,"Ġmuscular":10682,"Ġholed":10683,"Ġseaming":10684,"Ġconnecting":10685,"Ġnightmare":10686,"Ġheaving":10687,"ĠReads":10688,"Ġpunchy":10689,"Ġpunching":10690,"ĠSpo":10691,"Ġspring":10692,"Ġmessing":10693,"ĠPeter":10694,"Ġbothering":10695,"nership":10696,"Karthik":10697,"mused":10698,"Ġaccept":10699,"Ġaccoun":10700,"Ġsighter":10701,"Ġsighters":10702,"ĠDream":10703,"Ġpacers":10704,"Ġexpects":10705,"before":10706,"Ġtargets":10707,"Ġcircled":10708,"Ġdelightful":10709,"Ġcircum":10710,"ĠWithout":10711,"Ġideas":10712,"Ġattacks":10713,"Ġbreathe":10714,"Ġadvancing":10715,"Ġcommunication":10716,"Ġfiery":10717,"Ġstretching":10718,"Ġinterc":10719,"xtbook":10720,"Ġboard":10721,"Ġpummel":10722,"Ġentic":10723,"Ġentirely":10724,"Ġdecently":10725,"ĠNevertheless":10726,"Ġgenerously":10727,"Ġtravel":10728,"Ġpumping":10729,"Ġconfirmed":10730,"Ġinitial":10731,"Ġconvert":10732,"Ġmoon":10733,"Ġwondering":10734,"Ġfellow":10735,"Ġplanning":10736,"Ġexceptional":10737,"Ġripped":10738,"Ġ142628":10739,"Ġelude":10740,"Ġbegging":10741,"Ġundoing":10742,"Ġ54834":10743,"Ġ152928":10744,"ĠDrops":10745,"seamer":10746,"Ġmerry":10747,"Ġteasingly":10748,"Ġdent":10749,"Ġdenied":10750,"Ġshouted":10751,"Ġproduced":10752,"Ġbullies":10753,"Ġchallenged":10754,"Ġanticipating":10755,"Ġsnaffles":10756,"ĠFourth":10757,"Ġinduces":10758,"ĠGuess":10759,"Ġkiss":10760,"Ġkisses":10761,"ĠComplet":10762,"Parthiv":10763,"Ġmishits":10764,"Ġnormally":10765,"Ġuproots":10766,"ĠStunned":10767,"Ġunfortunate":10768,"Ġimpression":10769,"Ġsuccession":10770,"Ġshifts":10771,"Ġclaim":10772,"Ġbending":10773,"Ġinjured":10774,"Ġrattles":10775,"Ġkidding":10776,"ĠNeedless":10777,"Ġerupt":10778,"Ġconsumes":10779,"Ġterms":10780,"Ġsealed":10781,"Ġflattish":10782,"Ġcountryman":10783,"Ġtentative":10784,"Ġaggression":10785,"Ġsuggests":10786,"Ġfizzes":10787,"Ġcausing":10788,"Ġcomplain":10789,"Ġcomplaining":10790,"Ġridiculous":10791,"Ġridiculously":10792,"Ġseveral":10793,"Ġteeing":10794,"ĠDecides":10795,"Ġfeasts":10796,"Ġaudacious":10797,"partnership":10798,"ĠSlaps":10799,"Ġramped":10800,"Ġpatience":10801,"ĠWonder":10802,"Ġsteadies":10803,"ĠRobin":10804,"ĠPlaced":10805,"Ġmauls":10806,"Ġpercentage":10807,"Ġcompulsive":10808,"Ġwhiplashes":10809,"Ġoriginal":10810,"Ġcolumn":10811,"osphere":10812,"Ġ33599":10813,"Ġcorrect":10814,"Ġcampaign":10815,"Ġsync":10816,"Ġswagger":10817,"ĠPraveen":10818,"Ġmeek":10819,"Ġphotographs":10820,"ĠFizz":10821,"ĠEmatty":10822,"Ġclouds":10823,"Ġenergy":10824,"Ġspectacular":10825,"Williamson":10826,"Ġsacri":10827,"Ġfurniture":10828,"Ġbiceps":10829,"Ġbirthday":10830,"Ġphase":10831,"Ġlangu":10832,"ĠLondon":10833,"Ġcomprehen":10834,"Ġsluggish":10835,"\".":10836,"958":10837,"BR":10838,"Bairstow":10839,"BMAJ":10840,"DNT":10841,"ET":10842,"Himmat":10843,"KT":10844,"Koh":10845,"Krish":10846,"KET":10847,"Lomror":10848,"Miller":10849,"Nath":10850,"PN":10851,"San":10852,"Sum":10853,"TR":10854,"aic":10855,"ains":10856,"behind":10857,"dri":10858,"directed":10859,"eats":10860,"faces":10861,"finitely":10862,"io":10863,"jre":10864,"lomb":10865,"mates":10866,"oon":10867,"semi":10868,"taking":10869,"ude":10870,"uable":10871,"wise":10872,"yal":10873,"ynam":10874,"Ġhal":10875,"Ġtil":10876,"Ġtumble":10877,"Ġtees":10878,"ĠSat":10879,"ĠSemi":10880,"oring":10881,"oral":10882,"eran":10883,"eroll":10884,"erving":10885,"corre":10886,"corner":10887,"Ġopt":10888,"Ġodd":10889,"hem":10890,"inx":10891,"intill":10892,"Ġsuff":10893,"Ġserved":10894,"Ġshaking":10895,"Ġsledge":10896,"atura":10897,"atively":10898,"lend":10899,"Ġbud":10900,"Ġbeam":10901,"Ġbite":10902,"Ġbread":10903,"Ġbook":10904,"Ġwinds":10905,"Ġwallop":10906,"Ġwatched":10907,"Ġwristily":10908,"Ġrattle":10909,"Ġrarely":10910,"ĠMind":10911,"ĠRyan":10912,"onent":10913,"ases":10914,"asith":10915,"asive":10916,"unges":10917,"ĠKim":10918,"ĠKhak":10919,"ĠPe":10920,"ĠPin":10921,"ĠPut":10922,"ĠAppe":10923,"ĠAlex":10924,"ene":10925,"itness":10926,"ĠThank":10927,"Ġaid":10928,"Ġahh":10929,"ests":10930,"Ġonsla":10931,"Ġmone":10932,"Ġmem":10933,"Ġmaj":10934,"Ġple":10935,"Ġposes":10936,"Ġpleasing":10937,"ĠDiam":10938,"ĠCarries":10939,"ĠBel":10940,"ĠBal":10941,"ĠBuff":10942,"ĠBoon":10943,"Ġbag":10944,"Ġbags":10945,"rap":10946,"ĠJas":10947,"Ġgallop":10948,"Ġdash":10949,"Ġdynam":10950,"Ġdeceives":10951,"Ġstare":10952,"Ġstares":10953,"icid":10954,"Ġitself":10955,"nds":10956,"owd":10957,"Ġ417":10958,"Ġinward":10959,"Ġinternational":10960,"harf":10961,"Ġthunder":10962,"idends":10963,"ĠHence":10964,"ĠHint":10965,"alo":10966,"chine":10967,"chers":10968,"Ġ316":10969,"ĠGon":10970,"ĠGent":10971,"ĠGol":10972,"ĠGave":10973,"ĠGabbar":10974,"Ġnicked":10975,"Ġnerve":10976,"Ġnature":10977,"Ġnerv":10978,"Ġnatura":10979,"ĠNah":10980,"ĠNormal":10981,"ota":10982,"ĠVidar":10983,"Ġ7339":10984,"ĠWIC":10985,"ĠWharf":10986,"Ġmidway":10987,"Ġlaced":10988,"ĠLank":10989,"ĠLED":10990,"ĠLiton":10991,"tified":10992,"Ġbacktra":10993,"Ġbackground":10994,"ilver":10995,"ceed":10996,"ellow":10997,"cont":10998,"ĠUppish":10999,"rolling":11000,"Ġhum":11001,"Ġhooks":11002,"102":11003,"107":11004,"1057":11005,"1125":11006,"Ġshoot":11007,"139":11008,"144":11009,"Ġdriving":11010,"Ġreward":11011,"Ġreceiv":11012,"163":11013,"Ġplanted":11014,"Ġplunges":11015,"000":11016,"005":11017,"Ġmanaging":11018,"iving":11019,"ived":11020,"Ġbear":11021,"icking":11022,"Ġstraightish":11023,"Ġarched":11024,"Ġevasive":11025,"Ġguiding":11026,"lace":11027,"ĠEast":11028,"ĠEsp":11029,"Ġbutchers":11030,"Ġcanters":11031,"olted":11032,"Ġscintill":11033,"Ġgoodish":11034,"ĠSmo":11035,"ĠSmashes":11036,"Ġheat":11037,"wind":11038,"onified":11039,"loss":11040,"ĠMaking":11041,"Ġadding":11042,"Ġmiscu":11043,"attack":11044,"Ġtimely":11045,"astrous":11046,"Ġcanny":11047,"bhai":11048,"Ġblob":11049,"osing":11050,"osite":11051,"Ġexample":11052,"Ġspraw":11053,"Ġspilling":11054,"Ġhay":11055,"Ġhaunches":11056,"ĠVij":11057,"laying":11058,"Ġ267":11059,"Ġ268":11060,"Ġ269":11061,"Ġ3359":11062,"Ġ33598":11063,"Ġgrounds":11064,"Ġ270":11065,"Ġ272":11066,"Ġ286":11067,"gies":11068,"Ġvic":11069,"Ġpoking":11070,"oooo":11071,"ooking":11072,"adekar":11073,"Ġdividends":11074,"Ġsoak":11075,"Ġsoaks":11076,"Ġjus":11077,"Ġjolted":11078,"ĠMusc":11079,"ĠEdward":11080,"Ġungain":11081,"Ġcompetit":11082,"Ġ125411":11083,"Ġkinda":11084,"ĠNathan":11085,"ĠNeat":11086,"Ġunderstand":11087,"Ġtips":11088,"Ġthereby":11089,"ĠManjre":11090,"Ġknots":11091,"ĠLeaps":11092,"Ġ14262":11093,"Ġdrifter":11094,"ĠMistimes":11095,"iciously":11096,"Ġ15292":11097,"ĠCleans":11098,"Ġresulted":11099,"Ġaccording":11100,"Ġtrous":11101,"Ġagony":11102,"ĠExc":11103,"ĠDeft":11104,"Ġenab":11105,"Ġending":11106,"Ġavailable":11107,"Ġlimp":11108,"Ġneck":11109,"Ġtrims":11110,"Ġsomewhat":11111,"....":11112,"Ġdoom":11113,"Ġstrang":11114,"ĠJamaic":11115,"Ġskills":11116,"Ġtennis":11117,"listering":11118,"Ġslipper":11119,"henom":11120,"Ġmoments":11121,"Ġwkt":11122,"ĠSwing":11123,"Ġwaltzes":11124,"Ġfear":11125,"Ġslots":11126,"coops":11127,"JPR":11128,"Ġoverstepped":11129,"Anukul":11130,"ĠSlanted":11131,"Ġcarts":11132,"Ġflighting":11133,"Ġblue":11134,"berley":11135,"Ġslightest":11136,"Ġtricky":11137,"Ġcollecting":11138,"Ġfaster":11139,"missive":11140,"Ġsmacking":11141,"ĠTimes":11142,"Ġopposite":11143,"ĠCarlos":11144,"Ġappeared":11145,"Ġmuscling":11146,"Ġedition":11147,"Ġelated":11148,"Ġheavens":11149,"ĠBrilliantly":11150,"Ġfloat":11151,"ĠReal":11152,"ĠFires":11153,"Ġzing":11154,"Ġzip":11155,"Ġhoped":11156,"Ġremain":11157,"Ġremained":11158,"Ġotherwise":11159,"Ġswoop":11160,"Ġrealised":11161,"ĠPhilip":11162,"Ġcontrols":11163,"Ġsprinter":11164,"Ġreprie":11165,"Ġbanging":11166,"Ġswiping":11167,"Ġlaunching":11168,"ĠScott":11169,"Ġgenerally":11170,"Ġgenuine":11171,"Ġspoiled":11172,"Ġkneeroll":11173,"Ġsimplest":11174,"Ġsqueezing":11175,"Ġtargeting":11176,"Ġstruggles":11177,"Ġerring":11178,"Ġsubtle":11179,"Ġintention":11180,"Ġmeter":11181,"Ġtrek":11182,"cessary":11183,"trackers":11184,"Ġdabbing":11185,"Ġ41911":11186,"Ġexecutes":11187,"Ġlaid":11188,"Ġ121654":11189,"Ġfractionally":11190,"Ġbobble":11191,"ĠTotally":11192,"Ġtextbook":11193,"Ġpummelled":11194,"Ġdeadly":11195,"Ġmisjudges":11196,"Ġstrongly":11197,"Ġtelling":11198,"Ġ130406":11199,"Ġapolog":11200,"Ġaplomb":11201,"Ġinvite":11202,"Ġ125406":11203,"Ġsenior":11204,"Ġmowing":11205,"Ġmargins":11206,"Ġprecise":11207,"Ġfavoured":11208,"Ġwildly":11209,"Ġguessed":11210,"Ġdigging":11211,"Ġ59806":11212,"Ġriver":11213,"Ġreckons":11214,"bounced":11215,"ĠRisky":11216,"Ġswirls":11217,"Ġscorers":11218,"Ġscorching":11219,"Ġcentimet":11220,"ĠCrowd":11221,"eeeeeeee":11222,"Ġthreatened":11223,"Ġpersonified":11224,"Ġmanufactures":11225,"Ġpromoted":11226,"Ġflaun":11227,"Ġflags":11228,"Ġequally":11229,"seamed":11230,"Ġpierced":11231,"Ġshouts":11232,"Ġprodding":11233,"Ġbulls":11234,"Ġbulldoz":11235,"Ġbullets":11236,"Ġwheels":11237,"ĠAngles":11238,"Ġsquirted":11239,"Ġjuggle":11240,"Ġjuggled":11241,"Ġkicking":11242,"Ġvariations":11243,"ĠLooped":11244,"Ġuproot":11245,"ĠDismissive":11246,"Ġscreamer":11247,"class":11248,"Ġfamous":11249,"Ġrelied":11250,"Ġsuccessful":11251,"Ġtrusts":11252,"Ġsearch":11253,"Ġ113656":11254,"Ġ113657":11255,"Ġexplodes":11256,"ĠDeserved":11257,"Ġnutmegs":11258,"Ġcombusts":11259,"Ġseries":11260,"Ġserene":11261,"ĠPlumb":11262,"Ġbrooms":11263,"Ġflattest":11264,"Ġsucceed":11265,"Ġexpression":11266,"Ġsuggested":11267,"ĠPremeditated":11268,"Ġobviously":11269,"ĠHelped":11270,"Ġspanking":11271,"Ġpunishment":11272,"Ġblindly":11273,"ĠSkips":11274,"ĠSkipper":11275,"ĠDaniel":11276,"Ġtripe":11277,"ĠSqueez":11278,"Ġfoxes":11279,"Ġribs":11280,"Ġchampion":11281,"Ġmagic":11282,"Ġdelicious":11283,"Ġdeviation":11284,"Ġissues":11285,"Ġspooning":11286,"Ġfortune":11287,"Ġviolently":11288,"Ġrapidly":11289,"Ġmental":11290,"ĠBouncer":11291,"Ġskims":11292,"Ġmeasures":11293,"ĠAttempted":11294,"Ġdetermin":11295,"Ġnestles":11296,"Ġcheaply":11297,"Ġbreathing":11298,"Ġbenefit":11299,"iwadekar":11300,"Ġimagine":11301,"Ġteenager":11302,"ĠBandiwadekar":11303,"ĠBoundary":11304,"Ġinsane":11305,"Ġimprovisation":11306,"Ġcollapse":11307,"climax":11308,"Ġtopspin":11309,"Ġfutile":11310,"ĠKannan":11311,"Ġgamble":11312,"Ġdramatic":11313,"ĠNagpur":11314,"Ġunnecessary":11315,"Ġconcerned":11316,"Kohli":11317,"Nathu":11318,"Sanvir":11319,"Sumit":11320,"ĠKimberley":11321,"ĠKhakhar":11322,"Ġonslaught":11323,"Ġmoney":11324,"ĠDiamond":11325,"ĠBuffalo":11326,"icidal":11327,"ĠGentle":11328,"ĠVidarbha":11329,"Ġreceiving":11330,"ĠEspecially":11331,"Ġscintillating":11332,"Ġmiscuing":11333,"Ġungainly":11334,"ĠManjrekar":11335,")',":11336,"?!":11337,"Butt":11338,"EE":11339,"Gagandeep":11340,"Kumar":11341,"LPC":11342,"NL":11343,"Rinku":11344,"Sa":11345,"VE":11346,"VER":11347,"bor":11348,"bow":11349,"bir":11350,"bling":11351,"bye":11352,"cul":11353,"cue":11354,"dip":11355,"ev":11356,"ein":11357,"eal":11358,"emed":11359,"eled":11360,"free":11361,"fashi":11362,"fusion":11363,"gle":11364,"gen":11365,"gree":11366,"gically":11367,"hold":11368,"iod":11369,"mm":11370,"mic":11371,"mid":11372,"not":11373,"pose":11374,"scoop":11375,"scoops":11376,"tit":11377,"team":11378,"tick":11379,"uan":11380,"uke":11381,"ucked":11382,"uously":11383,"vely":11384,"wless":11385,"yard":11386,"Ġ=":11387,"Ġir":11388,"Ġview":11389,"Ġveer":11390,"Ġiden":11391,"Ġtwe":11392,"Ġtracked":11393,"Ġtreads":11394,"Ġow":11395,"Ġooh":11396,"Ġoper":11397,"inity":11398,"anch":11399,"Ġsong":11400,"Ġsurr":11401,"Ġfid":11402,"Ġflights":11403,"Ġfunny":11404,"Ġfumbled":11405,"Ġfelt":11406,"atosphere":11407,"leashes":11408,"Ġbarg":11409,"Ġwiel":11410,"Ġwears":11411,"Ġwitness":11412,"Ġrain":11413,"Ġrides":11414,"Ġrhy":11415,"ĠMagnificent":11416,"ĠRank":11417,"ĠRushed":11418,"ĠRolled":11419,"ĠRicky":11420,"unded":11421,"ĠKne":11422,"ĠPiv":11423,"ĠAre":11424,"ĠAmazing":11425,"ending":11426,"Ġcer":11427,"Ġcha":11428,"Ġcou":11429,"Ġcal":11430,"Ġchir":11431,"iting":11432,"itative":11433,"ĠTri":11434,"ĠTou":11435,"ĠTells":11436,"Ġach":11437,"Ġaided":11438,"Ġamused":11439,"Ġoverdrive":11440,"esome":11441,"Ġmil":11442,"Ġmill":11443,"Ġmilli":11444,"Ġmock":11445,"Ġpris":11446,"Ġpict":11447,"Ġphew":11448,"Ġpiling":11449,"Ġpasses":11450,"ĠDriv":11451,"ĠDarts":11452,"ĠDolly":11453,"ĠDives":11454,"ĠCont":11455,"ĠChipped":11456,"ĠCutter":11457,"ĠCamps":11458,"ĠChips":11459,"ĠBra":11460,"ĠBett":11461,"ĠBasith":11462,"ism":11463,"isting":11464,"rac":11465,"Ġgim":11466,"Ġgained":11467,"Ġdr":11468,"Ġdin":11469,"Ġdim":11470,"Ġdinks":11471,"Ġdreadful":11472,"ouses":11473,"Ġdeals":11474,"ĠFe":11475,"ĠFoll":11476,"ĠFalls":11477,"Ġstorm":11478,"Ġstages":11479,"umer":11480,"ghu":11481,"iculous":11482,"Ġsingles":11483,"Ġ433":11484,"Ġinsp":11485,"Ġincred":11486,"Ġincl":11487,"Ġinev":11488,"Ġled":11489,"Ġleverage":11490,"Ġthri":11491,"ĠHIT":11492,"ĠHandy":11493,"Ġeight":11494,"Ġego":11495,"ĠGet":11496,"ĠGONE":11497,"Ġnet":11498,"Ġnuts":11499,"ĠTheir":11500,"epted":11501,"ephen":11502,"ĠNad":11503,"ĠNone":11504,"ĠNails":11505,"ĠNailed":11506,"ĠNumber":11507,"ĠNipped":11508,"Ġtap":11509,"Ġtaile":11510,"otted":11511,"usive":11512,"entially":11513,"irt":11514,"irudh":11515,"dern":11516,"ĠRaining":11517,"ĠWhile":11518,"ĠYup":11519,"ckle":11520,"Ġouting":11521,"Ġoutstanding":11522,"Ġfranch":11523,"Ġlic":11524,"Ġlist":11525,"ĠPatrick":11526,"ĠLost":11527,"ĠLanded":11528,"ĠLockie":11529,"ĠLoud":11530,"Ġsizz":11531,"shot":11532,"short":11533,"ellar":11534,"Ġcoffin":11535,"Ġcovering":11536,"eteran":11537,"ĠUs":11538,"rop":11539,"Ġhot":11540,"Ġhiding":11541,"108":11542,"1067":11543,"1058":11544,"1064":11545,"1059":11546,"1188":11547,"Ġshatters":11548,"Ġshocked":11549,"130":11550,"1364":11551,"140":11552,"143":11553,"1464":11554,"Ġremark":11555,"andem":11556,"Ġplunder":11557,"perfect":11558,"188":11559,"ivel":11560,"198":11561,"Ġquicks":11562,"Ġeventful":11563,"Ġeventual":11564,"Ġquickish":11565,"ĠStri":11566,"ĠStephen":11567,"Ġdefin":11568,"ĠErr":11569,"Ġbutcher":11570,"imal":11571,"imated":11572,"ĠShubham":11573,"Ġdefences":11574,"ravag":11575,"ravity":11576,"ĠSamuel":11577,"abbed":11578,"Ġhey":11579,"Ġheap":11580,"Ġheaded":11581,"raji":11582,"ĠOf":11583,"angs":11584,"ĠSmithy":11585,"Ġgaping":11586,"Ġseals":11587,"Ġlob":11588,"Ġroyal":11589,"ĠKulwant":11590,"ĠBrave":11591,"weight":11592,"asted":11593,"ĠStood":11594,"Ġlefty":11595,"Ġcontinuing":11596,"Ġpressing":11597,"Ġblocks":11598,"Ġbuy":11599,"Ġtucking":11600,"ĠChops":11601,"Ġspraying":11602,"Ġsplend":11603,"vion":11604,"Ġhaul":11605,"Ġask":11606,"ĠPras":11607,"Ġ273":11608,"Ġ277":11609,"Ġ281":11610,"Ġveteran":11611,"ĠAnukul":11612,"Ġ366":11613,"offs":11614,"ĠAlthough":11615,"Ġpuller":11616,"Ġrescue":11617,"Ġsoared":11618,"Ġunable":11619,"Ġuniverse":11620,"Ġcompens":11621,"Ġcompared":11622,"Ġclinch":11623,"Ġclicks":11624,"ĠPunches":11625,"ĠBefore":11626,"Ġ113658":11627,"Ġsake":11628,"Ġ130411":11629,"Ġcrumbling":11630,"Ġcruel":11631,"Ġchop":11632,"Ġchoking":11633,"ĠRidiculous":11634,"ĠSurgical":11635,"Ġyup":11636,"Ġyellow":11637,"ĠClear":11638,"ĠCleared":11639,"fficient":11640,"Ġsword":11641,"Ġflam":11642,"Ġfluff":11643,"Ġmirac":11644,"2250":11645,"2246":11646,"swings":11647,"ĠWhatever":11648,"running":11649,"Ġpositions":11650,"Ġpositioned":11651,"empted":11652,"lines":11653,"ĠBisected":11654,"ĠDefinitely":11655,"comm":11656,"Ġinforms":11657,"Ġlive":11658,"Ġconcl":11659,"Ġsweat":11660,"Ġneg":11661,"Ġtrifle":11662,"ĠRichard":11663,"Ġlowers":11664,"Ġwilling":11665,"Ġfooted":11666,"ĠBowl":11667,"Ġstrange":11668,"Ġstratosphere":11669,"ifted":11670,"Ġskill":11671,"Ġclosing":11672,"Ġcleaned":11673,"Ġcleanest":11674,"Ġproves":11675,"Ġproceed":11676,"Ġcorker":11677,"Ġpunishing":11678,"Ġfeed":11679,"Ġcalling":11680,"Ġwhizz":11681,"Ġneedless":11682,"Ġreviewing":11683,"Anirudh":11684,"ĠSlows":11685,"ĠSliding":11686,"Ġprized":11687,"Ġmovements":11688,"ĠFlew":11689,"ĠOutside":11690,"ĠOutstanding":11691,"ĠOutrageous":11692,"ĠNathu":11693,"Ġknocking":11694,"ĠCarved":11695,"Ġdismissive":11696,"Ġdeparted":11697,"Ġhappily":11698,"ĠComfort":11699,"six":11700,"Ġappeals":11701,"Ġhamstr":11702,"Ġhoicked":11703,"reader":11704,"Ġedgy":11705,"Ġdelivering":11706,"ĠRedemption":11707,"Ġzips":11708,"Ġdaylight":11709,"Ġleaped":11710,"ĠSpotted":11711,"ĠUnleashes":11712,"ĠOrange":11713,"Ġsneaking":11714,"Ġreplace":11715,"Ġcricketing":11716,"ĠIsn":11717,"Ġpaces":11718,"Ġhorr":11719,"Yashpal":11720,"Ġyourself":11721,"Ġfetching":11722,"allest":11723,"Ġgrabbing":11724,"Ġrespons":11725,"Ġmetres":11726,"Ġloopier":11727,"Ġskywards":11728,"Ġbreather":11729,"Ġexecuting":11730,"Ġsurprisingly":11731,"Ġlighting":11732,"Ġ12164":11733,"Ġboardings":11734,"ĠDarren":11735,"Ġextravag":11736,"Ġbludgeon":11737,"Ġfairly":11738,"Ġobstructing":11739,"Ġcurling":11740,"Ġunleashing":11741,"meditated":11742,"Ġpalmed":11743,"Ġgrazes":11744,"ĠKnows":11745,"ĠKnocks":11746,"Ġfaintest":11747,"Ġchooses":11748,"Ġemploy":11749,"Ġemploys":11750,"Ġsensed":11751,"Ġopted":11752,"Ġopting":11753,"Ġmodern":11754,"Ġdealt":11755,"Ġwonders":11756,"Ġwonderfully":11757,"Ġrubbing":11758,"Ġexcept":11759,"Ġdisappearing":11760,"Raghu":11761,"ritory":11762,"Ġ142627":11763,"Ġproviding":11764,"Ġoblivion":11765,"ĠKevin":11766,"Ġmarch":11767,"Ġpocketed":11768,"Ġswirl":11769,"Ġsensible":11770,"Ġfinished":11771,"ĠCrouches":11772,"Ġerrors":11773,"Ġpersisted":11774,"Ġmanufactured":11775,"Ġpossibly":11776,"Ġdisparag":11777,"Ġ54833":11778,"Ġ152926":11779,"Ġ152927":11780,"hhh":11781,"Ġjaff":11782,"ĠAdam":11783,"Ġminimal":11784,"Ġlapse":11785,"Ġmerely":11786,"Ġteases":11787,"Ġteased":11788,"Ġemotion":11789,"ĠLofted":11790,"Ġprodded":11791,"Ġbullied":11792,"Ġthankfully":11793,"Ġsnaffled":11794,"Ġthumping":11795,"ĠSeems":11796,"Ġbossing":11797,"ĠPowerfully":11798,"Ġforehands":11799,"Ġquietly":11800,"Ġstealing":11801,"Ġunsure":11802,"Ġexperiment":11803,"Ġassoci":11804,"ĠCleverly":11805,"ĠSlowish":11806,"Ġsuggest":11807,"ĠImport":11808,"Ġcrouch":11809,"Ġdelicately":11810,"Ġlunged":11811,"Ġ113659":11812,"Ġinvitingly":11813,"Ġwhistling":11814,"Ġoptions":11815,"ĠSweetly":11816,"Ġpivot":11817,"Ġconsumed":11818,"ĠRockets":11819,"Ġagriculturally":11820,"going":11821,"Ġterritory":11822,"Ġsinking":11823,"Ġwoe":11824,"ĠMishraji":11825,"Ġgrasses":11826,"aaa":11827,"yyyy":11828,"Ġpurpose":11829,"Ġ73404":11830,"Ġfizz":11831,"Ġhugeeeeeeee":11832,"Ġsteepler":11833,"Ġsteepling":11834,"Ġamongst":11835,"Ġbrain":11836,"Ġclaps":11837,"Ġpatrolling":11838,"Ġcounterattack":11839,"ĠTrent":11840,"Ġnurdle":11841,"Ġshocker":11842,"Ġstraightening":11843,"Ġchampions":11844,"Ġstabs":11845,"ology":11846,"Ġissue":11847,"Ġjammed":11848,"Ġmarmalizes":11849,"Ġlurking":11850,"Ġluringly":11851,"Ġfilthy":11852,"Ġlocal":11853,"Ġspliced":11854,"Ġslugs":11855,"ĠSplits":11856,"Ġreplica":11857,"Ġsinews":11858,"Ġshaved":11859,"Ġcardinal":11860,"Ġphys":11861,"ĠChet":11862,"Ġthudded":11863,"ĠNonetheless":11864,"Ġtactics":11865,"tifies":11866,"Ġinnovative":11867,"Ġperiscope":11868,"Ġclasps":11869,"Ġcheekiness":11870,"Ġunfurls":11871,"barrass":11872,"flowing":11873,"Ġsleep":11874,"Ġfittingly":11875,"Ġblessing":11876,"ĠRelief":11877,"Ġcrim":11878,"ĠWorld":11879,"Ġlasers":11880,"Ġanswer":11881,"Ġdislodges":11882,"Ġdecisions":11883,"Ġslaughters":11884,"ĠCompletely":11885,"ĠWonderful":11886,"Ġmeekly":11887,"Ġlanguid":11888,"Ġcomprehensive":11889,"ĠAppeal":11890,"ĠGolden":11891,"ĠWICKET":11892,"Ġvicinity":11893,"ĠExceptional":11894,"ĠJamaican":11895,"henomenal":11896,"ĠSwinging":11897,"Ġdetermined":11898,"Buttler":11899,"Saha":11900,"borne":11901,"fashioned":11902,"titude":11903,"ĠKneels":11904,"Ġchirps":11905,"ĠTouch":11906,"Ġachie":11907,"ĠContin":11908,"ĠBetter":11909,"Ġgimme":11910,"Ġincredibly":11911,"Ġinevit":11912,"Ġtailender":11913,"Ġfranchise":11914,"Ġquicksilver":11915,"Ġsplendid":11916,"Ġconclusive":11917,"Ġhamstring":11918,"!'":11919,"410":11920,"843":11921,"Catch":11922,"FF":11923,"FI":11924,"GS":11925,"HE":11926,"Hanuma":11927,"IF":11928,"JW":11929,"LB":11930,"Livingstone":11931,"No":11932,"PM":11933,"Ris":11934,"Russ":11935,"SZ":11936,"Sau":11937,"TP":11938,"Tripathi":11939,"Vivrant":11940,"ajan":11941,"bers":11942,"bail":11943,"cst":11944,"cushi":11945,"do":11946,"dict":11947,"font":11948,"gg":11949,"gone":11950,"gging":11951,"geeee":11952,"hands":11953,"hook":11954,"ige":11955,"ience":11956,"jam":11957,"kicked":11958,"pled":11959,"pted":11960,"pitch":11961,"punch":11962,"rase":11963,"renal":11964,"sa":11965,"scor":11966,"sational":11967,"than":11968,"tles":11969,"uins":11970,"uart":11971,"wire":11972,"yle":11973,"yel":11974,"Ġul":11975,"Ġess":11976,"Ġ!!":11977,"Ġtest":11978,"Ġterri":11979,"Ġtallest":11980,"ĠSet":11981,"ĠSett":11982,"ĠSince":11983,"ĠSave":11984,"ĠSheld":11985,"ĠSaved":11986,"ĠSitting":11987,"ords":11988,"orthodox":11989,"Ġtourney":11990,"ery":11991,"eringly":11992,"cort":11993,"Ġoun":11994,"Ġoth":11995,"inding":11996,"inker":11997,"inaman":11998,"ĠScores":11999,"ane":12000,"another":12001,"Ġsun":12002,"Ġsus":12003,"Ġsir":12004,"Ġshed":12005,"Ġsitters":12006,"arre":12007,"arred":12008,"Ġfan":12009,"Ġfed":12010,"Ġfum":12011,"Ġful":12012,"Ġfend":12013,"Ġfool":12014,"Ġfault":12015,"atform":12016,"lest":12017,"lect":12018,"lects":12019,"Ġblit":12020,"Ġbudge":12021,"Ġboys":12022,"Ġbarrier":12023,"Ġblip":12024,"Ġblistering":12025,"dest":12026,"degrees":12027,"Ġwhir":12028,"Ġwave":12029,"Ġwise":12030,"Ġwrap":12031,"Ġrips":12032,"ĠMitch":12033,"ĠRel":12034,"ĠRod":12035,"ĠRound":12036,"ĠRare":12037,"ĠReds":12038,"ĠRuins":12039,"onks":12040,"ĠKent":12041,"ĠKyle":12042,"ĠPops":12043,"ĠAya":12044,"ences":12045,"Ġcash":12046,"Ġcran":12047,"Ġcandy":12048,"itary":12049,"itially":12050,"ĠTod":12051,"ĠTry":12052,"ĠTrick":12053,"ĠTold":12054,"Ġoverdoes":12055,"estim":12056,"Ġonus":12057,"rible":12058,"ribut":12059,"Ġmic":12060,"Ġmad":12061,"Ġmot":12062,"Ġmathe":12063,"Ġmora":12064,"Ġmother":12065,"Ġmattered":12066,"Ġmaker":12067,"Ġmoral":12068,"Ġpatch":12069,"Ġpath":12070,"Ġpins":12071,"ĠDuck":12072,"ĠDabbed":12073,"ĠCli":12074,"ĠCall":12075,"ĠCrun":12076,"ĠBla":12077,"ĠBlo":12078,"ĠBullet":12079,"ĠBMac":12080,"uting":12081,"Ġbailed":12082,"ĠJosh":12083,"Ġgains":12084,"Ġdross":12085,"Ġdup":12086,"Ġdashed":12087,"Ġdem":12088,"Ġdev":12089,"Ġdeny":12090,"Ġdelaying":12091,"ĠFiel":12092,"ĠFortun":12093,"ĠFailed":12094,"ĠFetches":12095,"Ġstat":12096,"Ġstre":12097,"Ġstock":12098,"Ġstable":12099,"Ġstint":12100,"Ġstars":12101,"ument":12102,"owing":12103,"Ġ450":12104,"ady":12105,"Ġinwards":12106,"Ġleaks":12107,"Ġleaked":12108,"ĠHaving":12109,"ĠHamm":12110,"ĠHanuma":12111,"aling":12112,"chase":12113,"chance":12114,"chases":12115,"Ġeyel":12116,"hant":12117,"Ġ318":12118,"ĠGen":12119,"ĠGive":12120,"Ġnib":12121,"Ġnig":12122,"Ġnipping":12123,"Ġnumer":12124,"ĠNor":12125,"Ġtails":12126,"Ġtackle":12127,"ĠVik":12128,"enth":12129,"ickest":12130,"lif":12131,"Ġlegal":12132,"iration":12133,"ĠWC":12134,"Ġ1000":12135,"cky":12136,"Ġoutrageous":12137,"Ġoutsm":12138,"made":12139,"machine":12140,"Ġnose":12141,"Ġlures":12142,"Ġoffice":12143,"Ġ1312":12144,"ĠLot":12145,"ĠLoses":12146,"ĠLooking":12147,"ĠLuke":12148,"ĠLifted":12149,"Ġsil":12150,"Ġsizes":12151,"tip":12152,"shocked":12153,"Ġthrash":12154,"Ġgod":12155,"ppin":12156,"Ġcomical":12157,"ellig":12158,"odd":12159,"Ġatrocious":12160,"Ġcollision":12161,"Ġcoloss":12162,"start":12163,"stances":12164,"ĠUp":12165,"ĠUnder":12166,"rolled":12167,"Ġhouses":12168,"Ġshown":12169,"131":12170,"1368":12171,"Ġrec":12172,"Ġrever":12173,"Ġrebu":12174,"Ġredemption":12175,"fty":12176,"perious":12177,"umph":12178,"thm":12179,"that":12180,"thought":12181,"007":12182,"Ġmanning":12183,"Ġsideways":12184,"Ġart":12185,"ovman":12186,"Ġquickest":12187,"real":12188,"reci":12189,"hawan":12190,"ĠStro":12191,"ĠStuart":12192,"bol":12193,"boom":12194,"boost":12195,"ĠEr":12196,"ĠEither":12197,"ĠEvin":12198,"olation":12199,"Ġscen":12200,"Ġscrip":12201,"Ġscree":12202,"Ġscaled":12203,"Ġcrossing":12204,"Ġgoodbye":12205,"Ġdefensively":12206,"anter":12207,"ĠAshton":12208,"Ġanno":12209,"Ġanimated":12210,"ĠPounds":12211,"winning":12212,"acles":12213,"Ġwitheringly":12214,"Ġstumpish":12215,"ĠOb":12216,"ĠOpen":12217,"ĠOops":12218,"ĠOrd":12219,"onty":12220,"ĠKaboom":12221,"Ġaltitude":12222,"iveled":12223,"Ġadjudged":12224,"ĠSails":12225,"Ġlock":12226,"Ġmisread":12227,"Ġumpte":12228,"Ġdeeper":12229,"Ġprow":12230,"aky":12231,"Ġpressed":12232,"Ġsold":12233,"Ġsolitary":12234,"Ġsprun":12235,"Ġspits":12236,"Ġspark":12237,"Ġspread":12238,"Ġsports":12239,"Ġsparing":12240,"Ġspared":12241,"ibility":12242,"azz":12243,"feet":12244,"Ġasc":12245,"Ġasks":12246,"ĠPreemp":12247,"Ġ336":12248,"Ġ290":12249,"Ġ279":12250,"Ġ284":12251,"ĠBruce":12252,"Ġpopping":12253,"Ġpoise":12254,"Ġ309":12255,"Ġperched":12256,"Ġperished":12257,"emfont":12258,"Ġdisastrous":12259,"Ġafterno":12260,"Ġafterthought":12261,"ĠAlready":12262,"ades":12263,"Ġ439":12264,"Ġresurr":12265,"Ġjudgement":12266,"ĠShorter":12267,"ĠSailed":12268,"ĠHashim":12269,"ĠFinchy":12270,"Ġheads":12271,"Ġ82974":12272,"Ġunless":12273,"Ġhara":12274,"ĠBishop":12275,"Ġseasons":12276,"Ġcompli":12277,"Ġcomposed":12278,"Ġclust":12279,"Ġclatter":12280,"ize":12281,"izarre":12282,"Ġcleans":12283,"ĠKrishnappa":12284,"ĠBeen":12285,"Ġslants":12286,"Ġkill":12287,"Ġkills":12288,"Ġ1237":12289,"ĠNearly":12290,"ĠClub":12291,"Ġ11817":12292,"ettle":12293,"Ġtip":12294,"Ġtipped":12295,"ĠHold":12296,"jecti":12297,"ugged":12298,"ordination":12299,"ordinary":12300,"Ġknuck":12301,"Ġ13703":12302,"ĠInter":12303,"ĠInitially":12304,"Ġchinaman":12305,"denly":12306,"ĠShivil":12307,"ĠConfusion":12308,"Ġyard":12309,"Ġyells":12310,"Ġ152767":12311,"alling":12312,"Ġnote":12313,"Ġswatting":12314,"Ġswinger":12315,"Ġswitching":12316,"Ġswiveled":12317,"Ġflurry":12318,"Ġfluffed":12319,"Ġ15354":12320,"Ġacti":12321,"2239":12322,"swivel":12323,"uries":12324,"kiri":12325,"Ġfirewor":12326,"Ġvaluable":12327,"anny":12328,"Ġcondit":12329,"ĠThreaded":12330,"ĠThreads":12331,"ects":12332,"Ġglided":12333,"Ġtricks":12334,"Ġtriumph":12335,"Ġusher":12336,"Ġlowest":12337,"Ġbreez":12338,"Ġbrushing":12339,"Ġfootball":12340,"ĠSensational":12341,"Ġdoor":12342,"itty":12343,"Ġclock":12344,"Ġclocked":12345,"outs":12346,"Ġwhatta":12347,"oste":12348,"breaker":12349,"ĠGoing":12350,"ĠMurder":12351,"Ġawesome":12352,"stumps":12353,"Ġcleaner":12354,"280":12355,"Ġprog":12356,"Ġprop":12357,"Ġprops":12358,"Ġproof":12359,"Ġproved":12360,"342":12361,"KAJ":12362,"Ġslotted":12363,"Abhinandan":12364,"Ġwrite":12365,"Ġthighs":12366,"Ġfinals":12367,"Ġfinest":12368,"Ġreacted":12369,"Ġsucked":12370,"Ġsuicidal":12371,"Ġsufficient":12372,"932":12373,"ĠAtrocious":12374,"ĠSlinga":12375,"ĠSlashed":12376,"Ġblows":12377,"Ġgooglies":12378,"601":12379,"Ġsurfaces":12380,"Ġimpet":12381,"Ġimparts":12382,"Ġimparted":12383,"Ġprey":12384,"ĠOutswinger":12385,"earing":12386,"eared":12387,"Ġeverywhere":12388,"mied":12389,"Ġweak":12390,"Ġcolleague":12391,"Ġraw":12392,"Ġremoving":12393,"Ġopponent":12394,"Ġhappens":12395,"Ġbreakdown":12396,"Ġcracker":12397,"Ġbadge":12398,"Ġwowza":12399,"spinners":12400,"istan":12401,"istic":12402,"arget":12403,"Ġhoist":12404,"Ġhoarding":12405,"Ġseamer":12406,"Ġseamed":12407,"Ġeduc":12408,"Ġedgeeee":12409,"ĠJacob":12410,"Ġelder":12411,"Ġmindful":12412,"Ġsmarter":12413,"ĠReview":12414,"Ġerred":12415,"Ġzipped":12416,"Ġzero":12417,"Ġshowc":12418,"ĠSprays":12419,"ĠSpears":12420,"Ġhurled":12421,"hitter":12422,"Ġrealises":12423,"Ġrealized":12424,"Ġrealizing":12425,"Ġyoungest":12426,"ĠUnlucky":12427,"uggled":12428,"Ġsteel":12429,"Ġsteady":12430,"Ġfinisher":12431,"Ġrepeats":12432,"Ġaccepted":12433,"ĠDevdhar":12434,"Ġjoke":12435,"Ġjoined":12436,"ĠGlenn":12437,"ĠSuddenly":12438,"ensions":12439,"Ġescort":12440,"Ġappreci":12441,"Ġabort":12442,"Ġtracks":12443,"Ġtracer":12444,"Ġtradit":12445,"Ġdelightfully":12446,"Ġelevated":12447,"Ġblazing":12448,"Ġblazed":12449,"Ġcircles":12450,"PVSN":12451,"Ġmostly":12452,"Ġdepositing":12453,"Ġattacked":12454,"Ġmyster":12455,"prising":12456,"armer":12457,"Ġwhacking":12458,"Ġbalanced":12459,"Ġadvice":12460,"ĠWowza":12461,"Ġchased":12462,"ĠHangs":12463,"Ġpouncing":12464,"Ġensuring":12465,"Ġrises":12466,"Ġbobbled":12467,"Ġteleg":12468,"Ġpummeled":12469,"Ġaimless":12470,"Ġenter":12471,"ĠTurning":12472,"ĠAgainst":12473,"Ġcurving":12474,"Ġ130407":12475,"Ġfaith":12476,"Ġgenerates":12477,"Ġshelled":12478,"Ġtraveling":12479,"Ġhopeless":12480,"ĠSomeone":12481,"Ġretained":12482,"Ġemphat":12483,"Ġ125407":12484,"Ġconsolation":12485,"Ġthreat":12486,"Ġthreaded":12487,"Ġconverge":12488,"Ġfella":12489,"ĠSublime":12490,"Ġdigits":12491,"Rahane":12492,"Ġsnakes":12493,"Ġripping":12494,"Ġmurdered":12495,"ĠMinimum":12496,"ĠAnyone":12497,"Ġprovide":12498,"Ġsurvived":12499,"Ġcommitment":12500,"Ġpresented":12501,"Ġruin":12502,"Ġruining":12503,"Ġruined":12504,"Ġoblige":12505,"Ġblinded":12506,"ĠRisodkar":12507,"ĠBenjam":12508,"ĠFloats":12509,"Ġbegins":12510,"Ġundid":12511,"Ġsensibly":12512,"Ġcenturion":12513,"Ġthreatens":12514,"Ġdarter":12515,"Ġprompted":12516,"Ġ54836":12517,"Ġflap":12518,"ĠDreRuss":12519,"Ġshimmying":12520,"Ġdented":12521,"Ġembarrass":12522,"ĠAngling":12523,"ĠDrifted":12524,"Ġanticipation":12525,"Ġlearns":12526,"Ġsquirt":12527,"Ġtroubles":12528,"Ġcamped":12529,"Ġcamera":12530,"Ġinducing":12531,"Ġscalped":12532,"Ġsmaller":12533,"Ġaffair":12534,"ĠDispat":12535,"Ġrecovers":12536,"ĠStunner":12537,"Ġscreaming":12538,"stretch":12539,"Ġfamed":12540,"Ġauthoritative":12541,"Ġmagnificently":12542,"Ġsquares":12543,"Ġshift":12544,"Ġvoices":12545,"Ġtrusted":12546,"Ġsupposed":12547,"Ġlunging":12548,"Ġexplode":12549,"Ġexploits":12550,"Ġinvites":12551,"Ġpassage":12552,"Ġfortress":12553,"Ġcollided":12554,"Ġscythed":12555,"Ġbroomed":12556,"Ġwoken":12557,"ĠMeaty":12558,"Ġaudible":12559,"Ġindex":12560,"Ġspecky":12561,"Ġcountrymile":12562,"Ġcustomer":12563,"Ġtentacles":12564,"Ġbooster":12565,"Ġpurple":12566,"Ġ73403":12567,"Ġexpressions":12568,"ĠUnfortunately":12569,"Ġcrunchy":12570,"Ġaggressor":12571,"Ġaggressively":12572,"Ġpreempts":12573,"Ġsupremely":12574,"Ġclapping":12575,"ĠHeld":12576,"ĠHardly":12577,"ĠConnected":12578,"Ġzooms":12579,"Ġzoomed":12580,"Ġweek":12581,"Ġnurdled":12582,"Ġdrawing":12583,"Ġaudacity":12584,"ĠSlapped":12585,"Ġmagical":12586,"Ġscoots":12587,"Ġ72929":12588,"Ġ72928":12589,"Ġsteadied":12590,"ĠRobert":12591,"Ġfortunately":12592,"Ġricochets":12593,"Ġmassac":12594,"Ġmassively":12595,"ĠFront":12596,"Ġ117536":12597,"ĠExpects":12598,"ĠExpected":12599,"Ġcapitalizes":12600,"ĠAttempts":12601,"Ġfilth":12602,"Ġbasics":12603,"Ġriposte":12604,"Ġ73398":12605,"Ġ73399":12606,"Ġscrambled":12607,"Ġ152768":12608,"Ġtechnique":12609,"Ġtechnology":12610,"ĠSkiddy":12611,"Ġbamboozle":12612,"Ġcongratulate":12613,"hoick":12614,"Ġtaste":12615,"Ġtasty":12616,"Ġshame":12617,"Ġflogs":12618,"Ġbanks":12619,"ĠRespite":12620,"ĠResult":12621,"ĠTrademark":12622,"ĠDouble":12623,"ĠCrazy":12624,"Ġguns":12625,"Ġlaying":12626,"Ġdeliberate":12627,"Ġadventure":12628,"Ġadventures":12629,"Ġtwirls":12630,"Ġassumed":12631,"Ġverdict":12632,"ĠSmall":12633,"Ġfocus":12634,"Ġpedal":12635,"ĠBooming":12636,"Ġincre":12637,"ĠHorrible":12638,"Ġoutfoxed":12639,"Ġclutches":12640,"Ġcircumstances":12641,"Ġintercepts":12642,"Ġsacrific":12643,"Ġhalt":12644,"Ġtilt":12645,"Ġwalloped":12646,"Ġmajor":12647,"Ġdynamite":12648,"Ġnatural":12649,"ĠLankan":12650,"controlled":12651,"Ġbearings":12652,"ĠSmoked":12653,"Ġhaywire":12654,"ooooom":12655,"ĠMuscles":12656,"Ġcompetitive":12657,"Ġstrangled":12658,"Ġreprieve":12659,"Ġcentimeters":12660,"Ġbullseye":12661,"Ġviewing":12662,"Ġidentifies":12663,"Ġowner":12664,"Ġoperator":12665,"Ġsurrender":12666,"Ġrhythm":12667,"ĠPivots":12668,"Ġmillimet":12669,"Ġmillion":12670,"Ġmockery":12671,"Ġpicture":12672,"ĠDriven":12673,"Ġdimensions":12674,"ĠFollows":12675,"Ġlicense":12676,"Ġremarkable":12677,"ĠErrs":12678,"ĠPrashant":12679,"communication":12680,"Ġproceedings":12681,"ĠComfortably":12682,"Ġhorrendous":12683,"Ġjaffa":12684,"ĠImportant":12685,"Ġphysio":12686,"Ġcriminal":12687,"FIVE":12688,"Rishi":12689,"Saurav":12690,"cushions":12691,"renaline":12692,"ĠSheldon":12693,"Ġounce":12694,"Ġothers":12695,"Ġfuming":12696,"Ġfullest":12697,"ĠAyappa":12698,"ĠToday":12699,"Ġmathemat":12700,"Ġmorale":12701,"ĠBloemfont":12702,"Ġeyeline":12703,"Ġniggle":12704,"Ġcolossal":12705,"Ġannoun":12706,"ĠOrdinary":12707,"Ġumpteenth":12708,"Ġsprung":12709,"Ġafternoon":12710,"Ġclusters":12711,"Ġknuckles":12712,"Ġfireworks":12713,"Ġconditions":12714,"Ġeducated":12715,"Ġtraditional":12716,"Ġmystery":12717,"ĠBenjamin":12718,"ĠBloemfontein":12719,"213":12720,"220":12721,"307":12722,"416":12723,"688":12724,"774":12725,"AHH":12726,"DI":12727,"DV":12728,"Dhawan":12729,"GR":12730,"Gul":12731,"Goswami":12732,"It":12733,"JB":12734,"Kedar":12735,"LG":12736,"MO":12737,"Man":12738,"Mitchell":12739,"Mashrafe":12740,"NA":12741,"NB":12742,"PWA":12743,"Ray":12744,"Sm":12745,"TD":12746,"TT":12747,"Uthappa":12748,"VH":12749,"Vir":12750,"WW":12751,"You":12752,"[/":12753,"ax":12754,"acked":12755,"after":12756,"bra":12757,"bre":12758,"bang":12759,"batting":12760,"bert":12761,"byes":12762,"che":12763,"cus":12764,"card":12765,"cage":12766,"ctive":12767,"dur":12768,"dab":12769,"dley":12770,"draw":12771,"diving":12772,"drop":12773,"eas":12774,"eded":12775,"eway":12776,"eated":12777,"full":12778,"fade":12779,"faced":12780,"fice":12781,"from":12782,"gin":12783,"gna":12784,"good":12785,"hor":12786,"hon":12787,"hers":12788,"hits":12789,"iman":12790,"ians":12791,"ikes":12792,"ife":12793,"kn":12794,"khon":12795,"lwind":12796,"mor":12797,"mmed":12798,"mph":12799,"moved":12800,"mdip":12801,"ns":12802,"nt":12803,"nak":12804,"pl":12805,"po":12806,"pes":12807,"pers":12808,"press":12809,"rot":12810,"ret":12811,"sim":12812,"sely":12813,"sized":12814,"stop":12815,"tr":12816,"tw":12817,"tin":12818,"table":12819,"tter":12820,"tising":12821,"target":12822,"uded":12823,"uwan":12824,"wing":12825,"wed":12826,"wdy":12827,"whip":12828,"whips":12829,"xy":12830,"ym":12831,"your":12832,"zag":12833,"Ġ>":12834,"Ġi":12835,"Ġur":12836,"Ġumm":12837,"Ġast":12838,"Ġuff":12839,"Ġign":12840,"Ġticket":12841,"Ġtend":12842,"Ġtandem":12843,"Ġtearing":12844,"ĠSn":12845,"ĠShi":12846,"ĠSiv":12847,"ĠSped":12848,"ĠSorry":12849,"ormed":12850,"Ġtoug":12851,"Ġtown":12852,"erts":12853,"erted":12854,"heave":12855,"helic":12856,"inta":12857,"ĠScored":12858,"ansive":12859,"Ġsan":12860,"Ġson":12861,"Ġsump":12862,"Ġsank":12863,"Ġsways":12864,"Ġsaving":12865,"Ġsample":12866,"arently":12867,"Ġfod":12868,"Ġfix":12869,"athan":12870,"veral":12871,"vertising":12872,"Ġbun":12873,"Ġbully":12874,"Ġburn":12875,"Ġbumps":12876,"Ġbright":12877,"Ġbarra":12878,"Ġbunch":12879,"deli":12880,"deck":12881,"ingo":12882,"key":12883,"Ġwil":12884,"Ġwaves":12885,"Ġwisely":12886,"Ġride":12887,"Ġrav":12888,"Ġrail":12889,"Ġrely":12890,"Ġrich":12891,"Ġrif":12892,"Ġruth":12893,"Ġrushing":12894,"ĠMud":12895,"ĠMood":12896,"ĠRom":12897,"ĠRog":12898,"ĠRip":12899,"ĠRif":12900,"ĠRides":12901,"onu":12902,"ased":12903,"ĠKay":12904,"ĠKous":12905,"ĠKook":12906,"ĠKiller":12907,"ĠPick":12908,"ĠPumm":12909,"ĠPace":12910,"ĠPier":12911,"ĠPawar":12912,"ĠPushes":12913,"ĠAj":12914,"ening":12915,"enght":12916,"ency":12917,"Ġcell":12918,"Ġchil":12919,"ities":12920,"ĠTO":12921,"ĠTam":12922,"ĠTill":12923,"ĠTucked":12924,"Ġaah":12925,"Ġauction":12926,"Ġoverd":12927,"Ġoverran":12928,"Ġovercorre":12929,"hai":12930,"hacked":12931,"happy":12932,"esting":12933,"rier":12934,"rian":12935,"rison":12936,"edic":12937,"edict":12938,"Ġmul":12939,"Ġmort":12940,"Ġmedi":12941,"Ġmoun":12942,"Ġmonty":12943,"Ġmedic":12944,"Ġpot":12945,"Ġpol":12946,"Ġpaced":12947,"Ġperson":12948,"Ġpatted":12949,"ĠDam":12950,"ĠDiff":12951,"ĠDanger":12952,"ĠDishes":12953,"ĠDreadful":12954,"ĠDanny":12955,"ĠCatch":12956,"ĠCour":12957,"ĠCrack":12958,"ĠCelebr":12959,"ĠCarnage":12960,"ĠCrisp":12961,"ĠCalls":12962,"ĠBon":12963,"ĠBam":12964,"ĠBip":12965,"ĠBody":12966,"ĠBreak":12967,"ĠBehind":12968,"ĠBizarre":12969,"iso":12970,"ister":12971,"andra":12972,"andya":12973,"anders":12974,"raham":12975,"ĠJB":12976,"ĠJe":12977,"ĠJumped":12978,"Ġgut":12979,"Ġgullet":12980,"Ġgrave":12981,"Ġgravity":12982,"Ġgym":12983,"Ġdic":12984,"Ġdod":12985,"Ġdump":12986,"Ġdish":12987,"Ġdang":12988,"Ġdry":12989,"Ġdice":12990,"ouder":12991,"Ġdecking":12992,"Ġdexter":12993,"Ġdegrees":12994,"Ġdeemed":12995,"Ġdegree":12996,"ĠFla":12997,"ĠFab":12998,"ĠFier":12999,"ĠFlays":13000,"ĠFifth":13001,"ĠFrees":13002,"Ġstar":13003,"Ġstom":13004,"Ġstap":13005,"Ġstreak":13006,"Ġstiff":13007,"Ġstoop":13008,"Ġstrayed":13009,"Ġstinker":13010,"Ġstormed":13011,"icul":13012,"iches":13013,"ĠIan":13014,"elb":13015,"eloc":13016,"elage":13017,"Ġitching":13018,"advis":13019,"Ġinad":13020,"Ġinher":13021,"Ġinten":13022,"Ġintim":13023,"Ġinswing":13024,"Ġinex":13025,"Ġlead":13026,"Ġleak":13027,"Ġleeway":13028,"hard":13029,"harac":13030,"hargic":13031,"Ġthumb":13032,"Ġthumbs":13033,"ĠHP":13034,"ĠHS":13035,"ĠHav":13036,"ĠHash":13037,"ĠHooks":13038,"ĠHiman":13039,"ali":13040,"aliz":13041,"chool":13042,"Ġeh":13043,"Ġekes":13044,"Ġecst":13045,"hany":13046,"Ġ311":13047,"Ġnth":13048,"Ġnim":13049,"Ġnag":13050,"Ġnast":13051,"Ġnah":13052,"Ġnets":13053,"Ġballer":13054,"eping":13055,"epower":13056,"ĠNZ":13057,"ĠNuwan":13058,"Ġtale":13059,"ĠVN":13060,"ĠVal":13061,"ĠVital":13062,"ĠVintage":13063,"Ġ518":13064,"Ġ519":13065,"enty":13066,"ention":13067,"urries":13068,"limely":13069,"lified":13070,"Ġ910":13071,"Ġorange":13072,"irts":13073,"ĠRaw":13074,"ĠRaise":13075,"ĠWants":13076,"ĠWaves":13077,"ĠWoah":13078,"ĠWkt":13079,"ĠWhacked":13080,"ĠYu":13081,"ĠYJB":13082,"Ġouts":13083,"Ġoutswing":13084,"maiden":13085,"Ġfresh":13086,"Ġfruit":13087,"ulam":13088,"ulner":13089,"Ġfielded":13090,"Ġlov":13091,"Ġlab":13092,"Ġlashed":13093,"Ġladi":13094,"Ġlous":13095,"Ġlame":13096,"Ġlaw":13097,"Ġlatched":13098,"Ġlouder":13099,"ĠLak":13100,"ĠLoops":13101,"ĠLifts":13102,"ĠLiam":13103,"ĠLife":13104,"ĠLenght":13105,"Ġsigna":13106,"shu":13107,"atement":13108,"oured":13109,"ilding":13110,"ilind":13111,"mance":13112,"manned":13113,"oda":13114,"oddy":13115,"Ġatt":13116,"Ġattra":13117,"Ġcoach":13118,"cony":13119,"stick":13120,"stroke":13121,"meditation":13122,"rives":13123,"Ġoverseas":13124,"uding":13125,"ĠUtter":13126,"ros":13127,"Ġhust":13128,"100":13129,"103":13130,"115":13131,"116":13132,"1186":13133,"Ġshop":13134,"Ġshoddy":13135,"132":13136,"124":13137,"148":13138,"yagar":13139,"Ġrev":13140,"Ġrede":13141,"Ġreve":13142,"Ġreje":13143,"Ġrevs":13144,"Ġreco":13145,"Ġreaps":13146,"Ġrecent":13147,"quality":13148,"Ġplatform":13149,"pertly":13150,"Ġwided":13151,"thony":13152,"think":13153,"001":13154,"003":13155,"008":13156,"Ġmantra":13157,"Ġmanipul":13158,"Ġmanual":13159,"Ġdownward":13160,"Ġbearing":13161,"Ġbehold":13162,"Ġbewdy":13163,"gedy":13164,"Ġsides":13165,"Ġsidelines":13166,"Ġarching":13167,"Ġquint":13168,"Ġqualifier":13169,"releas":13170,"ĠSticks":13171,"ĠStarted":13172,"ĠStraying":13173,"ĠStellar":13174,"Ġdefeated":13175,"bolic":13176,"ĠEmp":13177,"Ġarmy":13178,"Ġarmer":13179,"olate":13180,"Ġsca":13181,"Ġscot":13182,"Ġscarred":13183,"Ġscurries":13184,"opes":13185,"imp":13186,"apt":13187,"apon":13188,"antha":13189,"antaliz":13190,"upt":13191,"ussed":13192,"agam":13193,"Ġupset":13194,"ĠSame":13195,"Ġheels":13196,"across":13197,"active":13198,"ĠArm":13199,"ĠArches":13200,"ĠArmy":13201,"ĠODI":13202,"loat":13203,"Ġalas":13204,"Ġseat":13205,"uva":13206,"ĠMahal":13207,"Ġadrenaline":13208,"Ġadvertising":13209,"Ġrode":13210,"Ġroles":13211,"Ġroads":13212,"Ġumpiring":13213,"ikaz":13214,"essed":13215,"Ġcontribut":13216,"Ġprep":13217,"Ġprances":13218,"Ġprodi":13219,"anselage":13220,"pedals":13221,"pedalled":13222,"akrish":13223,"akiri":13224,"endable":13225,"Ġburies":13226,"Ġexquis":13227,"ĠRRR":13228,"Ġspit":13229,"Ġspir":13230,"Ġspill":13231,"Ġsport":13232,"Ġspicy":13233,"athon":13234,"Ġhitters":13235,"Ġextraordinary":13236,"Ġaspect":13237,"ĠPredict":13238,"ĠZoom":13239,"ĠZeal":13240,"ĠZinta":13241,"Ġ339":13242,"Ġ293":13243,"Ġ288":13244,"ĠBrett":13245,"gious":13246,"Ġvill":13247,"Ġvice":13248,"Ġviciously":13249,"Ġveloc":13250,"Ġvulner":13251,"ĠAnthony":13252,"253":13253,"Ġ345":13254,"Ġ346":13255,"Ġ348":13256,"Ġ357":13257,"Ġpool":13258,"introd":13259,"ailing":13260,"Ġperp":13261,"Ġperils":13262,"Ġperfor":13263,"Ġperiod":13264,"emy":13265,"fortable":13266,"Ġ3966":13267,"Ġdisar":13268,"Ġdisman":13269,"Ġdiscon":13270,"Ġdismay":13271,"Ġhighway":13272,"Ġ447":13273,"Ġ448":13274,"Ġ4498":13275,"203":13276,"758":13277,"Ġjub":13278,"Ġjogg":13279,"Ġjudging":13280,"Ġjitters":13281,"Ġjinx":13282,"mond":13283,"ĠShortens":13284,"ĠHasn":13285,"ĠRajat":13286,"!!!":13287,"Ġ82978":13288,"Ġ82975":13289,"Ġunp":13290,"Ġuncor":13291,"Ġunve":13292,"Ġuncom":13293,"Ġunreal":13294,"Ġuncontrolled":13295,"Ġunmoved":13296,"Ġunhappy":13297,"Ġunmanned":13298,"Ġharder":13299,"Ġharakiri":13300,"Ġcompound":13301,"sanity":13302,"usty":13303,"ĠCharged":13304,"ĠCharles":13305,"ĠBeers":13306,"Ġslump":13307,"Ġslows":13308,"Ġkmph":13309,"itement":13310,"MDKJ":13311,"ĠLynnsanity":13312,"ooth":13313,"Ġunderestim":13314,"etted":13315,"ettable":13316,"Ġtie":13317,"ĠMurali":13318,"Ġthereafter":13319,"ĠMany":13320,"ugs":13321,"iniest":13322,"Ġsmite":13323,"Ġsmiling":13324,"Ġsmooth":13325,"ĠMumbaikar":13326,"arches":13327,"Ġdribble":13328,"Ġdribbled":13329,"ĠInswinger":13330,"Ġslogsweep":13331,"Ġ14735":13332,"ĠCons":13333,"ĠConce":13334,"ĠConsecutive":13335,"ĠPrec":13336,"ĠPreity":13337,"ĠPremdip":13338,"Ġfrontfoot":13339,"Ġreferred":13340,"iphany":13341,"Ġswerved":13342,"Ġswerving":13343,"044":13344,"058":13345,"Ġflinch":13346,"Ġflashing":13347,"Ġflows":13348,"Ġflung":13349,"Ġrightfully":13350,"Ġtrudging":13351,"2245":13352,"2248":13353,"ĠEns":13354,"swats":13355,"swivels":13356,"Ġlofty":13357,"Ġbodyline":13358,"Ġbelting":13359,"240":13360,"2423":13361,"ĠBisects":13362,"ĠAmple":13363,"ĠExquisite":13364,"ĠExpertly":13365,"ĠDeath":13366,"ĠDeceives":13367,"Ġencore":13368,"Ġenemy":13369,"ĠTHE":13370,"ĠTHIS":13371,"Ġfirepower":13372,"Ġcaps":13373,"terjee":13374,"teristic":13375,"Ġlim":13376,"Ġconst":13377,"Ġconnn":13378,"ĠThumps":13379,"ĠThought":13380,"ĠThyagar":13381,"691":13382,"692":13383,"ĠStraightforward":13384,"Ġcreating":13385,"Ġcreeping":13386,"Ġneigh":13387,"Ġglad":13388,"Ġglued":13389,"ĠMadness":13390,"Ġovercooked":13391,"otten":13392,"Ġushers":13393,"Ġbiggies":13394,"438":13395,"ĠOverc":13396,"ĠOvercompens":13397,"Ġmission":13398,"Ġdoled":13399,"949":13400,"ĠJamtha":13401,"571":13402,"Ġskying":13403,"racker":13404,"ĠBrian":13405,"ĠBrilliance":13406,"Ġclout":13407,"Ġclosely":13408,"ĠStylish":13409,"estic":13410,"ĠCovers":13411,"ĠCollision":13412,"Ġimperious":13413,"arily":13414,"Ġyorkerish":13415,"ĠMoises":13416,"DAJ":13417,"Ġproven":13418,"Ġmomentarily":13419,"Ġangler":13420,"phy":13421,"347":13422,"ĠSwir":13423,"ĠSwept":13424,"ĠSwitched":13425,"ĠSwung":13426,"ĠBarely":13427,"Ġdirecting":13428,"Ġfears":13429,"Ġfeathers":13430,"Ġslotting":13431,"Ġseeks":13432,"Ġseeking":13433,"Ġseeming":13434,"Abdur":13435,"Ġneedle":13436,"Ġneedful":13437,"Ġneedlessly":13438,"Ġefforts":13439,"SSB":13440,"othy":13441,"Ġnonetheless":13442,"ĠSlugged":13443,"Ġcarom":13444,"Ġprime":13445,"Ġblown":13446,"Ġblares":13447,"ĠQuality":13448,"Ġbouncers":13449,"885":13450,"Ġsurgically":13451,"Arcy":13452,"Ġringing":13453,"Ġpremeditation":13454,"Ġtrickle":13455,"Ġflipper":13456,"Ġweapon":13457,"Ġcharmed":13458,"555":13459,"miss":13460,"402":13461,"sky":13462,"ĠTimely":13463,"ĠTimbah":13464,"ĠTimothy":13465,"Ġreminds":13466,"Musheer":13467,"Ġpeel":13468,"Ġpegged":13469,"aramakrish":13470,"ĠHopefully":13471,"Ġslowest":13472,"Ġcarting":13473,"Ġexpansive":13474,"Ġbridge":13475,"Ġupping":13476,"backer":13477,"Ġbackspin":13478,"Ġregister":13479,"Ġhopped":13480,"Ġhoisted":13481,"Ġhopping":13482,"Ġseams":13483,"ĠBacking":13484,"Ġedging":13485,"ĠStrong":13486,"ĠStretches":13487,"Ġconfused":13488,"ĠSekhon":13489,"ĠSeveral":13490,"oxes":13491,"Ġelan":13492,"Ġelic":13493,"Ġnights":13494,"Ġtaller":13495,"Ġheaven":13496,"Ġflood":13497,"Ġfloppy":13498,"Ġfloating":13499,"ĠRead":13500,"ĠReverse":13501,"ĠReached":13502,"ĠReverses":13503,"ĠUmm":13504,"ĠSpills":13505,"chalance":13506,"uggling":13507,"Ġstrokeplay":13508,"Ġsteals":13509,"Ġstoops":13510,"Ġsimpler":13511,"Ġdismissals":13512,"udgeoned":13513,"Ġpreviously":13514,"handedly":13515,"Ġtickling":13516,"Ġsnuck":13517,"Ġlethal":13518,"Ġlethargic":13519,"Ġreply":13520,"Ġrepair":13521,"Ġaccom":13522,"Ġaccel":13523,"Ġsoftest":13524,"Ġcreaming":13525,"Ġtargetting":13526,"Ġthoughts":13527,"ĠUmpires":13528,"ĠQuickly":13529,"AAAA":13530,"Ġanthem":13531,"Ġconfidently":13532,"Ġelevate":13533,"Ġblack":13534,"Ġblazes":13535,"Ġbaseball":13536,"Ġambled":13537,"Ġambling":13538,"iyanselage":13539,"Ġideally":13540,"Ġerratic":13541,"Ġsublimely":13542,"Ġrespond":13543,"Ġmistakes":13544,"Ġinstincti":13545,"meters":13546,"Ġtreats":13547,"Ġtreated":13548,"Ġtreating":13549,"Ġdisappointing":13550,"kmph":13551,"Ġbalcony":13552,"Ġ41916":13553,"Ġcommendable":13554,"Ġadjusting":13555,"Ġshimmied":13556,"Ġlaws":13557,"Ġinterest":13558,"Ġbobbles":13559,"ĠTotal":13560,"Ġprocession":13561,"Ġfairness":13562,"Ġmisjudging":13563,"ansfers":13564,"Ġcurl":13565,"Ġcurse":13566,"Ġcursing":13567,"Ġpredictably":13568,"batsman":13569,"Ġsticking":13570,"Ġtransforms":13571,"Ġyea":13572,"Ġtwists":13573,"Ġeyeing":13574,"ĠWatched":13575,"bakes":13576,"minute":13577,"Ġblasting":13578,"Ġcrazy":13579,"ĠSouthpaw":13580,"Ġchopper":13581,"Ġretain":13582,"strous":13583,"Ġreturning":13584,"ĠProble":13585,"Ġconverted":13586,"Ġmeantime":13587,"Ġfavourites":13588,"ĠRoom":13589,"Ġslamming":13590,"Ġhorrific":13591,"glas":13592,"glance":13593,"Ġrubber":13594,"Ġplane":13595,"Ġplanet":13596,"Ġdigit":13597,"Ġexcuse":13598,"Ġexcitement":13599,"Ġclimbed":13600,"Ġshackle":13601,"Ġmanagement":13602,"Ġspeedster":13603,"ddd":13604,"Ġpouching":13605,"Ġreckoned":13606,"Ġpresentation":13607,"ĠSweeps":13608,"Ġrule":13609,"ĠRises":13610,"Ġmarathon":13611,"Ġpocketing":13612,"Ġscorched":13613,"ĠCruel":13614,"eeeeee":13615,"Ġamplified":13616,"Ġpromising":13617,"Ġ54835":13618,"hhhh":13619,"Ġjail":13620,"Ġflair":13621,"Ġflawless":13622,"ĠAdjust":13623,"ĠAdrian":13624,"Ġminimum":13625,"Ġequal":13626,"Ġpremeditating":13627,"Ġjabbed":13628,"Ġfancied":13629,"ĠMighty":13630,"Ġdenying":13631,"ĠLofts":13632,"ĠLoosener":13633,"Ġshouting":13634,"Ġprodu":13635,"Ġtempt":13636,"Ġtempts":13637,"Ġrampage":13638,"Ġchalked":13639,"Ġoverpitching":13640,"Ġtailor":13641,"Ġshovelled":13642,"ĠAustralia":13643,"Ġbarr":13644,"Ġnicking":13645,"Ġmiserable":13646,"Ġgloriously":13647,"ĠSeeing":13648,"Ġfightback":13649,"ĠChatterjee":13650,"Ġgrate":13651,"Ġgrown":13652,"Ġdusted":13653,"ĠGreets":13654,"ĠEasiest":13655,"Ġjuggling":13656,"Ġairrrrr":13657,"turned":13658,"Ġafloat":13659,"Ġthwacked":13660,"ĠPresses":13661,"ĠSlogged":13662,"Ġunsettle":13663,"Ġrelies":13664,"Ġrelcut":13665,"Ġrelatively":13666,"Ġarrest":13667,"Ġarrested":13668,"Ġbooming":13669,"Ġsuccessfully":13670,"Ġshies":13671,"Ġshifting":13672,"Ġshifted":13673,"ĠRemoves":13674,"Ġgrima":13675,"Ġstroking":13676,"Ġclaimed":13677,"Ġsupple":13678,"pected":13679,"Ġreduced":13680,"Ġdelicacy":13681,"Ġadmired":13682,"Ġadmires":13683,"Ġhorizontally":13684,"Ġtransfered":13685,"Ġwhistled":13686,"Ġmonstrous":13687,"Ġforgettable":13688,"Ġforgotten":13689,"ĠDesper":13690,"Ġcombined":13691,"Ġpremeditatedly":13692,"Ġserv":13693,"Ġfailing":13694,"ĠPlants":13695,"Ġpivoted":13696,"Ġpassed":13697,"ĠJonathan":13698,"Ġcollide":13699,"Ġfloored":13700,"Ġconsuming":13701,"Ġskewing":13702,"Ġwobble":13703,"ĠHurries":13704,"Ġplonk":13705,"Ġplonking":13706,"Ġflattened":13707,"Ġtentatively":13708,"heartedly":13709,"Ġsalute":13710,"Ġshellshocked":13711,"Ġpurely":13712,"Ġpurchase":13713,"Ġambitiously":13714,"Ġapplauding":13715,"Ġcaused":13716,"ĠTremendous":13717,"Ġpinpoint":13718,"Ġforehanded":13719,"ĠChants":13720,"ĠCollects":13721,"Ġhunch":13722,"ĠAfghanistan":13723,"Ġballooning":13724,"Ġcasualty":13725,"Ġviolence":13726,"Ġsmear":13727,"Ġbrakes":13728,"Ġbrawn":13729,"Ġwindow":13730,"Ġclawing":13731,"Ġforearm":13732,"Ġdestiny":13733,"ĠSteve":13734,"Ġseverely":13735,"Ġzooming":13736,"Ġinvitations":13737,"Ġapproaching":13738,"ĠTransfers":13739,"Ġnurdles":13740,"Ġposts":13741,"Ġregulations":13742,"Ġgenerating":13743,"Ġribcage":13744,"Ġpatiently":13745,"Ġdeviate":13746,"Ġstabbed":13747,"boundary":13748,"Ġscooted":13749,"Ġmarmalized":13750,"Ġpeppered":13751,"Ġricochet":13752,"ĠDelic":13753,"ĠDelight":13754,"ĠBlasted":13755,"ĠBludgeoned":13756,"ĠBounces":13757,"ĠFrustr":13758,"ĠFrench":13759,"Ġfreedom":13760,"Ġcompulsively":13761,"Ġmeasure":13762,"Ġwhiplashed":13763,"Ġbased":13764,"Ġgestures":13765,"Ġgestured":13766,"Ġstuttering":13767,"Ġnestling":13768,"Ġhelluva":13769,"Ġlocate":13770,"Ġ82973":13771,"ĠSkids":13772,"Ġbamboozled":13773,"Ġcongratulates":13774,"UUUU":13775,"slower":13776,"slanter":13777,"Ġsinew":13778,"Ġflogged":13779,"Ġbanana":13780,"Ġoverbalancing":13781,"ĠDouglas":13782,"ĠCraig":13783,"Ġindic":13784,"Ġintrod":13785,"Ġepiphany":13786,"Ġtactic":13787,"Ġinnovation":13788,"boyant":13789,"ĠEveryone":13790,"ĠEverything":13791,"Ġspearing":13792,"Ġperiscopes":13793,"Ġuncharac":13794,"Ġdestroys":13795,"Ġdestroyed":13796,"flick":13797,"uitous":13798,"Ġwarhor":13799,"ĠHorror":13800,"ĠWaste":13801,"Ġfreely":13802,"Ġfreaky":13803,"Ġhoodwinked":13804,"nnnnnnnn":13805,"Ġdistraught":13806,"Ġclinical":13807,"Ġkaboom":13808,"Ġkaboooooom":13809,"ĠSpoils":13810,"ĠSpoons":13811,"Ġaccounts":13812,"Ġaccounted":13813,"Ġintercept":13814,"Ġenticing":13815,"Ġsacrifice":13816,"drifter":13817,"Ġsuffer":13818,"Ġbeaming":13819,"ĠPeople":13820,"ĠAlexander":13821,"Ġmemor":13822,"Ġpleading":13823,"ĠBelted":13824,"Ġnervy":13825,"Ġnervous":13826,"Ġbacktracked":13827,"Ġbacktracks":13828,"Ġshoots":13829,"Ġsprawls":13830,"Ġjustif":13831,"Ġjustified":13832,"Ġtrouser":13833,"Ġtrousers":13834,"Ġenables":13835,"Ġlimping":13836,"Ġtrekked":13837,"Ġflaunts":13838,"Ġflaunted":13839,"Ġbulldozes":13840,"Ġbulldozed":13841,"ĠSqueezed":13842,"culated":13843,"Ġveering":13844,"Ġtweaks":13845,"Ġbargain":13846,"Ġwitnessed":13847,"Ġcertified":13848,"ĠTrifle":13849,"ĠBradley":13850,"Ġdrown":13851,"ĠFeeds":13852,"Ġincluding":13853,"Ġeighth":13854,"ĠNadu":13855,"Ġsizzler":13856,"Ġdefinite":13857,"Ġbutchered":13858,"Ġflamboyant":13859,"Ġfluffs":13860,"Ġnegate":13861,"Ġwhizzes":13862,"Ġreplacement":13863,"Ġresponsibility":13864,"Ġextravagant":13865,"Ġemployed":13866,"Ġdisparaging":13867,"Ġassociated":13868,"Ġpivotal":13869,"Ġwoeful":13870,"Ġlanguidly":13871,"ĠContinues":13872,"Ġinevitable":13873,"Ġessay":13874,"Ġterribly":13875,"Ġblitz":13876,"Ġwhirlwind":13877,"ĠTrying":13878,"Ġmicro":13879,"Ġmadness":13880,"Ġmotoring":13881,"ĠClipped":13882,"ĠBullets":13883,"ĠJoshua":13884,"Ġduped":13885,"ĠFielder":13886,"Ġstatue":13887,"Ġstreet":13888,"ĠHammered":13889,"Ġnumerous":13890,"ĠVikram":13891,"Ġreversed":13892,"Ġrebuilding":13893,"ĠStrokes":13894,"Ġscenes":13895,"Ġscript":13896,"ĠOpened":13897,"ĠOopsy":13898,"Ġprowess":13899,"ĠPreempts":13900,"Ġresurrected":13901,"Ġcompliment":13902,"ĠClubs":13903,"ĠInteresting":13904,"Ġushered":13905,"Ġbreeze":13906,"ĠMurdered":13907,"Ġprogress":13908,"Ġimpetus":13909,"Ġenterprising":13910,"ĠDispatches":13911,"Ġmassacred":13912,"Ġincreas":13913,"Gulbadin":13914,"Rayudu":13915,"Smith":13916,"Virat":13917,"breaks":13918,"Ġurge":13919,"Ġastute":13920,"ĠSivaramakrish":13921,"Ġtoughest":13922,"Ġsumpt":13923,"Ġfodder":13924,"Ġbarrage":13925,"Ġravishing":13926,"Ġrailway":13927,"Ġruthless":13928,"ĠMudiyanselage":13929,"ĠMoody":13930,"ĠRoger":13931,"ĠKoushik":13932,"ĠKookab":13933,"ĠPummels":13934,"Ġchild":13935,"ĠTamil":13936,"Ġmedioc":13937,"Ġmedicine":13938,"Ġpolite":13939,"Ġpersonal":13940,"ĠDangerous":13941,"ĠCourtesy":13942,"ĠCracking":13943,"Ġdicey":13944,"Ġstaple":13945,"advised":13946,"Ġintimid":13947,"Ġinexper":13948,"ĠHaven":13949,"ĠHimanshu":13950,"Ġecstatic":13951,"Ġnimble":13952,"Ġnagging":13953,"Ġnasty":13954,"Ġladies":13955,"Ġlousy":13956,"ĠUtterly":13957,"Ġrecovery":13958,"Ġquintess":13959,"releaser":13960,"antalizingly":13961,"ikaze":13962,"Ġprodigious":13963,"Ġexquisitely":13964,"ĠZealand":13965,"Ġvelocity":13966,"Ġperformance":13967,"Ġjogging":13968,"Ġuncomfortable":13969,"Ġneighb":13970,"ĠOvercompensates":13971,"Ġinstinctively":13972,"Ġuncharacteristic":13973,"Ġwarhorse":13974,"ĠSivaramakrishnan":13975,"!?":13976,"):":13977,"+.":13978,",'":13979,"024":13980,"073":13981,"2864":13982,"322":13983,"343":13984,"425":13985,"473":13986,"457":13987,"428":13988,"482":13989,"567":13990,"543":13991,"593":13992,"667":13993,"719":13994,"729":13995,"789":13996,"799":13997,"878":13998,"809":13999,"808":14000,"883":14001,"918":14002,"989":14003,"944":14004,"986":14005,"998":14006,"997":14007,"907":14008,"?)":14009,"Ak":14010,"AMM":14011,"Baby":14012,"DM":14013,"Gambhir":14014,"Gurnoor":14015,"He":14016,"Hyder":14017,"IPL":14018,"Jalaj":14019,"Klaasen":14020,"Kiwi":14021,"LI":14022,"LY":14023,"Liton":14024,"Monu":14025,"Milind":14026,"OL":14027,"OO":14028,"One":14029,"OPP":14030,"PSP":14031,"Poor":14032,"Phenomenal":14033,"Pandya":14034,"RW":14035,"Rohit":14036,"Rovman":14037,"Sar":14038,"Sediqullah":14039,"Scoop":14040,"TY":14041,"Te":14042,"Th":14043,"The":14044,"Tan":14045,"UA":14046,"VAL":14047,"Warn":14048,"Younis":14049,"][/":14050,"ais":14051,"aid":14052,"apped":14053,"akar":14054,"alent":14055,"appe":14056,"awn":14057,"bh":14058,"bl":14059,"bates":14060,"both":14061,"blow":14062,"bati":14063,"brid":14064,"cou":14065,"cuss":14066,"chest":14067,"dis":14068,"dly":14069,"dds":14070,"done":14071,"dos":14072,"dig":14073,"dition":14074,"eu":14075,"eers":14076,"eath":14077,"fr":14078,"fli":14079,"fud":14080,"fast":14081,"flighted":14082,"fold":14083,"floss":14084,"gu":14085,"gul":14086,"geh":14087,"gner":14088,"game":14089,"gination":14090,"guised":14091,"hw":14092,"hum":14093,"hus":14094,"hop":14095,"hoop":14096,"hpaw":14097,"hounds":14098,"house":14099,"hsim":14100,"ii":14101,"icor":14102,"ium":14103,"iate":14104,"ipper":14105,"ippy":14106,"ivers":14107,"jeez":14108,"jured":14109,"kates":14110,"kant":14111,"kays":14112,"krie":14113,"lard":14114,"lers":14115,"lodge":14116,"luck":14117,"lation":14118,"lasses":14119,"lane":14120,"mur":14121,"mma":14122,"mless":14123,"mosphere":14124,"mbol":14125,"nor":14126,"oe":14127,"oj":14128,"ooh":14129,"oper":14130,"ogi":14131,"pro":14132,"pump":14133,"pol":14134,"power":14135,"pins":14136,"pulled":14137,"pired":14138,"push":14139,"pitches":14140,"pleasing":14141,"packed":14142,"ru":14143,"row":14144,"rast":14145,"rated":14146,"sle":14147,"sit":14148,"sha":14149,"sur":14150,"sto":14151,"singh":14152,"slog":14153,"ship":14154,"sense":14155,"slip":14156,"tri":14157,"tom":14158,"tic":14159,"thed":14160,"two":14161,"tith":14162,"ture":14163,"tici":14164,"tices":14165,"taker":14166,"uhal":14167,"uuge":14168,"upper":14169,"uising":14170,"udes":14171,"uades":14172,"vind":14173,"vinder":14174,"vails":14175,"vendra":14176,"vites":14177,"wer":14178,"widish":14179,"witting":14180,"xe":14181,"xious":14182,"yta":14183,"yush":14184,"ymer":14185,"ybrid":14186,"yhounds":14187,"zo":14188,"zvendra":14189,"Âł":14190,"Ġ*":14191,"Ġ+":14192,"Ġ|":14193,"Ġic":14194,"Ġice":14195,"Ġtas":14196,"Ġtriv":14197,"Ġtank":14198,"Ġtidy":14199,"Ġteed":14200,"Ġtiniest":14201,"Ġtantalizingly":14202,"ĠSit":14203,"ĠSou":14204,"ĠSli":14205,"ĠSurr":14206,"ĠSort":14207,"ĠSlo":14208,"ĠSna":14209,"ĠSne":14210,"ĠSreen":14211,"ĠSile":14212,"ĠScy":14213,"ĠSeri":14214,"ĠServes":14215,"ĠServed":14216,"ĠSign":14217,"ĠSchool":14218,"ored":14219,"orded":14220,"orbo":14221,"Ġtoy":14222,"Ġtopp":14223,"Ġtopped":14224,"Ġtoys":14225,"Ġtomor":14226,"eron":14227,"erked":14228,"erence":14229,"eracy":14230,"ergen":14231,"Ġour":14232,"Ġobs":14233,"Ġoust":14234,"Ġouch":14235,"Ġoops":14236,"Ġooz":14237,"Ġoxy":14238,"Ġodds":14239,"heels":14240,"inent":14241,"inded":14242,"inth":14243,"inking":14244,"any":14245,"anza":14246,"Ġsas":14247,"Ġsand":14248,"Ġsou":14249,"Ġsway":14250,"Ġsoul":14251,"Ġsag":14252,"Ġshad":14253,"Ġsunk":14254,"Ġsought":14255,"Ġsung":14256,"Ġsussed":14257,"arer":14258,"aray":14259,"arate":14260,"arang":14261,"Ġfit":14262,"Ġfra":14263,"Ġfot":14264,"Ġfant":14265,"Ġfac":14266,"Ġfading":14267,"Ġfended":14268,"Ġfences":14269,"verts":14270,"vertent":14271,"lead":14272,"leap":14273,"Ġbot":14274,"Ġbird":14275,"Ġbash":14276,"Ġbrav":14277,"Ġbashed":14278,"Ġbust":14279,"Ġbosh":14280,"Ġbomb":14281,"Ġbiri":14282,"Ġboring":14283,"deal":14284,"dept":14285,"destructing":14286,"degree":14287,"ingent":14288,"keyed":14289,"Ġwri":14290,"Ġwis":14291,"Ġwet":14292,"Ġwham":14293,"Ġwound":14294,"Ġwoes":14295,"Ġwoo":14296,"Ġwhale":14297,"Ġwrapped":14298,"Ġwading":14299,"Ġwarm":14300,"Ġwanders":14301,"Ġras":14302,"Ġrom":14303,"Ġrough":14304,"Ġriv":14305,"Ġrous":14306,"Ġreper":14307,"Ġrusty":14308,"ĠMang":14309,"ĠMana":14310,"ĠMohn":14311,"ĠMathe":14312,"ĠMatters":14313,"ĠMost":14314,"ĠMaster":14315,"ĠMoving":14316,"ĠMandy":14317,"ĠMammoth":14318,"ĠMbang":14319,"ĠRed":14320,"ĠRash":14321,"ĠRub":14322,"ĠRang":14323,"ĠRushes":14324,"ĠRush":14325,"ĠRovman":14326,"oning":14327,"ones":14328,"asm":14329,"asures":14330,"ller":14331,"uns":14332,"unning":14333,"unished":14334,"ĠKing":14335,"ĠKes":14336,"ĠKag":14337,"ĠPard":14338,"ĠPings":14339,"ĠPop":14340,"ĠPram":14341,"ĠPlay":14342,"ĠPouches":14343,"ĠPays":14344,"ĠPHH":14345,"ĠPumps":14346,"ĠPlease":14347,"ĠPinned":14348,"ĠPlaying":14349,"ĠAway":14350,"ĠAim":14351,"ĠAjay":14352,"ĠAiden":14353,"ĠAjit":14354,"ĠApart":14355,"ĠAyush":14356,"Ġcast":14357,"Ġcaut":14358,"Ġcity":14359,"Ġcatap":14360,"Ġcastled":14361,"Ġcries":14362,"Ġcuc":14363,"Ġctr":14364,"Ġcunning":14365,"itya":14366,"itant":14367,"itous":14368,"itted":14369,"itated":14370,"ĠTI":14371,"ĠTy":14372,"ĠTon":14373,
[...]
